#ifndef __ECG_SEGMENTATION_FLATBUFFER_H
#define __ECG_SEGMENTATION_FLATBUFFER_H
const unsigned char ecg_segmentation_flatbuffer[] = {
  0x20, 0x00, 0x00, 0x00, 0x54, 0x46, 0x4c, 0x33, 0x00, 0x00, 0x00, 0x00, 0x14, 0x00, 0x20, 0x00, 0x1c, 0x00, 0x18, 0x00,
  0x14, 0x00, 0x10, 0x00, 0x0c, 0x00, 0x00, 0x00, 0x08, 0x00, 0x04, 0x00, 0x14, 0x00, 0x00, 0x00, 0x1c, 0x00, 0x00, 0x00,
  0x80, 0x00, 0x00, 0x00, 0xd8, 0x00, 0x00, 0x00, 0xf0, 0x11, 0x00, 0x00, 0x00, 0x12, 0x00, 0x00, 0xd8, 0x56, 0x00, 0x00,
  0x03, 0x00, 0x00, 0x00, 0x01, 0x00, 0x00, 0x00, 0x04, 0x00, 0x00, 0x00, 0xca, 0xe8, 0xff, 0xff, 0x0c, 0x00, 0x00, 0x00,
  0x1c, 0x00, 0x00, 0x00, 0x38, 0x00, 0x00, 0x00, 0x0f, 0x00, 0x00, 0x00, 0x73, 0x65, 0x72, 0x76, 0x69, 0x6e, 0x67, 0x5f,
  0x64, 0x65, 0x66, 0x61, 0x75, 0x6c, 0x74, 0x00, 0x01, 0x00, 0x00, 0x00, 0x04, 0x00, 0x00, 0x00, 0x9c, 0xff, 0xff, 0xff,
  0x45, 0x00, 0x00, 0x00, 0x04, 0x00, 0x00, 0x00, 0x07, 0x00, 0x00, 0x00, 0x73, 0x6f, 0x66, 0x74, 0x6d, 0x61, 0x78, 0x00,
  0x01, 0x00, 0x00, 0x00, 0x04, 0x00, 0x00, 0x00, 0x8a, 0xed, 0xff, 0xff, 0x04, 0x00, 0x00, 0x00, 0x07, 0x00, 0x00, 0x00,
  0x69, 0x6e, 0x70, 0x75, 0x74, 0x5f, 0x31, 0x00, 0x02, 0x00, 0x00, 0x00, 0x34, 0x00, 0x00, 0x00, 0x04, 0x00, 0x00, 0x00,
  0xdc, 0xff, 0xff, 0xff, 0x48, 0x00, 0x00, 0x00, 0x04, 0x00, 0x00, 0x00, 0x13, 0x00, 0x00, 0x00, 0x43, 0x4f, 0x4e, 0x56,
  0x45, 0x52, 0x53, 0x49, 0x4f, 0x4e, 0x5f, 0x4d, 0x45, 0x54, 0x41, 0x44, 0x41, 0x54, 0x41, 0x00, 0x08, 0x00, 0x0c, 0x00,
  0x08, 0x00, 0x04, 0x00, 0x08, 0x00, 0x00, 0x00, 0x47, 0x00, 0x00, 0x00, 0x04, 0x00, 0x00, 0x00, 0x13, 0x00, 0x00, 0x00,
  0x6d, 0x69, 0x6e, 0x5f, 0x72, 0x75, 0x6e, 0x74, 0x69, 0x6d, 0x65, 0x5f, 0x76, 0x65, 0x72, 0x73, 0x69, 0x6f, 0x6e, 0x00,
  0x49, 0x00, 0x00, 0x00, 0x14, 0x11, 0x00, 0x00, 0x0c, 0x11, 0x00, 0x00, 0xec, 0x10, 0x00, 0x00, 0xd4, 0x10, 0x00, 0x00,
  0xb8, 0x10, 0x00, 0x00, 0xa0, 0x10, 0x00, 0x00, 0xd0, 0x0f, 0x00, 0x00, 0x40, 0x0f, 0x00, 0x00, 0x30, 0x0c, 0x00, 0x00,
  0xc0, 0x0b, 0x00, 0x00, 0x90, 0x0a, 0x00, 0x00, 0x50, 0x0a, 0x00, 0x00, 0x20, 0x09, 0x00, 0x00, 0xb0, 0x08, 0x00, 0x00,
  0x58, 0x08, 0x00, 0x00, 0xe8, 0x07, 0x00, 0x00, 0x58, 0x06, 0x00, 0x00, 0x08, 0x06, 0x00, 0x00, 0x78, 0x05, 0x00, 0x00,
  0x48, 0x05, 0x00, 0x00, 0xb8, 0x04, 0x00, 0x00, 0x68, 0x04, 0x00, 0x00, 0x28, 0x04, 0x00, 0x00, 0xd8, 0x03, 0x00, 0x00,
  0x48, 0x03, 0x00, 0x00, 0x34, 0x03, 0x00, 0x00, 0x2c, 0x03, 0x00, 0x00, 0x24, 0x03, 0x00, 0x00, 0xf4, 0x02, 0x00, 0x00,
  0xc4, 0x02, 0x00, 0x00, 0xa4, 0x02, 0x00, 0x00, 0x74, 0x02, 0x00, 0x00, 0x44, 0x02, 0x00, 0x00, 0x1c, 0x02, 0x00, 0x00,
  0xec, 0x01, 0x00, 0x00, 0xd4, 0x01, 0x00, 0x00, 0xc0, 0x01, 0x00, 0x00, 0xac, 0x01, 0x00, 0x00, 0x98, 0x01, 0x00, 0x00,
  0x84, 0x01, 0x00, 0x00, 0x7c, 0x01, 0x00, 0x00, 0x74, 0x01, 0x00, 0x00, 0x6c, 0x01, 0x00, 0x00, 0x64, 0x01, 0x00, 0x00,
  0x5c, 0x01, 0x00, 0x00, 0x54, 0x01, 0x00, 0x00, 0x4c, 0x01, 0x00, 0x00, 0x44, 0x01, 0x00, 0x00, 0x3c, 0x01, 0x00, 0x00,
  0x34, 0x01, 0x00, 0x00, 0x2c, 0x01, 0x00, 0x00, 0x24, 0x01, 0x00, 0x00, 0x1c, 0x01, 0x00, 0x00, 0x14, 0x01, 0x00, 0x00,
  0x0c, 0x01, 0x00, 0x00, 0x04, 0x01, 0x00, 0x00, 0xfc, 0x00, 0x00, 0x00, 0xf4, 0x00, 0x00, 0x00, 0xec, 0x00, 0x00, 0x00,
  0xe4, 0x00, 0x00, 0x00, 0xdc, 0x00, 0x00, 0x00, 0xd4, 0x00, 0x00, 0x00, 0xcc, 0x00, 0x00, 0x00, 0xc4, 0x00, 0x00, 0x00,
  0xbc, 0x00, 0x00, 0x00, 0xb4, 0x00, 0x00, 0x00, 0xac, 0x00, 0x00, 0x00, 0xa4, 0x00, 0x00, 0x00, 0x9c, 0x00, 0x00, 0x00,
  0x94, 0x00, 0x00, 0x00, 0x8c, 0x00, 0x00, 0x00, 0x6c, 0x00, 0x00, 0x00, 0x04, 0x00, 0x00, 0x00, 0x22, 0xef, 0xff, 0xff,
  0x04, 0x00, 0x00, 0x00, 0x58, 0x00, 0x00, 0x00, 0x0c, 0x00, 0x00, 0x00, 0x08, 0x00, 0x0e, 0x00, 0x08, 0x00, 0x04, 0x00,
  0x08, 0x00, 0x00, 0x00, 0x10, 0x00, 0x00, 0x00, 0x28, 0x00, 0x00, 0x00, 0x00, 0x00, 0x06, 0x00, 0x08, 0x00, 0x04, 0x00,
  0x06, 0x00, 0x00, 0x00, 0x04, 0x00, 0x00, 0x00, 0x01, 0x00, 0x00, 0x00, 0xeb, 0x03, 0x00, 0x00, 0x00, 0x00, 0x0a, 0x00,
  0x10, 0x00, 0x0c, 0x00, 0x08, 0x00, 0x04, 0x00, 0x0a, 0x00, 0x00, 0x00, 0x02, 0x00, 0x00, 0x00, 0x02, 0x00, 0x00, 0x00,
  0x04, 0x00, 0x00, 0x00, 0x06, 0x00, 0x00, 0x00, 0x32, 0x2e, 0x31, 0x34, 0x2e, 0x31, 0x00, 0x00, 0x86, 0xef, 0xff, 0xff,
  0x04, 0x00, 0x00, 0x00, 0x10, 0x00, 0x00, 0x00, 0x32, 0x2e, 0x31, 0x2e, 0x30, 0x00, 0x00, 0x00, 0x00, 0x00, 0x00, 0x00,
  0x00, 0x00, 0x00, 0x00, 0x60, 0xac, 0xff, 0xff, 0x64, 0xac, 0xff, 0xff, 0x68, 0xac, 0xff, 0xff, 0x6c, 0xac, 0xff, 0xff,
  0x70, 0xac, 0xff, 0xff, 0x74, 0xac, 0xff, 0xff, 0x78, 0xac, 0xff, 0xff, 0x7c, 0xac, 0xff, 0xff, 0x80, 0xac, 0xff, 0xff,
  0x84, 0xac, 0xff, 0xff, 0x88, 0xac, 0xff, 0xff, 0x8c, 0xac, 0xff, 0xff, 0x90, 0xac, 0xff, 0xff, 0x94, 0xac, 0xff, 0xff,
  0x98, 0xac, 0xff, 0xff, 0x9c, 0xac, 0xff, 0xff, 0xa0, 0xac, 0xff, 0xff, 0xa4, 0xac, 0xff, 0xff, 0xa8, 0xac, 0xff, 0xff,
  0xac, 0xac, 0xff, 0xff, 0xb0, 0xac, 0xff, 0xff, 0xb4, 0xac, 0xff, 0xff, 0xb8, 0xac, 0xff, 0xff, 0xbc, 0xac, 0xff, 0xff,
  0xc0, 0xac, 0xff, 0xff, 0xc4, 0xac, 0xff, 0xff, 0xc8, 0xac, 0xff, 0xff, 0xcc, 0xac, 0xff, 0xff, 0xd0, 0xac, 0xff, 0xff,
  0xd4, 0xac, 0xff, 0xff, 0xd8, 0xac, 0xff, 0xff, 0x1e, 0xf0, 0xff, 0xff, 0x04, 0x00, 0x00, 0x00, 0x03, 0x00, 0x00, 0x00,
  0xb9, 0xca, 0x81, 0x00, 0x2e, 0xf0, 0xff, 0xff, 0x04, 0x00, 0x00, 0x00, 0x04, 0x00, 0x00, 0x00, 0x34, 0xff, 0xff, 0xff,
  0x3e, 0xf0, 0xff, 0xff, 0x04, 0x00, 0x00, 0x00, 0x03, 0x00, 0x00, 0x00, 0x17, 0x81, 0x2c, 0x00, 0x4e, 0xf0, 0xff, 0xff,
  0x04, 0x00, 0x00, 0x00, 0x04, 0x00, 0x00, 0x00, 0x9f, 0x1b, 0x00, 0x00, 0x5e, 0xf0, 0xff, 0xff, 0x04, 0x00, 0x00, 0x00,
  0x08, 0x00, 0x00, 0x00, 0x7f, 0x7f, 0x7f, 0x81, 0x7f, 0x7f, 0x7f, 0x81, 0x72, 0xf0, 0xff, 0xff, 0x04, 0x00, 0x00, 0x00,
  0x20, 0x00, 0x00, 0x00, 0x09, 0xd9, 0xff, 0xff, 0xe1, 0xda, 0xff, 0xff, 0xfa, 0xe5, 0xff, 0xff, 0xac, 0x29, 0x00, 0x00,
  0xf4, 0xd3, 0xff, 0xff, 0x74, 0xcd, 0xff, 0xff, 0xa0, 0xd2, 0xff, 0xff, 0x92, 0x42, 0x00, 0x00, 0x9e, 0xf0, 0xff, 0xff,
  0x04, 0x00, 0x00, 0x00, 0x18, 0x00, 0x00, 0x00, 0xc0, 0xac, 0x8b, 0xad, 0x81, 0x7f, 0xd7, 0xcf, 0x7f, 0xca, 0xf1, 0xaa,
  0xa7, 0xdb, 0xe0, 0xe3, 0xc1, 0x7f, 0x7f, 0x81, 0x71, 0x19, 0x7f, 0x7f, 0xc2, 0xf0, 0xff, 0xff, 0x04, 0x00, 0x00, 0x00,
  0x20, 0x00, 0x00, 0x00, 0x26, 0x00, 0x00, 0x00, 0x96, 0x01, 0x00, 0x00, 0xe2, 0x00, 0x00, 0x00, 0x10, 0x1f, 0x00, 0x00,
  0x2d, 0x06, 0x00, 0x00, 0xde, 0xf9, 0xff, 0xff, 0xed, 0xfb, 0xff, 0xff, 0xb2, 0xfa, 0xff, 0xff, 0xee, 0xf0, 0xff, 0xff,
  0x04, 0x00, 0x00, 0x00, 0x20, 0x00, 0x00, 0x00, 0x81, 0x6e, 0xeb, 0x10, 0xa8, 0x92, 0xaf, 0xd9, 0xee, 0x1d, 0xe3, 0x01,
  0xea, 0x7f, 0xd0, 0x1f, 0x6b, 0xdc, 0x7f, 0x37, 0xe7, 0x42, 0x0f, 0x06, 0xa7, 0x81, 0xcf, 0x33, 0x4d, 0xb3, 0xff, 0xea,
  0x1a, 0xf1, 0xff, 0xff, 0x04, 0x00, 0x00, 0x00, 0x10, 0x00, 0x00, 0x00, 0x4e, 0xee, 0xff, 0xff, 0xf9, 0xf8, 0xff, 0xff,
  0xee, 0x1a, 0x00, 0x00, 0x1e, 0x19, 0x00, 0x00, 0x36, 0xf1, 0xff, 0xff, 0x04, 0x00, 0x00, 0x00, 0x20, 0x00, 0x00, 0x00,
  0x09, 0xda, 0x7f, 0xfc, 0x09, 0x7f, 0xda, 0x40, 0xeb, 0x62, 0xa8, 0x7f, 0xc7, 0xee, 0x81, 0x41, 0x9a, 0xcc, 0x31, 0x7f,
  0xf5, 0xe5, 0x81, 0x44, 0x7f, 0x29, 0x9b, 0x42, 0x33, 0x3b, 0xbe, 0x7f, 0x62, 0xf1, 0xff, 0xff, 0x04, 0x00, 0x00, 0x00,
  0x20, 0x00, 0x00, 0x00, 0x14, 0xf8, 0x01, 0x00, 0x3c, 0x46, 0x02, 0x00, 0x1f, 0xce, 0x01, 0x00, 0x59, 0xf4, 0x02, 0x00,
  0xd2, 0x2b, 0x02, 0x00, 0x20, 0xd4, 0x01, 0x00, 0xe1, 0xd1, 0x06, 0x00, 0x87, 0x07, 0x03, 0x00, 0x4c, 0xae, 0xff, 0xff,
  0x50, 0xae, 0xff, 0xff, 0x96, 0xf1, 0xff, 0xff, 0x04, 0x00, 0x00, 0x00, 0x01, 0x00, 0x00, 0x00, 0x7f, 0x00, 0x00, 0x00,
  0xa6, 0xf1, 0xff, 0xff, 0x04, 0x00, 0x00, 0x00, 0x80, 0x00, 0x00, 0x00, 0x18, 0xcb, 0x00, 0xd4, 0xb1, 0x5d, 0x81, 0x27,
  0x65, 0x16, 0x10, 0xfb, 0xeb, 0x81, 0xf4, 0xd4, 0xea, 0x3c, 0x12, 0xe9, 0x7f, 0x9e, 0x0d, 0x90, 0x6e, 0x67, 0x72, 0x81,
  0x5c, 0xbe, 0x04, 0xe2, 0xfe, 0x01, 0xb3, 0x3b, 0x12, 0x34, 0xa3, 0x7f, 0x93, 0x8f, 0x81, 0xea, 0x0c, 0xf5, 0x05, 0xf3,
  0x4f, 0x2f, 0x47, 0xe2, 0xf9, 0x7f, 0x07, 0x7b, 0x48, 0xd4, 0xdd, 0xec, 0xcd, 0xaa, 0xeb, 0x7f, 0x7f, 0xbc, 0xd7, 0xe9,
  0xba, 0x17, 0xcd, 0x45, 0x54, 0x54, 0x6f, 0x9c, 0x16, 0x15, 0xa3, 0x81, 0x1f, 0x58, 0x5e, 0x3b, 0xb3, 0x08, 0x24, 0x7f,
  0x9c, 0xee, 0xe8, 0x2d, 0xcf, 0x32, 0x7f, 0xe9, 0x81, 0xdd, 0xd5, 0xf0, 0x19, 0x0f, 0xe8, 0x01, 0x04, 0xe6, 0xca, 0x11,
  0xe9, 0x7f, 0xc5, 0x45, 0xd8, 0x0c, 0x08, 0x2b, 0x02, 0xde, 0x61, 0x7f, 0x55, 0x04, 0xe2, 0xf3, 0x3e, 0xc6, 0x7f, 0x57,
  0x32, 0xf2, 0xff, 0xff, 0x04, 0x00, 0x00, 0x00, 0x40, 0x00, 0x00, 0x00, 0x54, 0x06, 0x00, 0x00, 0xec, 0xfb, 0xff, 0xff,
  0x98, 0x10, 0x00, 0x00, 0x80, 0x05, 0x00, 0x00, 0x1e, 0x3c, 0xa7, 0xfe, 0x2a, 0x07, 0x00, 0x00, 0xf1, 0x04, 0x00, 0x00,
  0x0f, 0x07, 0x00, 0x00, 0xce, 0x09, 0x00, 0x00, 0x76, 0x07, 0x00, 0x00, 0x4f, 0xf6, 0xff, 0xff, 0x38, 0x00, 0x00, 0x00,
  0x7b, 0x09, 0x00, 0x00, 0xb2, 0xfb, 0xff, 0xff, 0x69, 0xfc, 0xff, 0xff, 0xb1, 0xfe, 0xff, 0xff, 0x7e, 0xf2, 0xff, 0xff,
  0x04, 0x00, 0x00, 0x00, 0x30, 0x00, 0x00, 0x00, 0x4b, 0x5a, 0x6c, 0x99, 0x4b, 0xc4, 0x21, 0x33, 0x7f, 0xf6, 0x0d, 0x7f,
  0x76, 0x8e, 0x42, 0x9e, 0x1c, 0x7f, 0x88, 0x81, 0x81, 0x81, 0x81, 0xe6, 0x85, 0x09, 0x81, 0xbe, 0x81, 0x7f, 0x6a, 0xd9,
  0x81, 0x63, 0x7f, 0x34, 0x8d, 0x7c, 0x47, 0x7f, 0xd6, 0x7f, 0xc8, 0x81, 0x36, 0x18, 0x81, 0x7f, 0xba, 0xf2, 0xff, 0xff,
  0x04, 0x00, 0x00, 0x00, 0x40, 0x00, 0x00, 0x00, 0x35, 0xff, 0xff, 0xff, 0x1d, 0xfd, 0xff, 0xff, 0x40, 0xf2, 0xff, 0xff,
  0x05, 0x06, 0x00, 0x00, 0x55, 0x33, 0x8c, 0xff, 0x77, 0x01, 0x00, 0x00, 0x52, 0x02, 0x00, 0x00, 0x70, 0xfb, 0xff, 0xff,
  0xf9, 0x01, 0x00, 0x00, 0xd2, 0xfe, 0xff, 0xff, 0x13, 0x0f, 0x00, 0x00, 0x91, 0x01, 0x00, 0x00, 0x76, 0xfa, 0xff, 0xff,
  0xfd, 0xff, 0xff, 0xff, 0x7f, 0xfd, 0xff, 0xff, 0x5b, 0x03, 0x00, 0x00, 0x06, 0xf3, 0xff, 0xff, 0x04, 0x00, 0x00, 0x00,
  0x80, 0x00, 0x00, 0x00, 0x7f, 0xb6, 0x06, 0x05, 0x1d, 0x1c, 0x59, 0x20, 0x3c, 0x36, 0xe0, 0x56, 0xdf, 0x66, 0xd4, 0x2a,
  0xbf, 0x45, 0xcc, 0x2f, 0xa9, 0xd4, 0x32, 0x2b, 0x3e, 0x0b, 0x81, 0x89, 0xb7, 0xaa, 0xcf, 0x36, 0x6c, 0x00, 0xf1, 0x07,
  0xd8, 0xf3, 0xb6, 0x28, 0xad, 0x81, 0x24, 0xf8, 0xdb, 0xdc, 0x40, 0x2f, 0xc0, 0x31, 0x81, 0x12, 0x5f, 0x21, 0xfa, 0x05,
  0x3c, 0xbb, 0x3c, 0xfe, 0xbd, 0xb7, 0x04, 0xf8, 0x9c, 0x81, 0xce, 0x43, 0xb2, 0x92, 0xe9, 0x56, 0xcb, 0x1a, 0x97, 0x83,
  0xfa, 0xab, 0x97, 0x09, 0xfd, 0x33, 0xd8, 0x6f, 0x7f, 0xd2, 0x11, 0xcb, 0xc5, 0xab, 0x6b, 0xd6, 0xc0, 0x50, 0xd3, 0x94,
  0x42, 0x72, 0x5e, 0xd8, 0x34, 0xbd, 0x3d, 0xf7, 0x03, 0x52, 0xd1, 0x7f, 0x30, 0x3b, 0xe8, 0x0f, 0x3a, 0x63, 0xea, 0x46,
  0x57, 0x34, 0x11, 0x00, 0x1a, 0x7f, 0x13, 0xf2, 0x27, 0x20, 0x19, 0x5f, 0x92, 0xf3, 0xff, 0xff, 0x04, 0x00, 0x00, 0x00,
  0x20, 0x00, 0x00, 0x00, 0x7d, 0x1b, 0x00, 0x00, 0x4d, 0xfe, 0xff, 0xff, 0xd0, 0x17, 0x00, 0x00, 0x01, 0x22, 0x00, 0x00,
  0xbe, 0xfe, 0xff, 0xff, 0x20, 0x58, 0x00, 0x00, 0xbd, 0x29, 0x00, 0x00, 0x88, 0x20, 0x00, 0x00, 0xbe, 0xf3, 0xff, 0xff,
  0x04, 0x00, 0x00, 0x00, 0x80, 0x00, 0x00, 0x00, 0xd4, 0x14, 0x38, 0x57, 0x81, 0x50, 0xb9, 0x42, 0xd5, 0x50, 0x45, 0x61,
  0x9a, 0x7f, 0x67, 0x05, 0xd3, 0x81, 0x13, 0x4a, 0xd8, 0x3d, 0x1f, 0xda, 0x4c, 0xd7, 0x81, 0xf1, 0xbf, 0xd4, 0x58, 0x00,
  0xab, 0x22, 0xe3, 0xe7, 0x7f, 0xba, 0x6a, 0x4e, 0x45, 0x61, 0xb5, 0x97, 0x1a, 0x1a, 0x7f, 0xf7, 0x20, 0x0f, 0x7f, 0x39,
  0x9a, 0x32, 0xb7, 0xf6, 0x41, 0x8c, 0x1f, 0xee, 0x81, 0xe6, 0xe2, 0x04, 0x10, 0x5a, 0x51, 0xc9, 0x81, 0x28, 0xc9, 0x1c,
  0x29, 0x1d, 0x81, 0x45, 0xf9, 0x56, 0xcc, 0x03, 0x46, 0x21, 0x16, 0xb6, 0x8f, 0xce, 0x11, 0x7f, 0x2c, 0x81, 0xc7, 0xda,
  0x37, 0x0b, 0xf5, 0x19, 0x02, 0x4e, 0x16, 0x6f, 0xda, 0x7f, 0xf6, 0x69, 0xd5, 0x81, 0xed, 0x66, 0xf3, 0x0e, 0xed, 0x3c,
  0xdc, 0x81, 0x26, 0x22, 0xc8, 0xd8, 0xc3, 0xcd, 0x2d, 0xbd, 0x6a, 0xd4, 0xb3, 0x34, 0x81, 0x14, 0x4a, 0xf4, 0xff, 0xff,
  0x04, 0x00, 0x00, 0x00, 0x40, 0x00, 0x00, 0x00, 0x88, 0x92, 0x02, 0x00, 0x3f, 0xbd, 0x01, 0x00, 0x47, 0xc5, 0x01, 0x00,
  0xba, 0xbb, 0x01, 0x00, 0xe0, 0xa9, 0x01, 0x00, 0xd2, 0x2b, 0x02, 0x00, 0x44, 0x66, 0x01, 0x00, 0xb4, 0xa8, 0x01, 0x00,
  0x85, 0xae, 0x02, 0x00, 0x05, 0x97, 0x01, 0x00, 0xc0, 0x6d, 0x01, 0x00, 0xe0, 0xc8, 0x02, 0x00, 0xbc, 0xbd, 0x01, 0x00,
  0x01, 0x8b, 0x01, 0x00, 0x57, 0x80, 0x01, 0x00, 0x28, 0x84, 0x01, 0x00, 0x96, 0xf4, 0xff, 0xff, 0x04, 0x00, 0x00, 0x00,
  0x80, 0x01, 0x00, 0x00, 0x52, 0x7f, 0x40, 0xc2, 0x00, 0xd6, 0x55, 0xd1, 0x4e, 0x17, 0x11, 0x16, 0xf8, 0x47, 0x2f, 0x00,
  0x1f, 0x0c, 0x17, 0x24, 0x00, 0xf6, 0x7f, 0x08, 0x2f, 0x11, 0xea, 0x1e, 0x4a, 0x35, 0x17, 0x0f, 0x15, 0x1e, 0x7f, 0x75,
  0x00, 0x05, 0x2d, 0x36, 0xb9, 0x44, 0xd7, 0xfe, 0x4c, 0xf8, 0xb4, 0x63, 0x01, 0x4e, 0x7f, 0x91, 0x00, 0x96, 0xa1, 0x5b,
  0xe9, 0x20, 0xe6, 0x38, 0xfb, 0x07, 0x43, 0xbd, 0x31, 0xf0, 0xea, 0xbd, 0x00, 0x7f, 0xcd, 0x9c, 0xf8, 0x1f, 0xd7, 0xa0,
  0xfe, 0xdc, 0x6b, 0x14, 0xa6, 0xe6, 0xea, 0xe7, 0x00, 0x81, 0xd0, 0xf9, 0xe2, 0xdc, 0x29, 0xcd, 0x8a, 0xaf, 0x95, 0xc5,
  0x9f, 0xc1, 0x9f, 0xf1, 0xda, 0x10, 0x48, 0x5e, 0x3a, 0x46, 0xbb, 0xdd, 0x92, 0x81, 0x56, 0x9b, 0x3a, 0xe8, 0xdf, 0xae,
  0x00, 0xc5, 0xfa, 0xd5, 0x23, 0x09, 0xed, 0xb4, 0x81, 0xd3, 0x26, 0x86, 0x4b, 0x22, 0x7f, 0xc4, 0x00, 0xea, 0x3a, 0xcc,
  0x4f, 0xde, 0xc2, 0xe3, 0x5f, 0x0a, 0x1a, 0xc3, 0xca, 0x36, 0x7f, 0x26, 0x00, 0xec, 0x4f, 0x19, 0xd1, 0xff, 0x11, 0xc4,
  0x27, 0xee, 0xec, 0xfb, 0x03, 0x1d, 0xdc, 0x81, 0x00, 0xe7, 0x27, 0x27, 0x04, 0x73, 0x10, 0x11, 0xeb, 0x26, 0xfa, 0x39,
  0x0f, 0xe9, 0x13, 0x30, 0x00, 0xfe, 0x30, 0x5c, 0xca, 0x53, 0xd0, 0x05, 0xd4, 0x52, 0x52, 0x7f, 0xfd, 0xcc, 0x41, 0x35,
  0x00, 0x15, 0x68, 0xd5, 0x61, 0x1b, 0x81, 0x5b, 0xf7, 0xdf, 0x8a, 0x11, 0x1f, 0x7f, 0x25, 0x13, 0x00, 0xfd, 0x31, 0xfd,
  0x18, 0x10, 0xea, 0x04, 0x14, 0x29, 0x23, 0x07, 0xaa, 0x06, 0xc5, 0x7f, 0x00, 0xda, 0xf6, 0xf0, 0x96, 0x18, 0x03, 0x8e,
  0xef, 0xbe, 0xee, 0x19, 0xca, 0xfd, 0xf5, 0x2b, 0x00, 0x34, 0x1b, 0xe4, 0xea, 0x81, 0x7d, 0xbf, 0x47, 0x8f, 0xa4, 0x8b,
  0x0a, 0xfb, 0x7f, 0x27, 0x00, 0xe3, 0x0f, 0x4e, 0xee, 0x13, 0x04, 0xed, 0x18, 0xfd, 0xfe, 0x1e, 0x1c, 0x7f, 0x69, 0xf2,
  0x00, 0xf9, 0x33, 0x0c, 0x3d, 0x37, 0xf1, 0x13, 0x2f, 0x32, 0x3b, 0x08, 0x32, 0xe9, 0x05, 0xf2, 0x00, 0x4f, 0x10, 0xb2,
  0x96, 0x9e, 0x7f, 0xce, 0xc5, 0xe9, 0x01, 0xd6, 0xb6, 0xfb, 0xfd, 0xf7, 0x00, 0x81, 0x04, 0xeb, 0x00, 0xd4, 0x2c, 0xdc,
  0xe5, 0x04, 0xb7, 0xc4, 0x31, 0x64, 0x73, 0xcc, 0x00, 0x1c, 0x7f, 0x14, 0x13, 0x47, 0xc5, 0x20, 0x64, 0x41, 0x5b, 0x44,
  0xe8, 0xff, 0xef, 0x38, 0x00, 0xc0, 0xfa, 0x19, 0x81, 0x00, 0x1b, 0xc9, 0x96, 0xc5, 0xe0, 0x08, 0xb9, 0x01, 0x5a, 0x7f,
  0x00, 0xe3, 0x2e, 0x3e, 0xf8, 0x1d, 0xe8, 0x8c, 0x5f, 0xde, 0x1a, 0x3a, 0xc2, 0xe1, 0xdf, 0x4d, 0x00, 0x29, 0xaa, 0x7f,
  0x15, 0x9b, 0x27, 0x00, 0xf4, 0x5f, 0xcf, 0xeb, 0x22, 0xf6, 0xff, 0xff, 0x04, 0x00, 0x00, 0x00, 0x60, 0x00, 0x00, 0x00,
  0xc6, 0xfc, 0xff, 0xff, 0x3b, 0x0a, 0x00, 0x00, 0x20, 0xfc, 0xff, 0xff, 0x13, 0x0d, 0x00, 0x00, 0x2c, 0x06, 0x00, 0x00,
  0x41, 0x05, 0x00, 0x00, 0xf6, 0x14, 0x5f, 0xff, 0x3a, 0x0f, 0x00, 0x00, 0x80, 0xfe, 0xff, 0xff, 0xd2, 0xfc, 0xff, 0xff,
  0x75, 0x00, 0x00, 0x00, 0x8a, 0x01, 0x00, 0x00, 0xa2, 0x03, 0x00, 0x00, 0x71, 0xfa, 0xff, 0xff, 0xab, 0x02, 0x00, 0x00,
  0x25, 0x0e, 0x00, 0x00, 0x1e, 0xf6, 0xff, 0xff, 0x2d, 0xfb, 0xff, 0xff, 0x21, 0xfc, 0xff, 0xff, 0xb5, 0x01, 0x00, 0x00,
  0x19, 0xf6, 0xff, 0xff, 0x88, 0x04, 0x00, 0x00, 0x5d, 0xf4, 0xff, 0xff, 0xb3, 0xf8, 0xff, 0xff, 0x8e, 0xf6, 0xff, 0xff,
  0x04, 0x00, 0x00, 0x00, 0x48, 0x00, 0x00, 0x00, 0x7f, 0x7f, 0xac, 0x7f, 0x03, 0xcd, 0x0f, 0xf4, 0x7f, 0xf7, 0x1b, 0xe3,
  0x17, 0xa2, 0xf3, 0x78, 0xf6, 0x01, 0xd4, 0xd2, 0x5c, 0x7e, 0x7f, 0x36, 0xa5, 0x3a, 0x7f, 0xd2, 0x7e, 0xb8, 0x3f, 0x81,
  0x71, 0x81, 0x81, 0xf9, 0x6e, 0x81, 0xda, 0x7f, 0x0d, 0x7f, 0xf6, 0xb2, 0x49, 0x81, 0x28, 0x10, 0x30, 0x7c, 0x09, 0xeb,
  0x7f, 0x81, 0x7f, 0x71, 0x6f, 0x60, 0x04, 0x7f, 0x7f, 0xaa, 0x7f, 0x7f, 0x7f, 0x2f, 0x7f, 0x7f, 0x7f, 0xc1, 0x00, 0x7f,
  0xe2, 0xf6, 0xff, 0xff, 0x04, 0x00, 0x00, 0x00, 0x60, 0x00, 0x00, 0x00, 0x83, 0xff, 0xff, 0xff, 0x91, 0xf1, 0xff, 0xff,
  0xa5, 0xfe, 0xff, 0xff, 0xb2, 0xfd, 0xff, 0xff, 0xe7, 0xfe, 0xff, 0xff, 0xc5, 0x05, 0x00, 0x00, 0x7b, 0xb7, 0xba, 0xff,
  0x26, 0x01, 0x00, 0x00, 0x5e, 0xfc, 0xff, 0xff, 0x26, 0x03, 0x00, 0x00, 0x1c, 0x06, 0x00, 0x00, 0x5d, 0xfe, 0xff, 0xff,
  0x95, 0x04, 0x00, 0x00, 0x64, 0x0a, 0x00, 0x00, 0xb5, 0xfe, 0xff, 0xff, 0x9f, 0xee, 0xff, 0xff, 0xba, 0xfb, 0xff, 0xff,
  0xb0, 0xfc, 0xff, 0xff, 0x13, 0xfc, 0xff, 0xff, 0xa8, 0xfe, 0xff, 0xff, 0xdc, 0xfb, 0xff, 0xff, 0x0d, 0x03, 0x00, 0x00,
  0xed, 0xff, 0xff, 0xff, 0xf5, 0xff, 0xff, 0xff, 0x4e, 0xf7, 0xff, 0xff, 0x04, 0x00, 0x00, 0x00, 0x20, 0x01, 0x00, 0x00,
  0x64, 0xed, 0x03, 0xfa, 0xfe, 0x64, 0x2a, 0x22, 0x5d, 0x9c, 0x2c, 0xdf, 0xfb, 0x7f, 0x0c, 0xcd, 0x74, 0x37, 0xc5, 0xb6,
  0x37, 0x1e, 0xa8, 0xfa, 0xec, 0x1f, 0x44, 0x36, 0xed, 0xdf, 0xb3, 0x2a, 0x61, 0xe3, 0x3b, 0x4e, 0x0a, 0xab, 0x76, 0xf5,
  0x2e, 0x31, 0xac, 0xd7, 0x7f, 0x43, 0x15, 0x90, 0x01, 0x3d, 0xfb, 0x25, 0xdc, 0x33, 0x25, 0xf6, 0x7f, 0xe8, 0x2f, 0x0a,
  0x38, 0xf0, 0xeb, 0x2d, 0x40, 0x30, 0x39, 0xf4, 0x43, 0x2d, 0x64, 0xeb, 0xef, 0xfa, 0xe0, 0xc4, 0x7f, 0x1a, 0xf3, 0xc7,
  0xa7, 0xf4, 0xeb, 0x10, 0x2a, 0x27, 0x23, 0xef, 0x2a, 0xae, 0x18, 0x39, 0x48, 0x35, 0xb2, 0x18, 0x1c, 0x2f, 0x4d, 0x1f,
  0x1d, 0x45, 0xd0, 0xc1, 0xf6, 0xf8, 0x25, 0xf6, 0x10, 0xe7, 0xeb, 0x16, 0x32, 0x3c, 0xdd, 0x36, 0x33, 0xf7, 0x7f, 0x10,
  0xea, 0xed, 0xbe, 0xea, 0x1d, 0x2e, 0xe3, 0x45, 0xa5, 0x03, 0xe6, 0x60, 0xa8, 0x39, 0x21, 0x36, 0x81, 0x96, 0xf6, 0x19,
  0xb7, 0xf6, 0xd0, 0x4b, 0x0f, 0x44, 0x02, 0x00, 0xd2, 0x1f, 0x40, 0xf1, 0x7f, 0x45, 0xd0, 0x50, 0x21, 0x00, 0x1f, 0x0a,
  0x60, 0x4b, 0xb7, 0xd8, 0x77, 0xde, 0x57, 0xe4, 0x3c, 0x5d, 0x6f, 0x57, 0xab, 0x71, 0xe7, 0x28, 0x6b, 0x26, 0x11, 0x05,
  0x45, 0x58, 0x43, 0x0d, 0x37, 0x3a, 0x42, 0x04, 0x7c, 0x21, 0x7f, 0xed, 0xc7, 0x09, 0x3b, 0xd4, 0xb4, 0x00, 0x47, 0x0a,
  0x23, 0xca, 0x68, 0xdc, 0x08, 0xca, 0xdd, 0x58, 0x46, 0xdc, 0x1a, 0x07, 0x7f, 0x2e, 0x4a, 0x8f, 0x27, 0x00, 0xb4, 0x3f,
  0xfe, 0x41, 0xc6, 0x03, 0x09, 0x31, 0x7d, 0xcb, 0x37, 0x7f, 0xdf, 0xcf, 0x4a, 0x35, 0x3d, 0x36, 0xc7, 0x71, 0x54, 0xf6,
  0xb4, 0x3a, 0xcb, 0x2e, 0x3e, 0xff, 0xe6, 0xf5, 0x15, 0x33, 0xdf, 0x30, 0xc9, 0x1c, 0xf2, 0x7f, 0x3c, 0xbd, 0xf0, 0x27,
  0xe0, 0x03, 0xb0, 0x27, 0x25, 0x41, 0x10, 0x18, 0x7e, 0xf9, 0xc8, 0xae, 0xed, 0xd7, 0x2f, 0x3b, 0xe7, 0x6a, 0x29, 0x4e,
  0xc4, 0x89, 0x7d, 0xe3, 0x81, 0xf9, 0xdf, 0x71, 0x7a, 0xf8, 0xff, 0xff, 0x04, 0x00, 0x00, 0x00, 0x30, 0x00, 0x00, 0x00,
  0xd9, 0xf9, 0xff, 0xff, 0xc7, 0x07, 0x00, 0x00, 0xaa, 0x09, 0x00, 0x00, 0xde, 0x27, 0x00, 0x00, 0xc6, 0x21, 0x00, 0x00,
  0xee, 0x25, 0x00, 0x00, 0xa3, 0x0f, 0x00, 0x00, 0x80, 0x27, 0x00, 0x00, 0x1c, 0x0f, 0x00, 0x00, 0x82, 0x23, 0x00, 0x00,
  0x5f, 0x0f, 0x00, 0x00, 0xa5, 0x24, 0x00, 0x00, 0xb6, 0xf8, 0xff, 0xff, 0x04, 0x00, 0x00, 0x00, 0x20, 0x01, 0x00, 0x00,
  0x0d, 0x0b, 0x35, 0x4b, 0x02, 0x74, 0x0d, 0xfb, 0xa3, 0x7f, 0xcd, 0xa1, 0x59, 0xc0, 0x81, 0x34, 0x01, 0x33, 0x8d, 0xbc,
  0xbf, 0xe3, 0x73, 0x29, 0xe9, 0xbd, 0x54, 0x04, 0x15, 0xec, 0x81, 0x22, 0xdc, 0x29, 0x4d, 0x26, 0x0a, 0x3f, 0x30, 0x47,
  0x7f, 0x6b, 0xef, 0x23, 0x2e, 0x34, 0xb4, 0x44, 0xbd, 0x2e, 0x2e, 0x32, 0xa6, 0x2b, 0x7f, 0xef, 0x4a, 0xa5, 0xed, 0xc3,
  0xa9, 0x10, 0xe9, 0x7f, 0x1c, 0x49, 0xf2, 0x18, 0x09, 0x0d, 0xfd, 0x24, 0x10, 0xf3, 0xcc, 0x0a, 0x0c, 0xed, 0xa2, 0xdd,
  0xcb, 0xe9, 0xd2, 0x81, 0xfa, 0xb0, 0x31, 0xf2, 0xf8, 0x25, 0xb9, 0xee, 0x20, 0x7f, 0x15, 0x08, 0xd4, 0x22, 0xfe, 0xf2,
  0x81, 0x01, 0x3e, 0xbe, 0xe6, 0xd3, 0x6f, 0x57, 0xda, 0x3d, 0x39, 0x27, 0x0f, 0xbe, 0xe9, 0x71, 0x43, 0x0f, 0x7f, 0xc5,
  0x4d, 0xde, 0x6f, 0xf2, 0x12, 0x81, 0xe9, 0xe9, 0x26, 0x57, 0xae, 0xdc, 0x70, 0xdd, 0xd9, 0xb3, 0x7f, 0x3b, 0x48, 0xc7,
  0xc6, 0x0f, 0xe8, 0x94, 0xca, 0x96, 0x45, 0x14, 0x9c, 0x7f, 0xe1, 0x8e, 0x3d, 0x28, 0x7d, 0x09, 0xf1, 0xcf, 0x84, 0xf7,
  0xea, 0x41, 0x81, 0xa3, 0x2d, 0x10, 0x0d, 0xfe, 0x3a, 0xe4, 0x07, 0xe1, 0x7f, 0x03, 0x03, 0x1d, 0x5d, 0x3f, 0xfe, 0x23,
  0xfa, 0x99, 0x5b, 0x81, 0x22, 0xd1, 0x22, 0x7b, 0xf6, 0xe0, 0xe5, 0x8f, 0x09, 0x40, 0x48, 0x0a, 0x58, 0x81, 0x41, 0xad,
  0x65, 0xb5, 0x07, 0xf1, 0x6b, 0x3e, 0x9a, 0x08, 0x7f, 0x52, 0xa7, 0xff, 0x60, 0x52, 0xe6, 0x8e, 0xa5, 0x77, 0x6e, 0x3a,
  0x2f, 0x81, 0x10, 0xfc, 0x62, 0xec, 0xfe, 0x63, 0x13, 0x2d, 0x7f, 0x33, 0x63, 0x08, 0x5b, 0x13, 0x5e, 0x19, 0xec, 0x60,
  0xfa, 0x09, 0x6e, 0x32, 0x8c, 0x46, 0x92, 0x81, 0xab, 0xaa, 0x2f, 0x2c, 0x26, 0x0c, 0x56, 0x09, 0x09, 0xba, 0xf0, 0x7f,
  0x25, 0x2f, 0xcf, 0xec, 0x17, 0x11, 0x6e, 0xd9, 0x33, 0x7a, 0x1c, 0x5c, 0x13, 0x4a, 0x09, 0x7f, 0xa9, 0x67, 0x14, 0xb0,
  0x53, 0xa6, 0x4c, 0x7f, 0xb4, 0x04, 0xff, 0x97, 0xe2, 0xf9, 0xff, 0xff, 0x04, 0x00, 0x00, 0x00, 0x60, 0x00, 0x00, 0x00,
  0xb8, 0xdf, 0x00, 0x00, 0xfa, 0xb6, 0x00, 0x00, 0x19, 0xdf, 0x00, 0x00, 0x07, 0xb1, 0x00, 0x00, 0xa1, 0xe5, 0x00, 0x00,
  0xad, 0xd6, 0x00, 0x00, 0xed, 0xb7, 0x00, 0x00, 0xdf, 0xc6, 0x00, 0x00, 0xd5, 0x94, 0x00, 0x00, 0x16, 0xe6, 0x00, 0x00,
  0xaa, 0xa1, 0x00, 0x00, 0x49, 0xce, 0x00, 0x00, 0x44, 0xdb, 0x00, 0x00, 0xec, 0x81, 0x00, 0x00, 0xc6, 0xc7, 0x00, 0x00,
  0xa0, 0x01, 0x01, 0x00, 0xaf, 0x9a, 0x00, 0x00, 0x64, 0x12, 0x01, 0x00, 0xe0, 0xb4, 0x00, 0x00, 0x02, 0xca, 0x00, 0x00,
  0xdc, 0xcb, 0x00, 0x00, 0xb3, 0xb6, 0x00, 0x00, 0x2c, 0x9f, 0x00, 0x00, 0x4f, 0xac, 0x00, 0x00, 0x4e, 0xfa, 0xff, 0xff,
  0x04, 0x00, 0x00, 0x00, 0x00, 0x03, 0x00, 0x00, 0xdf, 0xb0, 0xea, 0xcf, 0x05, 0xfd, 0x00, 0x0a, 0xcd, 0x13, 0x08, 0xce,
  0xb5, 0x81, 0xdb, 0xf5, 0x32, 0xf0, 0xf0, 0xe0, 0xb5, 0x14, 0xdd, 0x1e, 0xc1, 0xac, 0xb8, 0xce, 0xed, 0xee, 0x00, 0x1f,
  0xac, 0x02, 0xe5, 0xcc, 0x98, 0x81, 0xdf, 0x05, 0x11, 0xd4, 0x04, 0xe3, 0x9a, 0x1c, 0xdf, 0x1b, 0x08, 0xf9, 0xe2, 0x0f,
  0x26, 0x61, 0x00, 0x4e, 0xfe, 0x05, 0xd1, 0x10, 0x00, 0x66, 0xb5, 0x99, 0xd7, 0xf7, 0x7f, 0xcb, 0xfd, 0x41, 0x01, 0x21,
  0xd7, 0xe8, 0x81, 0xb1, 0x05, 0xb8, 0x00, 0x11, 0xd1, 0x4c, 0x02, 0xfc, 0xaa, 0xa3, 0xe6, 0xf6, 0x1d, 0xea, 0x08, 0xc1,
  0xe9, 0x02, 0xc4, 0x05, 0xc0, 0x95, 0xb5, 0xc8, 0xdf, 0x28, 0x00, 0x1e, 0xab, 0xfb, 0xea, 0xb8, 0x93, 0x81, 0xd2, 0x1b,
  0x0a, 0xcc, 0x1b, 0xe8, 0x98, 0x2f, 0xcc, 0x04, 0xc1, 0x1c, 0xf2, 0xfe, 0x26, 0x7f, 0x00, 0x23, 0x02, 0xfc, 0x06, 0x01,
  0xfb, 0x39, 0xc4, 0xb2, 0xd1, 0x07, 0x1f, 0x91, 0x06, 0x5a, 0x15, 0x1e, 0xab, 0x93, 0xb4, 0xb9, 0x0e, 0x34, 0x00, 0x33,
  0xae, 0x38, 0xfe, 0x0e, 0xd0, 0x88, 0x19, 0x0e, 0xdb, 0xdb, 0x10, 0xe0, 0x81, 0x1d, 0xce, 0x1b, 0xf6, 0x3d, 0x28, 0xe1,
  0xe3, 0x55, 0x00, 0x44, 0xf0, 0xc5, 0x06, 0x10, 0x28, 0x6a, 0xc1, 0xc7, 0xee, 0xcf, 0xa9, 0xd3, 0x37, 0x7f, 0xe6, 0x11,
  0xf7, 0xb8, 0xfb, 0xbe, 0xc6, 0xcd, 0x00, 0xed, 0xe9, 0xec, 0xf2, 0x9d, 0xc0, 0x81, 0xda, 0x03, 0x13, 0xec, 0x09, 0xc9,
  0xc0, 0x07, 0xed, 0xe8, 0xd7, 0x3c, 0x06, 0xd1, 0x46, 0x5f, 0x00, 0x52, 0xf8, 0xc9, 0x06, 0xf8, 0xfc, 0x5c, 0xd0, 0xf5,
  0xe4, 0x1d, 0x81, 0xb7, 0x0e, 0x67, 0xe5, 0x3d, 0x1e, 0xec, 0x2b, 0x18, 0x20, 0x2b, 0x00, 0x24, 0x14, 0xe2, 0xf9, 0x05,
  0xe0, 0x17, 0xdd, 0xfa, 0xdc, 0x18, 0x74, 0x81, 0x18, 0x1e, 0xf4, 0x4f, 0xba, 0xa5, 0xb8, 0xbe, 0x19, 0xe4, 0x00, 0x35,
  0xc9, 0x46, 0x05, 0x13, 0xc9, 0x81, 0xff, 0x12, 0x26, 0xf0, 0x0f, 0xd1, 0x84, 0x0f, 0xe4, 0x0a, 0xc3, 0xc7, 0xa8, 0x88,
  0x09, 0xc5, 0x00, 0x0d, 0xf9, 0x51, 0x11, 0x00, 0xcc, 0x81, 0xfa, 0xad, 0x15, 0xfb, 0xa0, 0xd4, 0xac, 0xc2, 0xc6, 0x26,
  0x13, 0xf1, 0xdf, 0x0d, 0x3a, 0xee, 0x00, 0x06, 0x02, 0x81, 0x58, 0x99, 0xa9, 0xa0, 0x25, 0x15, 0x1e, 0xcf, 0xf6, 0xb5,
  0xfd, 0x29, 0xcc, 0xbe, 0xd3, 0xc1, 0x75, 0x02, 0x7f, 0x11, 0x00, 0x64, 0x26, 0xc0, 0x32, 0xf3, 0x08, 0x36, 0x03, 0xfe,
  0x30, 0x4f, 0x9b, 0x84, 0xd7, 0x3d, 0xe9, 0x51, 0xdf, 0x0c, 0xee, 0xf8, 0x3d, 0x69, 0x00, 0x4e, 0xf5, 0xee, 0xf8, 0x00,
  0x06, 0x52, 0xcd, 0xcd, 0xde, 0xfe, 0x7f, 0xa6, 0x01, 0x59, 0x0e, 0x15, 0x05, 0x1e, 0xdb, 0x2e, 0x21, 0x2d, 0x00, 0x07,
  0xf0, 0x0e, 0xba, 0xea, 0xfd, 0x5e, 0xed, 0xff, 0xdb, 0xde, 0x7f, 0xca, 0xcf, 0x94, 0x00, 0x29, 0xca, 0x17, 0xf1, 0xe9,
  0x5a, 0x74, 0x00, 0x4c, 0xee, 0xe3, 0x00, 0xf3, 0x0a, 0x60, 0xd8, 0xe6, 0xcc, 0xfe, 0x7f, 0x91, 0xf8, 0x5c, 0x18, 0x1e,
  0x06, 0x29, 0x7f, 0xcc, 0x60, 0x69, 0x00, 0x70, 0xf0, 0xa5, 0xf9, 0x16, 0x34, 0x3f, 0xb1, 0xdb, 0x16, 0xec, 0x87, 0xbd,
  0xf1, 0x2b, 0x1b, 0x15, 0x13, 0xf4, 0xfc, 0x0c, 0xf5, 0xec, 0x00, 0xd0, 0x02, 0x83, 0x0e, 0x81, 0xae, 0xc5, 0xf8, 0x23,
  0x1a, 0xf5, 0xf5, 0xb7, 0xf4, 0xfe, 0xde, 0xc4, 0x2d, 0xfd, 0xfd, 0xf9, 0x0d, 0xe1, 0x00, 0xce, 0x0b, 0xe3, 0x15, 0x04,
  0x00, 0xe1, 0x27, 0x02, 0xe5, 0x0b, 0xac, 0x7f, 0x04, 0xfd, 0xf5, 0xf3, 0x08, 0x30, 0xbf, 0x12, 0x5f, 0xe0, 0x00, 0x03,
  0x11, 0x06, 0x7f, 0x20, 0x19, 0xbb, 0x3a, 0x66, 0x06, 0xee, 0xf2, 0xe8, 0x0a, 0x99, 0xe7, 0xd2, 0xe1, 0x0a, 0xa2, 0x02,
  0x28, 0xa8, 0x00, 0xe9, 0x1e, 0x13, 0x7f, 0x04, 0xce, 0xb2, 0x3d, 0xf5, 0x21, 0xf6, 0xbc, 0xc1, 0x0b, 0xba, 0xde, 0xf2,
  0xdd, 0x38, 0xdb, 0xea, 0x35, 0x7f, 0x00, 0x61, 0xf3, 0xc1, 0x19, 0x06, 0x0b, 0x6d, 0xc3, 0xb3, 0xc2, 0xf7, 0x94, 0xaa,
  0xf7, 0x4d, 0x29, 0x0a, 0xc3, 0x35, 0xf9, 0xde, 0x3b, 0x58, 0x00, 0x36, 0x06, 0xc6, 0x22, 0xe9, 0xfd, 0x5f, 0xda, 0xf7,
  0xc6, 0x20, 0xee, 0x81, 0xf9, 0x3e, 0x07, 0x37, 0x26, 0xb3, 0xab, 0xf6, 0x3e, 0xda, 0x00, 0xe9, 0x23, 0x81, 0x7d, 0xe1,
  0x85, 0x91, 0x73, 0xfd, 0x4e, 0xa3, 0xb3, 0xa7, 0xb6, 0x2b, 0x96, 0x9c, 0xca, 0x9e, 0xca, 0xbf, 0x00, 0xc9, 0x00, 0x13,
  0xc3, 0xfe, 0xfc, 0xce, 0x93, 0x81, 0xd9, 0xf8, 0x15, 0xd5, 0x04, 0xcc, 0xb2, 0x13, 0xdf, 0x05, 0xde, 0x0e, 0xe4, 0x02,
  0x2b, 0x68, 0x00, 0x37, 0x06, 0xfa, 0xec, 0x0a, 0x06, 0x50, 0xbd, 0xbf, 0xd7, 0x02, 0x7f, 0xaf, 0x00, 0x4f, 0x01, 0x19,
  0x02, 0xe7, 0xd1, 0x11, 0x0a, 0x44, 0x00, 0xfb, 0x0d, 0xc7, 0x25, 0x2a, 0xef, 0xc8, 0x21, 0x7f, 0x3f, 0xd6, 0x12, 0xea,
  0xec, 0x08, 0xeb, 0xe8, 0x23, 0x4e, 0x02, 0x1b, 0xf4, 0xdd, 0x00, 0xce, 0x0a, 0xa7, 0x02, 0x53, 0x28, 0x08, 0x2b, 0x4d,
  0x7f, 0x0b, 0xf4, 0x2f, 0x0c, 0xbe, 0x15, 0xdf, 0x58, 0xcb, 0xe8, 0x0f, 0xc3, 0xe2, 0x00, 0xd4, 0x30, 0x4d, 0xd1, 0x10,
  0xfa, 0xf5, 0xe7, 0x15, 0xcf, 0xfd, 0xfa, 0x7f, 0xfc, 0x3a, 0x1c, 0xf2, 0x14, 0xb2, 0xf6, 0x21, 0xcb, 0xba, 0x00, 0x07,
  0x10, 0x4b, 0xa6, 0xc7, 0xc7, 0xe9, 0x00, 0xd2, 0xd4, 0xf0, 0x7f, 0x0f, 0xdb, 0xb8, 0xe2, 0x38, 0x5a, 0xfd, 0xff, 0xff,
  0x04, 0x00, 0x00, 0x00, 0x80, 0x00, 0x00, 0x00, 0x2d, 0x09, 0x00, 0x00, 0x6c, 0x0d, 0x00, 0x00, 0xc2, 0xff, 0xff, 0xff,
  0x4f, 0x0a, 0x00, 0x00, 0xa5, 0x0b, 0x00, 0x00, 0x1a, 0xfb, 0xff, 0xff, 0x75, 0x04, 0x00, 0x00, 0xe4, 0xfa, 0xff, 0xff,
  0x6f, 0x0f, 0x00, 0x00, 0xd1, 0xfc, 0xff, 0xff, 0xf1, 0x07, 0x00, 0x00, 0xf7, 0x07, 0x00, 0x00, 0xc6, 0x0b, 0x00, 0x00,
  0xf4, 0x06, 0x00, 0x00, 0x68, 0xf9, 0xff, 0xff, 0x11, 0x00, 0x00, 0x00, 0xfe, 0x02, 0x00, 0x00, 0x51, 0xff, 0xff, 0xff,
  0x88, 0x00, 0x00, 0x00, 0x19, 0x0d, 0x00, 0x00, 0x2d, 0x00, 0x00, 0x00, 0xfd, 0xf2, 0xff, 0xff, 0x6d, 0x01, 0x00, 0x00,
  0xb4, 0xfb, 0xff, 0xff, 0x4f, 0xfc, 0xff, 0xff, 0xcd, 0x0b, 0x00, 0x00, 0x74, 0x10, 0x00, 0x00, 0x26, 0xfe, 0xff, 0xff,
  0x82, 0xfc, 0xff, 0xff, 0x53, 0xf9, 0xff, 0xff, 0xfc, 0xf6, 0xff, 0xff, 0x63, 0x05, 0x00, 0x00, 0xe6, 0xfd, 0xff, 0xff,
  0x04, 0x00, 0x00, 0x00, 0xc0, 0x00, 0x00, 0x00, 0x45, 0x33, 0xd4, 0x14, 0x28, 0xf5, 0x13, 0xc1, 0x15, 0xda, 0xc6, 0x48,
  0xf7, 0x4c, 0xdd, 0x12, 0xa5, 0x06, 0xb4, 0x02, 0x5a, 0x0a, 0x13, 0xf6, 0xe2, 0x3f, 0x0f, 0x17, 0x6a, 0x0d, 0x72, 0xde,
  0x1d, 0x55, 0xc3, 0x25, 0x43, 0xdd, 0x3a, 0xce, 0x3a, 0xdc, 0xe6, 0x3b, 0x55, 0x6b, 0xbc, 0xfc, 0x11, 0x06, 0xf0, 0x08,
  0x0f, 0x7f, 0xf9, 0xea, 0xb9, 0x05, 0x4d, 0xfb, 0x1c, 0xfa, 0xc8, 0x85, 0x50, 0x5f, 0xa5, 0x60, 0x3a, 0xd1, 0x54, 0xce,
  0x65, 0x02, 0x33, 0x3e, 0xe8, 0xe9, 0x36, 0xff, 0xbb, 0x10, 0xf4, 0x27, 0xcf, 0x28, 0x22, 0xe1, 0xd3, 0xeb, 0xf1, 0xd9,
  0x2d, 0x24, 0xc1, 0x9b, 0xba, 0xc4, 0x01, 0xef, 0xf8, 0xec, 0x9d, 0x53, 0xf1, 0x30, 0xec, 0x14, 0xa9, 0xf7, 0x49, 0x38,
  0x45, 0x22, 0x24, 0xc4, 0xc3, 0xa0, 0xb6, 0x22, 0xed, 0xbc, 0xde, 0x30, 0xd8, 0xf8, 0xf0, 0x38, 0xda, 0xd2, 0xed, 0xca,
  0xca, 0x48, 0xc5, 0xe9, 0xbf, 0x23, 0x1d, 0xe3, 0xfe, 0xfd, 0xde, 0x37, 0x61, 0x37, 0xe1, 0xe2, 0xd5, 0xbf, 0xae, 0x19,
  0x3a, 0xb3, 0xd6, 0x3a, 0xaa, 0x81, 0xdd, 0x31, 0xdb, 0xbf, 0x16, 0xdd, 0x9b, 0x3c, 0xb2, 0xe1, 0x0d, 0x13, 0x0c, 0xdb,
  0xb1, 0xab, 0x08, 0x39, 0xe0, 0x50, 0xef, 0x9c, 0x19, 0xdd, 0xd5, 0x58, 0xfd, 0xda, 0x9d, 0x2f, 0xb4, 0xb8, 0x27, 0x20,
  0xb2, 0xfe, 0xff, 0xff, 0x04, 0x00, 0x00, 0x00, 0x08, 0x00, 0x00, 0x00, 0x51, 0x06, 0x00, 0x00, 0x90, 0xf9, 0xff, 0xff,
  0xc6, 0xfe, 0xff, 0xff, 0x04, 0x00, 0x00, 0x00, 0x0c, 0x00, 0x00, 0x00, 0x01, 0x00, 0x00, 0x00, 0xfa, 0x00, 0x00, 0x00,
  0x02, 0x00, 0x00, 0x00, 0xde, 0xfe, 0xff, 0xff, 0x04, 0x00, 0x00, 0x00, 0x08, 0x00, 0x00, 0x00, 0x01, 0x00, 0x00, 0x00,
  0x02, 0x00, 0x00, 0x00, 0xf2, 0xfe, 0xff, 0xff, 0x04, 0x00, 0x00, 0x00, 0x10, 0x00, 0x00, 0x00, 0x01, 0x00, 0x00, 0x00,
  0x01, 0x00, 0x00, 0x00, 0xfa, 0x00, 0x00, 0x00, 0x01, 0x00, 0x00, 0x00, 0xcc, 0xbb, 0xff, 0xff, 0xd0, 0xbb, 0xff, 0xff,
  0x0f, 0x00, 0x00, 0x00, 0x4d, 0x4c, 0x49, 0x52, 0x20, 0x43, 0x6f, 0x6e, 0x76, 0x65, 0x72, 0x74, 0x65, 0x64, 0x2e, 0x00,
  0x01, 0x00, 0x00, 0x00, 0x14, 0x00, 0x00, 0x00, 0x00, 0x00, 0x0e, 0x00, 0x18, 0x00, 0x14, 0x00, 0x10, 0x00, 0x0c, 0x00,
  0x08, 0x00, 0x04, 0x00, 0x0e, 0x00, 0x00, 0x00, 0x14, 0x00, 0x00, 0x00, 0x1c, 0x00, 0x00, 0x00, 0x78, 0x07, 0x00, 0x00,
  0x7c, 0x07, 0x00, 0x00, 0x80, 0x07, 0x00, 0x00, 0x04, 0x00, 0x00, 0x00, 0x6d, 0x61, 0x69, 0x6e, 0x00, 0x00, 0x00, 0x00,
  0x1f, 0x00, 0x00, 0x00, 0x3c, 0x07, 0x00, 0x00, 0xe0, 0x06, 0x00, 0x00, 0x78, 0x06, 0x00, 0x00, 0x28, 0x06, 0x00, 0x00,
  0xe0, 0x05, 0x00, 0x00, 0xa0, 0x05, 0x00, 0x00, 0x5c, 0x05, 0x00, 0x00, 0x1c, 0x05, 0x00, 0x00, 0xf4, 0x04, 0x00, 0x00,
  0xc4, 0x04, 0x00, 0x00, 0x90, 0x04, 0x00, 0x00, 0x4c, 0x04, 0x00, 0x00, 0xf0, 0x03, 0x00, 0x00, 0xb8, 0x03, 0x00, 0x00,
  0x74, 0x03, 0x00, 0x00, 0x34, 0x03, 0x00, 0x00, 0x0c, 0x03, 0x00, 0x00, 0xe8, 0x02, 0x00, 0x00, 0xb4, 0x02, 0x00, 0x00,
  0x70, 0x02, 0x00, 0x00, 0x24, 0x02, 0x00, 0x00, 0xec, 0x01, 0x00, 0x00, 0xa8, 0x01, 0x00, 0x00, 0x68, 0x01, 0x00, 0x00,
  0x40, 0x01, 0x00, 0x00, 0x1c, 0x01, 0x00, 0x00, 0xe8, 0x00, 0x00, 0x00, 0xa4, 0x00, 0x00, 0x00, 0x64, 0x00, 0x00, 0x00,
  0x40, 0x00, 0x00, 0x00, 0x04, 0x00, 0x00, 0x00, 0xa6, 0xf9, 0xff, 0xff, 0x1c, 0x00, 0x00, 0x00, 0x00, 0x00, 0x00, 0x09,
  0x1c, 0x00, 0x00, 0x00, 0x20, 0x00, 0x00, 0x00, 0x07, 0x00, 0x00, 0x00, 0x00, 0x00, 0x06, 0x00, 0x08, 0x00, 0x04, 0x00,
  0x06, 0x00, 0x00, 0x00, 0x00, 0x00, 0x80, 0x3f, 0x01, 0x00, 0x00, 0x00, 0x45, 0x00, 0x00, 0x00, 0x01, 0x00, 0x00, 0x00,
  0x44, 0x00, 0x00, 0x00, 0x82, 0xf9, 0xff, 0xff, 0x08, 0x00, 0x00, 0x00, 0x0c, 0x00, 0x00, 0x00, 0x01, 0x00, 0x00, 0x00,
  0x44, 0x00, 0x00, 0x00, 0x02, 0x00, 0x00, 0x00, 0x43, 0x00, 0x00, 0x00, 0x03, 0x00, 0x00, 0x00, 0xfe, 0xf9, 0xff, 0xff,
  0x14, 0x00, 0x00, 0x00, 0x00, 0x00, 0x00, 0x01, 0x18, 0x00, 0x00, 0x00, 0x1c, 0x00, 0x00, 0x00, 0x02, 0x00, 0x00, 0x00,
  0xba, 0xf9, 0xff, 0xff, 0x01, 0x00, 0x00, 0x00, 0x01, 0x00, 0x00, 0x00, 0x01, 0x00, 0x00, 0x00, 0x43, 0x00, 0x00, 0x00,
  0x03, 0x00, 0x00, 0x00, 0x42, 0x00, 0x00, 0x00, 0x05, 0x00, 0x00, 0x00, 0x04, 0x00, 0x00, 0x00, 0x3a, 0xfa, 0xff, 0xff,
  0x14, 0x00, 0x00, 0x00, 0x00, 0x00, 0x00, 0x01, 0x1c, 0x00, 0x00, 0x00, 0x20, 0x00, 0x00, 0x00, 0x02, 0x00, 0x00, 0x00,
  0xdc, 0xfa, 0xff, 0xff, 0x00, 0x00, 0x00, 0x03, 0x01, 0x00, 0x00, 0x00, 0x01, 0x00, 0x00, 0x00, 0x01, 0x00, 0x00, 0x00,
  0x42, 0x00, 0x00, 0x00, 0x03, 0x00, 0x00, 0x00, 0x41, 0x00, 0x00, 0x00, 0x07, 0x00, 0x00, 0x00, 0x06, 0x00, 0x00, 0x00,
  0x7a, 0xfa, 0xff, 0xff, 0x14, 0x00, 0x00, 0x00, 0x00, 0x00, 0x00, 0x15, 0x10, 0x00, 0x00, 0x00, 0x14, 0x00, 0x00, 0x00,
  0x06, 0x00, 0x00, 0x00, 0x90, 0xbd, 0xff, 0xff, 0x01, 0x00, 0x00, 0x00, 0x41, 0x00, 0x00, 0x00, 0x02, 0x00, 0x00, 0x00,
  0x3b, 0x00, 0x00, 0x00, 0x40, 0x00, 0x00, 0x00, 0x76, 0xfc, 0xff, 0xff, 0x0c, 0x00, 0x00, 0x00, 0x10, 0x00, 0x00, 0x00,
  0x05, 0x00, 0x00, 0x00, 0x01, 0x00, 0x00, 0x00, 0x40, 0x00, 0x00, 0x00, 0x01, 0x00, 0x00, 0x00, 0x3f, 0x00, 0x00, 0x00,
  0x96, 0xfc, 0xff, 0xff, 0x0c, 0x00, 0x00, 0x00, 0x10, 0x00, 0x00, 0x00, 0x04, 0x00, 0x00, 0x00, 0x01, 0x00, 0x00, 0x00,
  0x3f, 0x00, 0x00, 0x00, 0x02, 0x00, 0x00, 0x00, 0x3e, 0x00, 0x00, 0x00, 0x1a, 0x00, 0x00, 0x00, 0xee, 0xfa, 0xff, 0xff,
  0x14, 0x00, 0x00, 0x00, 0x00, 0x00, 0x00, 0x01, 0x18, 0x00, 0x00, 0x00, 0x1c, 0x00, 0x00, 0x00, 0x02, 0x00, 0x00, 0x00,
  0xaa, 0xfa, 0xff, 0xff, 0x01, 0x00, 0x00, 0x00, 0x01, 0x00, 0x00, 0x00, 0x01, 0x00, 0x00, 0x00, 0x3e, 0x00, 0x00, 0x00,
  0x03, 0x00, 0x00, 0x00, 0x3d, 0x00, 0x00, 0x00, 0x09, 0x00, 0x00, 0x00, 0x08, 0x00, 0x00, 0x00, 0x2a, 0xfb, 0xff, 0xff,
  0x14, 0x00, 0x00, 0x00, 0x00, 0x00, 0x00, 0x01, 0x1c, 0x00, 0x00, 0x00, 0x20, 0x00, 0x00, 0x00, 0x02, 0x00, 0x00, 0x00,
  0xcc, 0xfb, 0xff, 0xff, 0x00, 0x00, 0x00, 0x03, 0x01, 0x00, 0x00, 0x00, 0x01, 0x00, 0x00, 0x00, 0x01, 0x00, 0x00, 0x00,
  0x3d, 0x00, 0x00, 0x00, 0x03, 0x00, 0x00, 0x00, 0x3c, 0x00, 0x00, 0x00, 0x0b, 0x00, 0x00, 0x00, 0x0a, 0x00, 0x00, 0x00,
  0x6a, 0xfb, 0xff, 0xff, 0x14, 0x00, 0x00, 0x00, 0x00, 0x00, 0x00, 0x1b, 0x14, 0x00, 0x00, 0x00, 0x18, 0x00, 0x00, 0x00,
  0x03, 0x00, 0x00, 0x00, 0x8a, 0xfc, 0xff, 0xff, 0x00, 0x00, 0x00, 0x01, 0x01, 0x00, 0x00, 0x00, 0x3c, 0x00, 0x00, 0x00,
  0x02, 0x00, 0x00, 0x00, 0x3b, 0x00, 0x00, 0x00, 0x02, 0x00, 0x00, 0x00, 0x9e, 0xfb, 0xff, 0xff, 0x14, 0x00, 0x00, 0x00,
  0x00, 0x00, 0x00, 0x02, 0x24, 0x00, 0x00, 0x00, 0x28, 0x00, 0x00, 0x00, 0x01, 0x00, 0x00, 0x00, 0x54, 0xfe, 0xff, 0xff,
  0x04, 0x00, 0x00, 0x00, 0x00, 0x00, 0x00, 0x03, 0x01, 0x00, 0x00, 0x00, 0x01, 0x00, 0x00, 0x00, 0x01, 0x00, 0x00, 0x00,
  0x01, 0x00, 0x00, 0x00, 0x3b, 0x00, 0x00, 0x00, 0x03, 0x00, 0x00, 0x00, 0x3a, 0x00, 0x00, 0x00, 0x0d, 0x00, 0x00, 0x00,
  0x0c, 0x00, 0x00, 0x00, 0xe6, 0xfb, 0xff, 0xff, 0x14, 0x00, 0x00, 0x00, 0x00, 0x00, 0x00, 0x01, 0x1c, 0x00, 0x00, 0x00,
  0x20, 0x00, 0x00, 0x00, 0x02, 0x00, 0x00, 0x00, 0x88, 0xfc, 0xff, 0xff, 0x00, 0x00, 0x00, 0x03, 0x01, 0x00, 0x00, 0x00,
  0x01, 0x00, 0x00, 0x00, 0x01, 0x00, 0x00, 0x00, 0x3a, 0x00, 0x00, 0x00, 0x03, 0x00, 0x00, 0x00, 0x39, 0x00, 0x00, 0x00,
  0x0f, 0x00, 0x00, 0x00, 0x0e, 0x00, 0x00, 0x00, 0x26, 0xfc, 0xff, 0xff, 0x14, 0x00, 0x00, 0x00, 0x00, 0x00, 0x00, 0x15,
  0x10, 0x00, 0x00, 0x00, 0x14, 0x00, 0x00, 0x00, 0x06, 0x00, 0x00, 0x00, 0x3c, 0xbf, 0xff, 0xff, 0x01, 0x00, 0x00, 0x00,
  0x39, 0x00, 0x00, 0x00, 0x02, 0x00, 0x00, 0x00, 0x33, 0x00, 0x00, 0x00, 0x38, 0x00, 0x00, 0x00, 0x22, 0xfe, 0xff, 0xff,
  0x0c, 0x00, 0x00, 0x00, 0x10, 0x00, 0x00, 0x00, 0x05, 0x00, 0x00, 0x00, 0x01, 0x00, 0x00, 0x00, 0x38, 0x00, 0x00, 0x00,
  0x01, 0x00, 0x00, 0x00, 0x37, 0x00, 0x00, 0x00, 0x42, 0xfe, 0xff, 0xff, 0x0c, 0x00, 0x00, 0x00, 0x10, 0x00, 0x00, 0x00,
  0x04, 0x00, 0x00, 0x00, 0x01, 0x00, 0x00, 0x00, 0x37, 0x00, 0x00, 0x00, 0x02, 0x00, 0x00, 0x00, 0x36, 0x00, 0x00, 0x00,
  0x19, 0x00, 0x00, 0x00, 0x9a, 0xfc, 0xff, 0xff, 0x14, 0x00, 0x00, 0x00, 0x00, 0x00, 0x00, 0x01, 0x18, 0x00, 0x00, 0x00,
  0x1c, 0x00, 0x00, 0x00, 0x02, 0x00, 0x00, 0x00, 0x56, 0xfc, 0xff, 0xff, 0x01, 0x00, 0x00, 0x00, 0x01, 0x00, 0x00, 0x00,
  0x01, 0x00, 0x00, 0x00, 0x36, 0x00, 0x00, 0x00, 0x03, 0x00, 0x00, 0x00, 0x35, 0x00, 0x00, 0x00, 0x11, 0x00, 0x00, 0x00,
  0x10, 0x00, 0x00, 0x00, 0xd6, 0xfc, 0xff, 0xff, 0x14, 0x00, 0x00, 0x00, 0x00, 0x00, 0x00, 0x01, 0x1c, 0x00, 0x00, 0x00,
  0x20, 0x00, 0x00, 0x00, 0x02, 0x00, 0x00, 0x00, 0x78, 0xfd, 0xff, 0xff, 0x00, 0x00, 0x00, 0x03, 0x01, 0x00, 0x00, 0x00,
  0x01, 0x00, 0x00, 0x00, 0x01, 0x00, 0x00, 0x00, 0x35, 0x00, 0x00, 0x00, 0x03, 0x00, 0x00, 0x00, 0x34, 0x00, 0x00, 0x00,
  0x13, 0x00, 0x00, 0x00, 0x12, 0x00, 0x00, 0x00, 0x16, 0xfd, 0xff, 0xff, 0x14, 0x00, 0x00, 0x00, 0x00, 0x00, 0x00, 0x1b,
  0x14, 0x00, 0x00, 0x00, 0x18, 0x00, 0x00, 0x00, 0x03, 0x00, 0x00, 0x00, 0x36, 0xfe, 0xff, 0xff, 0x00, 0x00, 0x00, 0x01,
  0x01, 0x00, 0x00, 0x00, 0x34, 0x00, 0x00, 0x00, 0x02, 0x00, 0x00, 0x00, 0x33, 0x00, 0x00, 0x00, 0x02, 0x00, 0x00, 0x00,
  0x4a, 0xfd, 0xff, 0xff, 0x24, 0x00, 0x00, 0x00, 0x00, 0x00, 0x00, 0x02, 0x34, 0x00, 0x00, 0x00, 0x38, 0x00, 0x00, 0x00,
  0x01, 0x00, 0x00, 0x00, 0x10, 0x00, 0x18, 0x00, 0x00, 0x00, 0x14, 0x00, 0x10, 0x00, 0x0c, 0x00, 0x0b, 0x00, 0x04, 0x00,
  0x10, 0x00, 0x00, 0x00, 0x02, 0x00, 0x00, 0x00, 0x00, 0x00, 0x00, 0x03, 0x01, 0x00, 0x00, 0x00, 0x01, 0x00, 0x00, 0x00,
  0x01, 0x00, 0x00, 0x00, 0x01, 0x00, 0x00, 0x00, 0x33, 0x00, 0x00, 0x00, 0x03, 0x00, 0x00, 0x00, 0x32, 0x00, 0x00, 0x00,
  0x15, 0x00, 0x00, 0x00, 0x14, 0x00, 0x00, 0x00, 0xa2, 0xfd, 0xff, 0xff, 0x14, 0x00, 0x00, 0x00, 0x00, 0x00, 0x00, 0x01,
  0x1c, 0x00, 0x00, 0x00, 0x20, 0x00, 0x00, 0x00, 0x02, 0x00, 0x00, 0x00, 0x44, 0xfe, 0xff, 0xff, 0x00, 0x00, 0x00, 0x03,
  0x01, 0x00, 0x00, 0x00, 0x01, 0x00, 0x00, 0x00, 0x01, 0x00, 0x00, 0x00, 0x32, 0x00, 0x00, 0x00, 0x03, 0x00, 0x00, 0x00,
  0x31, 0x00, 0x00, 0x00, 0x17, 0x00, 0x00, 0x00, 0x16, 0x00, 0x00, 0x00, 0xe2, 0xfd, 0xff, 0xff, 0x14, 0x00, 0x00, 0x00,
  0x00, 0x00, 0x00, 0x15, 0x10, 0x00, 0x00, 0x00, 0x14, 0x00, 0x00, 0x00, 0x06, 0x00, 0x00, 0x00, 0xf8, 0xc0, 0xff, 0xff,
  0x01, 0x00, 0x00, 0x00, 0x31, 0x00, 0x00, 0x00, 0x02, 0x00, 0x00, 0x00, 0x2b, 0x00, 0x00, 0x00, 0x30, 0x00, 0x00, 0x00,
  0xde, 0xff, 0xff, 0xff, 0x0c, 0x00, 0x00, 0x00, 0x10, 0x00, 0x00, 0x00, 0x05, 0x00, 0x00, 0x00, 0x01, 0x00, 0x00, 0x00,
  0x30, 0x00, 0x00, 0x00, 0x01, 0x00, 0x00, 0x00, 0x2f, 0x00, 0x00, 0x00, 0x00, 0x00, 0x0a, 0x00, 0x10, 0x00, 0x0c, 0x00,
  0x08, 0x00, 0x04, 0x00, 0x0a, 0x00, 0x00, 0x00, 0x0c, 0x00, 0x00, 0x00, 0x10, 0x00, 0x00, 0x00, 0x04, 0x00, 0x00, 0x00,
  0x01, 0x00, 0x00, 0x00, 0x2f, 0x00, 0x00, 0x00, 0x02, 0x00, 0x00, 0x00, 0x2e, 0x00, 0x00, 0x00, 0x18, 0x00, 0x00, 0x00,
  0x62, 0xfe, 0xff, 0xff, 0x14, 0x00, 0x00, 0x00, 0x00, 0x00, 0x00, 0x01, 0x18, 0x00, 0x00, 0x00, 0x1c, 0x00, 0x00, 0x00,
  0x02, 0x00, 0x00, 0x00, 0x1e, 0xfe, 0xff, 0xff, 0x01, 0x00, 0x00, 0x00, 0x01, 0x00, 0x00, 0x00, 0x01, 0x00, 0x00, 0x00,
  0x2e, 0x00, 0x00, 0x00, 0x03, 0x00, 0x00, 0x00, 0x2d, 0x00, 0x00, 0x00, 0x1c, 0x00, 0x00, 0x00, 0x1b, 0x00, 0x00, 0x00,
  0x9e, 0xfe, 0xff, 0xff, 0x14, 0x00, 0x00, 0x00, 0x00, 0x00, 0x00, 0x01, 0x1c, 0x00, 0x00, 0x00, 0x20, 0x00, 0x00, 0x00,
  0x02, 0x00, 0x00, 0x00, 0x40, 0xff, 0xff, 0xff, 0x00, 0x00, 0x00, 0x03, 0x01, 0x00, 0x00, 0x00, 0x01, 0x00, 0x00, 0x00,
  0x01, 0x00, 0x00, 0x00, 0x2d, 0x00, 0x00, 0x00, 0x03, 0x00, 0x00, 0x00, 0x2c, 0x00, 0x00, 0x00, 0x1e, 0x00, 0x00, 0x00,
  0x1d, 0x00, 0x00, 0x00, 0xde, 0xfe, 0xff, 0xff, 0x1c, 0x00, 0x00, 0x00, 0x00, 0x00, 0x00, 0x1b, 0x1c, 0x00, 0x00, 0x00,
  0x20, 0x00, 0x00, 0x00, 0x03, 0x00, 0x00, 0x00, 0x00, 0x00, 0x06, 0x00, 0x08, 0x00, 0x07, 0x00, 0x06, 0x00, 0x00, 0x00,
  0x00, 0x00, 0x00, 0x01, 0x01, 0x00, 0x00, 0x00, 0x2c, 0x00, 0x00, 0x00, 0x02, 0x00, 0x00, 0x00, 0x2b, 0x00, 0x00, 0x00,
  0x02, 0x00, 0x00, 0x00, 0x1a, 0xff, 0xff, 0xff, 0x14, 0x00, 0x00, 0x00, 0x00, 0x00, 0x00, 0x02, 0x20, 0x00, 0x00, 0x00,
  0x24, 0x00, 0x00, 0x00, 0x01, 0x00, 0x00, 0x00, 0x6e, 0xff, 0xff, 0xff, 0x00, 0x00, 0x00, 0x03, 0x01, 0x00, 0x00, 0x00,
  0x01, 0x00, 0x00, 0x00, 0x01, 0x00, 0x00, 0x00, 0x01, 0x00, 0x00, 0x00, 0x2b, 0x00, 0x00, 0x00, 0x03, 0x00, 0x00, 0x00,
  0x2a, 0x00, 0x00, 0x00, 0x20, 0x00, 0x00, 0x00, 0x1f, 0x00, 0x00, 0x00, 0x5e, 0xff, 0xff, 0xff, 0x20, 0x00, 0x00, 0x00,
  0x00, 0x00, 0x00, 0x01, 0x28, 0x00, 0x00, 0x00, 0x2c, 0x00, 0x00, 0x00, 0x02, 0x00, 0x00, 0x00, 0x0c, 0x00, 0x10, 0x00,
  0x00, 0x00, 0x0c, 0x00, 0x08, 0x00, 0x07, 0x00, 0x0c, 0x00, 0x00, 0x00, 0x00, 0x00, 0x00, 0x03, 0x01, 0x00, 0x00, 0x00,
  0x01, 0x00, 0x00, 0x00, 0x01, 0x00, 0x00, 0x00, 0x2a, 0x00, 0x00, 0x00, 0x03, 0x00, 0x00, 0x00, 0x29, 0x00, 0x00, 0x00,
  0x22, 0x00, 0x00, 0x00, 0x21, 0x00, 0x00, 0x00, 0xaa, 0xff, 0xff, 0xff, 0x24, 0x00, 0x00, 0x00, 0x00, 0x00, 0x00, 0x02,
  0x30, 0x00, 0x00, 0x00, 0x34, 0x00, 0x00, 0x00, 0x01, 0x00, 0x00, 0x00, 0x00, 0x00, 0x0e, 0x00, 0x14, 0x00, 0x00, 0x00,
  0x10, 0x00, 0x0c, 0x00, 0x08, 0x00, 0x07, 0x00, 0x0e, 0x00, 0x00, 0x00, 0x00, 0x00, 0x00, 0x03, 0x01, 0x00, 0x00, 0x00,
  0x01, 0x00, 0x00, 0x00, 0x01, 0x00, 0x00, 0x00, 0x01, 0x00, 0x00, 0x00, 0x29, 0x00, 0x00, 0x00, 0x03, 0x00, 0x00, 0x00,
  0x28, 0x00, 0x00, 0x00, 0x24, 0x00, 0x00, 0x00, 0x23, 0x00, 0x00, 0x00, 0x00, 0x00, 0x0e, 0x00, 0x18, 0x00, 0x14, 0x00,
  0x10, 0x00, 0x0c, 0x00, 0x0b, 0x00, 0x04, 0x00, 0x0e, 0x00, 0x00, 0x00, 0x20, 0x00, 0x00, 0x00, 0x00, 0x00, 0x00, 0x02,
  0x28, 0x00, 0x00, 0x00, 0x2c, 0x00, 0x00, 0x00, 0x01, 0x00, 0x00, 0x00, 0x0c, 0x00, 0x10, 0x00, 0x00, 0x00, 0x0c, 0x00,
  0x08, 0x00, 0x04, 0x00, 0x0c, 0x00, 0x00, 0x00, 0x01, 0x00, 0x00, 0x00, 0x01, 0x00, 0x00, 0x00, 0x01, 0x00, 0x00, 0x00,
  0x01, 0x00, 0x00, 0x00, 0x28, 0x00, 0x00, 0x00, 0x03, 0x00, 0x00, 0x00, 0x27, 0x00, 0x00, 0x00, 0x26, 0x00, 0x00, 0x00,
  0x25, 0x00, 0x00, 0x00, 0x00, 0x00, 0x0a, 0x00, 0x0c, 0x00, 0x00, 0x00, 0x08, 0x00, 0x04, 0x00, 0x0a, 0x00, 0x00, 0x00,
  0x08, 0x00, 0x00, 0x00, 0x0c, 0x00, 0x00, 0x00, 0x01, 0x00, 0x00, 0x00, 0x27, 0x00, 0x00, 0x00, 0x02, 0x00, 0x00, 0x00,
  0x00, 0x00, 0x00, 0x00, 0x01, 0x00, 0x00, 0x00, 0x01, 0x00, 0x00, 0x00, 0x45, 0x00, 0x00, 0x00, 0x01, 0x00, 0x00, 0x00,
  0x00, 0x00, 0x00, 0x00, 0x46, 0x00, 0x00, 0x00, 0xb4, 0x3c, 0x00, 0x00, 0x48, 0x3c, 0x00, 0x00, 0xe8, 0x3b, 0x00, 0x00,
  0x98, 0x3b, 0x00, 0x00, 0x10, 0x3b, 0x00, 0x00, 0x8c, 0x3a, 0x00, 0x00, 0xa0, 0x38, 0x00, 0x00, 0xb4, 0x36, 0x00, 0x00,
  0x88, 0x34, 0x00, 0x00, 0xfc, 0x32, 0x00, 0x00, 0xf8, 0x31, 0x00, 0x00, 0xfc, 0x30, 0x00, 0x00, 0x70, 0x2f, 0x00, 0x00,
  0x7c, 0x2d, 0x00, 0x00, 0xf0, 0x2b, 0x00, 0x00, 0x64, 0x2a, 0x00, 0x00, 0x98, 0x28, 0x00, 0x00, 0x6c, 0x27, 0x00, 0x00,
  0x98, 0x26, 0x00, 0x00, 0xcc, 0x25, 0x00, 0x00, 0xa0, 0x24, 0x00, 0x00, 0x20, 0x23, 0x00, 0x00, 0xf8, 0x21, 0x00, 0x00,
  0xcc, 0x20, 0x00, 0x00, 0x50, 0x20, 0x00, 0x00, 0xd4, 0x1f, 0x00, 0x00, 0x58, 0x1f, 0x00, 0x00, 0xec, 0x1d, 0x00, 0x00,
  0x20, 0x1d, 0x00, 0x00, 0x7c, 0x1c, 0x00, 0x00, 0xe0, 0x1b, 0x00, 0x00, 0x14, 0x1b, 0x00, 0x00, 0xf4, 0x19, 0x00, 0x00,
  0x2c, 0x19, 0x00, 0x00, 0x60, 0x18, 0x00, 0x00, 0xec, 0x17, 0x00, 0x00, 0x44, 0x17, 0x00, 0x00, 0xd4, 0x16, 0x00, 0x00,
  0x1c, 0x16, 0x00, 0x00, 0xac, 0x15, 0x00, 0x00, 0xf8, 0x14, 0x00, 0x00, 0x34, 0x14, 0x00, 0x00, 0x58, 0x13, 0x00, 0x00,
  0x74, 0x12, 0x00, 0x00, 0x00, 0x12, 0x00, 0x00, 0x14, 0x11, 0x00, 0x00, 0xb0, 0x0f, 0x00, 0x00, 0x24, 0x0f, 0x00, 0x00,
  0xa0, 0x0e, 0x00, 0x00, 0x2c, 0x0e, 0x00, 0x00, 0x50, 0x0d, 0x00, 0x00, 0x6c, 0x0c, 0x00, 0x00, 0xf8, 0x0b, 0x00, 0x00,
  0x0c, 0x0b, 0x00, 0x00, 0xc8, 0x09, 0x00, 0x00, 0x3c, 0x09, 0x00, 0x00, 0xb8, 0x08, 0x00, 0x00, 0x44, 0x08, 0x00, 0x00,
  0x68, 0x07, 0x00, 0x00, 0x84, 0x06, 0x00, 0x00, 0x10, 0x06, 0x00, 0x00, 0x24, 0x05, 0x00, 0x00, 0xe0, 0x03, 0x00, 0x00,
  0x54, 0x03, 0x00, 0x00, 0xd0, 0x02, 0x00, 0x00, 0x5c, 0x02, 0x00, 0x00, 0xa0, 0x01, 0x00, 0x00, 0xec, 0x00, 0x00, 0x00,
  0x78, 0x00, 0x00, 0x00, 0x04, 0x00, 0x00, 0x00, 0x7a, 0xc4, 0xff, 0xff, 0x00, 0x00, 0x00, 0x01, 0x14, 0x00, 0x00, 0x00,
  0x34, 0x00, 0x00, 0x00, 0x46, 0x00, 0x00, 0x00, 0x00, 0x00, 0x00, 0x09, 0x48, 0x00, 0x00, 0x00, 0x64, 0xc4, 0xff, 0xff,
  0x08, 0x00, 0x00, 0x00, 0x14, 0x00, 0x00, 0x00, 0x01, 0x00, 0x00, 0x00, 0x80, 0xff, 0xff, 0xff, 0xff, 0xff, 0xff, 0xff,
  0x00, 0x00, 0x00, 0x00, 0x01, 0x00, 0x00, 0x00, 0x00, 0x00, 0x80, 0x3b, 0x19, 0x00, 0x00, 0x00, 0x53, 0x74, 0x61, 0x74,
  0x65, 0x66, 0x75, 0x6c, 0x50, 0x61, 0x72, 0x74, 0x69, 0x74, 0x69, 0x6f, 0x6e, 0x65, 0x64, 0x43, 0x61, 0x6c, 0x6c, 0x3a,
  0x30, 0x00, 0x00, 0x00, 0x03, 0x00, 0x00, 0x00, 0x01, 0x00, 0x00, 0x00, 0xfa, 0x00, 0x00, 0x00, 0x02, 0x00, 0x00, 0x00,
  0xea, 0xc4, 0xff, 0xff, 0x00, 0x00, 0x00, 0x01, 0x14, 0x00, 0x00, 0x00, 0x34, 0x00, 0x00, 0x00, 0x45, 0x00, 0x00, 0x00,
  0x00, 0x00, 0x00, 0x09, 0x48, 0x00, 0x00, 0x00, 0xd4, 0xc4, 0xff, 0xff, 0x08, 0x00, 0x00, 0x00, 0x14, 0x00, 0x00, 0x00,
  0x01, 0x00, 0x00, 0x00, 0x01, 0x00, 0x00, 0x00, 0x00, 0x00, 0x00, 0x00, 0x00, 0x00, 0x00, 0x00, 0x01, 0x00, 0x00, 0x00,
  0xc4, 0xa4, 0xb0, 0x3c, 0x19, 0x00, 0x00, 0x00, 0x74, 0x63, 0x6e, 0x2f, 0x74, 0x63, 0x6e, 0x2f, 0x72, 0x65, 0x73, 0x68,
  0x61, 0x70, 0x65, 0x5f, 0x31, 0x2f, 0x52, 0x65, 0x73, 0x68, 0x61, 0x70, 0x65, 0x00, 0x00, 0x00, 0x03, 0x00, 0x00, 0x00,
  0x01, 0x00, 0x00, 0x00, 0xfa, 0x00, 0x00, 0x00, 0x02, 0x00, 0x00, 0x00, 0x5a, 0xc5, 0xff, 0xff, 0x00, 0x00, 0x00, 0x01,
  0x14, 0x00, 0x00, 0x00, 0x30, 0x00, 0x00, 0x00, 0x44, 0x00, 0x00, 0x00, 0x00, 0x00, 0x00, 0x09, 0x84, 0x00, 0x00, 0x00,
  0x44, 0xc5, 0xff, 0xff, 0x08, 0x00, 0x00, 0x00, 0x10, 0x00, 0x00, 0x00, 0x01, 0x00, 0x00, 0x00, 0x01, 0x00, 0x00, 0x00,
  0x00, 0x00, 0x00, 0x00, 0x01, 0x00, 0x00, 0x00, 0xc4, 0xa4, 0xb0, 0x3c, 0x5b, 0x00, 0x00, 0x00, 0x74, 0x63, 0x6e, 0x2f,
  0x74, 0x63, 0x6e, 0x2f, 0x4e, 0x45, 0x43, 0x4b, 0x2e, 0x63, 0x6f, 0x6e, 0x76, 0x2f, 0x42, 0x69, 0x61, 0x73, 0x41, 0x64,
  0x64, 0x3b, 0x74, 0x63, 0x6e, 0x2f, 0x74, 0x63, 0x6e, 0x2f, 0x4e, 0x45, 0x43, 0x4b, 0x2e, 0x63, 0x6f, 0x6e, 0x76, 0x2f,
  0x43, 0x6f, 0x6e, 0x76, 0x32, 0x44, 0x3b, 0x74, 0x63, 0x6e, 0x2f, 0x74, 0x63, 0x6e, 0x2f, 0x4e, 0x45, 0x43, 0x4b, 0x2e,
  0x63, 0x6f, 0x6e, 0x76, 0x2f, 0x42, 0x69, 0x61, 0x73, 0x41, 0x64, 0x64, 0x2f, 0x52, 0x65, 0x61, 0x64, 0x56, 0x61, 0x72,
  0x69, 0x61, 0x62, 0x6c, 0x65, 0x4f, 0x70, 0x00, 0x04, 0x00, 0x00, 0x00, 0x01, 0x00, 0x00, 0x00, 0x01, 0x00, 0x00, 0x00,
  0xfa, 0x00, 0x00, 0x00, 0x02, 0x00, 0x00, 0x00, 0x0a, 0xc6, 0xff, 0xff, 0x00, 0x00, 0x00, 0x01, 0x14, 0x00, 0x00, 0x00,
  0x30, 0x00, 0x00, 0x00, 0x43, 0x00, 0x00, 0x00, 0x00, 0x00, 0x00, 0x09, 0x8c, 0x00, 0x00, 0x00, 0xf4, 0xc5, 0xff, 0xff,
  0x08, 0x00, 0x00, 0x00, 0x10, 0x00, 0x00, 0x00, 0x01, 0x00, 0x00, 0x00, 0x80, 0xff, 0xff, 0xff, 0xff, 0xff, 0xff, 0xff,
  0x01, 0x00, 0x00, 0x00, 0x5e, 0x32, 0x0c, 0x3c, 0x61, 0x00, 0x00, 0x00, 0x74, 0x63, 0x6e, 0x2f, 0x74, 0x63, 0x6e, 0x2f,
  0x42, 0x34, 0x2e, 0x44, 0x31, 0x2e, 0x50, 0x57, 0x2e, 0x52, 0x45, 0x4c, 0x55, 0x2f, 0x52, 0x65, 0x6c, 0x75, 0x36, 0x3b,
  0x74, 0x63, 0x6e, 0x2f, 0x74, 0x63, 0x6e, 0x2f, 0x42, 0x34, 0x2e, 0x44, 0x31, 0x2e, 0x50, 0x57, 0x2e, 0x42, 0x31, 0x2e,
  0x42, 0x4e, 0x2f, 0x46, 0x75, 0x73, 0x65, 0x64, 0x42, 0x61, 0x74, 0x63, 0x68, 0x4e, 0x6f, 0x72, 0x6d, 0x56, 0x33, 0x3b,
  0x74, 0x63, 0x6e, 0x2f, 0x74, 0x63, 0x6e, 0x2f, 0x42, 0x34, 0x2e, 0x44, 0x31, 0x2e, 0x50, 0x57, 0x2e, 0x42, 0x31, 0x2e,
  0x43, 0x4e, 0x2f, 0x43, 0x6f, 0x6e, 0x76, 0x32, 0x44, 0x00, 0x00, 0x00, 0x04, 0x00, 0x00, 0x00, 0x01, 0x00, 0x00, 0x00,
  0x01, 0x00, 0x00, 0x00, 0xfa, 0x00, 0x00, 0x00, 0x20, 0x00, 0x00, 0x00, 0xc2, 0xc6, 0xff, 0xff, 0x00, 0x00, 0x00, 0x01,
  0x14, 0x00, 0x00, 0x00, 0x34, 0x00, 0x00, 0x00, 0x42, 0x00, 0x00, 0x00, 0x00, 0x00, 0x00, 0x09, 0x44, 0x00, 0x00, 0x00,
  0xac, 0xc6, 0xff, 0xff, 0x08, 0x00, 0x00, 0x00, 0x14, 0x00, 0x00, 0x00, 0x01, 0x00, 0x00, 0x00, 0x80, 0xff, 0xff, 0xff,
  0xff, 0xff, 0xff, 0xff, 0x00, 0x00, 0x00, 0x00, 0x01, 0x00, 0x00, 0x00, 0xff, 0x0d, 0x81, 0x3c, 0x16, 0x00, 0x00, 0x00,
  0x74, 0x63, 0x6e, 0x2f, 0x74, 0x63, 0x6e, 0x2f, 0x6d, 0x75, 0x6c, 0x74, 0x69, 0x70, 0x6c, 0x79, 0x5f, 0x32, 0x2f, 0x6d,
  0x75, 0x6c, 0x00, 0x00, 0x04, 0x00, 0x00, 0x00, 0x01, 0x00, 0x00, 0x00, 0x01, 0x00, 0x00, 0x00, 0xfa, 0x00, 0x00, 0x00,
  0x18, 0x00, 0x00, 0x00, 0x32, 0xc7, 0xff, 0xff, 0x00, 0x00, 0x00, 0x01, 0x14, 0x00, 0x00, 0x00, 0x34, 0x00, 0x00, 0x00,
  0x41, 0x00, 0x00, 0x00, 0x00, 0x00, 0x00, 0x09, 0x54, 0x00, 0x00, 0x00, 0x1c, 0xc7, 0xff, 0xff, 0x08, 0x00, 0x00, 0x00,
  0x14, 0x00, 0x00, 0x00, 0x01, 0x00, 0x00, 0x00, 0x80, 0xff, 0xff, 0xff, 0xff, 0xff, 0xff, 0xff, 0x00, 0x00, 0x00, 0x00,
  0x01, 0x00, 0x00, 0x00, 0x81, 0x80, 0x80, 0x3b, 0x25, 0x00, 0x00, 0x00, 0x74, 0x63, 0x6e, 0x2f, 0x74, 0x63, 0x6e, 0x2f,
  0x42, 0x34, 0x2e, 0x44, 0x31, 0x2e, 0x53, 0x45, 0x2e, 0x65, 0x78, 0x2e, 0x61, 0x63, 0x74, 0x2f, 0x63, 0x6c, 0x69, 0x70,
  0x5f, 0x62, 0x79, 0x5f, 0x76, 0x61, 0x6c, 0x75, 0x65, 0x00, 0x00, 0x00, 0x04, 0x00, 0x00, 0x00, 0x01, 0x00, 0x00, 0x00,
  0x01, 0x00, 0x00, 0x00, 0x01, 0x00, 0x00, 0x00, 0x18, 0x00, 0x00, 0x00, 0xb2, 0xc7, 0xff, 0xff, 0x00, 0x00, 0x00, 0x01,
  0x14, 0x00, 0x00, 0x00, 0x34, 0x00, 0x00, 0x00, 0x40, 0x00, 0x00, 0x00, 0x00, 0x00, 0x00, 0x09, 0x5c, 0x00, 0x00, 0x00,
  0x9c, 0xc7, 0xff, 0xff, 0x08, 0x00, 0x00, 0x00, 0x14, 0x00, 0x00, 0x00, 0x01, 0x00, 0x00, 0x00, 0xee, 0xff, 0xff, 0xff,
  0xff, 0xff, 0xff, 0xff, 0x00, 0x00, 0x00, 0x00, 0x01, 0x00, 0x00, 0x00, 0x7f, 0xa5, 0xe2, 0x3b, 0x2d, 0x00, 0x00, 0x00,
  0x74, 0x63, 0x6e, 0x2f, 0x74, 0x63, 0x6e, 0x2f, 0x42, 0x34, 0x2e, 0x44, 0x31, 0x2e, 0x53, 0x45, 0x2e, 0x65, 0x78, 0x2e,
  0x61, 0x63, 0x74, 0x2f, 0x63, 0x6c, 0x69, 0x70, 0x5f, 0x62, 0x79, 0x5f, 0x76, 0x61, 0x6c, 0x75, 0x65, 0x2f, 0x4d, 0x69,
  0x6e, 0x69, 0x6d, 0x75, 0x6d, 0x00, 0x00, 0x00, 0x04, 0x00, 0x00, 0x00, 0x01, 0x00, 0x00, 0x00, 0x01, 0x00, 0x00, 0x00,
  0x01, 0x00, 0x00, 0x00, 0x18, 0x00, 0x00, 0x00, 0x3a, 0xc8, 0xff, 0xff, 0x00, 0x00, 0x00, 0x01, 0x14, 0x00, 0x00, 0x00,
  0x34, 0x00, 0x00, 0x00, 0x3f, 0x00, 0x00, 0x00, 0x00, 0x00, 0x00, 0x09, 0x14, 0x01, 0x00, 0x00, 0x24, 0xc8, 0xff, 0xff,
  0x08, 0x00, 0x00, 0x00, 0x14, 0x00, 0x00, 0x00, 0x01, 0x00, 0x00, 0x00, 0xee, 0xff, 0xff, 0xff, 0xff, 0xff, 0xff, 0xff,
  0x00, 0x00, 0x00, 0x00, 0x01, 0x00, 0x00, 0x00, 0x7f, 0xa5, 0xe2, 0x3b, 0xe6, 0x00, 0x00, 0x00, 0x74, 0x63, 0x6e, 0x2f,
  0x74, 0x63, 0x6e, 0x2f, 0x42, 0x34, 0x2e, 0x44, 0x31, 0x2e, 0x53, 0x45, 0x2e, 0x65, 0x78, 0x2e, 0x61, 0x63, 0x74, 0x2f,
  0x41, 0x64, 0x64, 0x3b, 0x74, 0x63, 0x6e, 0x2f, 0x74, 0x63, 0x6e, 0x2f, 0x42, 0x34, 0x2e, 0x44, 0x31, 0x2e, 0x53, 0x45,
  0x2e, 0x65, 0x78, 0x2e, 0x61, 0x63, 0x74, 0x2f, 0x4d, 0x75, 0x6c, 0x3b, 0x74, 0x63, 0x6e, 0x2f, 0x74, 0x63, 0x6e, 0x2f,
  0x42, 0x34, 0x2e, 0x44, 0x31, 0x2e, 0x53, 0x45, 0x2e, 0x65, 0x78, 0x2e, 0x63, 0x6f, 0x6e, 0x76, 0x2f, 0x42, 0x69, 0x61,
  0x73, 0x41, 0x64, 0x64, 0x2f, 0x52, 0x65, 0x61, 0x64, 0x56, 0x61, 0x72, 0x69, 0x61, 0x62, 0x6c, 0x65, 0x4f, 0x70, 0x3b,
  0x74, 0x63, 0x6e, 0x2f, 0x74, 0x63, 0x6e, 0x2f, 0x42, 0x34, 0x2e, 0x44, 0x31, 0x2e, 0x53, 0x45, 0x2e, 0x65, 0x78, 0x2e,
  0x63, 0x6f, 0x6e, 0x76, 0x2f, 0x42, 0x69, 0x61, 0x73, 0x41, 0x64, 0x64, 0x3b, 0x74, 0x63, 0x6e, 0x2f, 0x74, 0x63, 0x6e,
  0x2f, 0x42, 0x32, 0x2e, 0x44, 0x31, 0x2e, 0x53, 0x45, 0x2e, 0x65, 0x78, 0x2e, 0x61, 0x63, 0x74, 0x2f, 0x43, 0x6f, 0x6e,
  0x73, 0x74, 0x3b, 0x74, 0x63, 0x6e, 0x2f, 0x74, 0x63, 0x6e, 0x2f, 0x42, 0x32, 0x2e, 0x44, 0x31, 0x2e, 0x53, 0x45, 0x2e,
  0x65, 0x78, 0x2e, 0x61, 0x63, 0x74, 0x2f, 0x43, 0x6f, 0x6e, 0x73, 0x74, 0x5f, 0x31, 0x3b, 0x74, 0x63, 0x6e, 0x2f, 0x74,
  0x63, 0x6e, 0x2f, 0x42, 0x34, 0x2e, 0x44, 0x31, 0x2e, 0x53, 0x45, 0x2e, 0x65, 0x78, 0x2e, 0x63, 0x6f, 0x6e, 0x76, 0x2f,
  0x43, 0x6f, 0x6e, 0x76, 0x32, 0x44, 0x00, 0x00, 0x04, 0x00, 0x00, 0x00, 0x01, 0x00, 0x00, 0x00, 0x01, 0x00, 0x00, 0x00,
  0x01, 0x00, 0x00, 0x00, 0x18, 0x00, 0x00, 0x00, 0x7a, 0xc9, 0xff, 0xff, 0x00, 0x00, 0x00, 0x01, 0x14, 0x00, 0x00, 0x00,
  0x34, 0x00, 0x00, 0x00, 0x3e, 0x00, 0x00, 0x00, 0x00, 0x00, 0x00, 0x09, 0xbc, 0x00, 0x00, 0x00, 0x64, 0xc9, 0xff, 0xff,
  0x08, 0x00, 0x00, 0x00, 0x14, 0x00, 0x00, 0x00, 0x01, 0x00, 0x00, 0x00, 0x80, 0xff, 0xff, 0xff, 0xff, 0xff, 0xff, 0xff,
  0x00, 0x00, 0x00, 0x00, 0x01, 0x00, 0x00, 0x00, 0xb8, 0xa5, 0x03, 0x3c, 0x8e, 0x00, 0x00, 0x00, 0x74, 0x63, 0x6e, 0x2f,
  0x74, 0x63, 0x6e, 0x2f, 0x42, 0x34, 0x2e, 0x44, 0x31, 0x2e, 0x53, 0x45, 0x2e, 0x73, 0x71, 0x2e, 0x61, 0x63, 0x74, 0x2f,
  0x52, 0x65, 0x6c, 0x75, 0x36, 0x3b, 0x74, 0x63, 0x6e, 0x2f, 0x74, 0x63, 0x6e, 0x2f, 0x42, 0x34, 0x2e, 0x44, 0x31, 0x2e,
  0x53, 0x45, 0x2e, 0x73, 0x71, 0x2e, 0x63, 0x6f, 0x6e, 0x76, 0x2f, 0x42, 0x69, 0x61, 0x73, 0x41, 0x64, 0x64, 0x3b, 0x74,
  0x63, 0x6e, 0x2f, 0x74, 0x63, 0x6e, 0x2f, 0x42, 0x34, 0x2e, 0x44, 0x31, 0x2e, 0x53, 0x45, 0x2e, 0x73, 0x71, 0x2e, 0x63,
  0x6f, 0x6e, 0x76, 0x2f, 0x43, 0x6f, 0x6e, 0x76, 0x32, 0x44, 0x3b, 0x74, 0x63, 0x6e, 0x2f, 0x74, 0x63, 0x6e, 0x2f, 0x42,
  0x34, 0x2e, 0x44, 0x31, 0x2e, 0x53, 0x45, 0x2e, 0x73, 0x71, 0x2e, 0x63, 0x6f, 0x6e, 0x76, 0x2f, 0x42, 0x69, 0x61, 0x73,
  0x41, 0x64, 0x64, 0x2f, 0x52, 0x65, 0x61, 0x64, 0x56, 0x61, 0x72, 0x69, 0x61, 0x62, 0x6c, 0x65, 0x4f, 0x70, 0x00, 0x00,
  0x04, 0x00, 0x00, 0x00, 0x01, 0x00, 0x00, 0x00, 0x01, 0x00, 0x00, 0x00, 0x01, 0x00, 0x00, 0x00, 0x0c, 0x00, 0x00, 0x00,
  0x62, 0xca, 0xff, 0xff, 0x00, 0x00, 0x00, 0x01, 0x14, 0x00, 0x00, 0x00, 0x30, 0x00, 0x00, 0x00, 0x3d, 0x00, 0x00, 0x00,
  0x00, 0x00, 0x00, 0x09, 0x44, 0x00, 0x00, 0x00, 0x4c, 0xca, 0xff, 0xff, 0x08, 0x00, 0x00, 0x00, 0x10, 0x00, 0x00, 0x00,
  0x01, 0x00, 0x00, 0x00, 0x80, 0xff, 0xff, 0xff, 0xff, 0xff, 0xff, 0xff, 0x01, 0x00, 0x00, 0x00, 0x4c, 0x6b, 0x43, 0x3b,
  0x1a, 0x00, 0x00, 0x00, 0x74, 0x63, 0x6e, 0x2f, 0x74, 0x63, 0x6e, 0x2f, 0x42, 0x34, 0x2e, 0x44, 0x31, 0x2e, 0x53, 0x45,
  0x2e, 0x70, 0x6f, 0x6f, 0x6c, 0x2f, 0x4d, 0x65, 0x61, 0x6e, 0x00, 0x00, 0x04, 0x00, 0x00, 0x00, 0x01, 0x00, 0x00, 0x00,
  0x01, 0x00, 0x00, 0x00, 0x01, 0x00, 0x00, 0x00, 0x18, 0x00, 0x00, 0x00, 0xd2, 0xca, 0xff, 0xff, 0x00, 0x00, 0x00, 0x01,
  0x14, 0x00, 0x00, 0x00, 0x34, 0x00, 0x00, 0x00, 0x3c, 0x00, 0x00, 0x00, 0x00, 0x00, 0x00, 0x09, 0xb4, 0x00, 0x00, 0x00,
  0xbc, 0xca, 0xff, 0xff, 0x08, 0x00, 0x00, 0x00, 0x14, 0x00, 0x00, 0x00, 0x01, 0x00, 0x00, 0x00, 0x80, 0xff, 0xff, 0xff,
  0xff, 0xff, 0xff, 0xff, 0x00, 0x00, 0x00, 0x00, 0x01, 0x00, 0x00, 0x00, 0xc1, 0xc0, 0xc0, 0x3c, 0x84, 0x00, 0x00, 0x00,
  0x74, 0x63, 0x6e, 0x2f, 0x74, 0x63, 0x6e, 0x2f, 0x42, 0x34, 0x2e, 0x44, 0x31, 0x2e, 0x44, 0x57, 0x2e, 0x52, 0x45, 0x4c,
  0x55, 0x2f, 0x52, 0x65, 0x6c, 0x75, 0x36, 0x3b, 0x74, 0x63, 0x6e, 0x2f, 0x74, 0x63, 0x6e, 0x2f, 0x42, 0x34, 0x2e, 0x44,
  0x31, 0x2e, 0x44, 0x57, 0x2e, 0x42, 0x31, 0x2e, 0x42, 0x4e, 0x2f, 0x46, 0x75, 0x73, 0x65, 0x64, 0x42, 0x61, 0x74, 0x63,
  0x68, 0x4e, 0x6f, 0x72, 0x6d, 0x56, 0x33, 0x3b, 0x74, 0x63, 0x6e, 0x2f, 0x74, 0x63, 0x6e, 0x2f, 0x42, 0x34, 0x2e, 0x44,
  0x31, 0x2e, 0x53, 0x45, 0x2e, 0x65, 0x78, 0x2e, 0x63, 0x6f, 0x6e, 0x76, 0x2f, 0x43, 0x6f, 0x6e, 0x76, 0x32, 0x44, 0x3b,
  0x74, 0x63, 0x6e, 0x2f, 0x74, 0x63, 0x6e, 0x2f, 0x42, 0x34, 0x2e, 0x44, 0x31, 0x2e, 0x44, 0x57, 0x2e, 0x42, 0x31, 0x2e,
  0x43, 0x4e, 0x2f, 0x64, 0x65, 0x70, 0x74, 0x68, 0x77, 0x69, 0x73, 0x65, 0x00, 0x00, 0x00, 0x00, 0x04, 0x00, 0x00, 0x00,
  0x01, 0x00, 0x00, 0x00, 0x01, 0x00, 0x00, 0x00, 0xfa, 0x00, 0x00, 0x00, 0x18, 0x00, 0x00, 0x00, 0xb2, 0xcb, 0xff, 0xff,
  0x00, 0x00, 0x00, 0x01, 0x14, 0x00, 0x00, 0x00, 0x30, 0x00, 0x00, 0x00, 0x3b, 0x00, 0x00, 0x00, 0x00, 0x00, 0x00, 0x09,
  0xac, 0x00, 0x00, 0x00, 0x9c, 0xcb, 0xff, 0xff, 0x08, 0x00, 0x00, 0x00, 0x10, 0x00, 0x00, 0x00, 0x01, 0x00, 0x00, 0x00,
  0x80, 0xff, 0xff, 0xff, 0xff, 0xff, 0xff, 0xff, 0x01, 0x00, 0x00, 0x00, 0x5c, 0x80, 0xbf, 0x3c, 0x81, 0x00, 0x00, 0x00,
  0x74, 0x63, 0x6e, 0x2f, 0x74, 0x63, 0x6e, 0x2f, 0x42, 0x33, 0x2e, 0x44, 0x31, 0x2e, 0x50, 0x57, 0x2e, 0x52, 0x45, 0x4c,
  0x55, 0x2f, 0x52, 0x65, 0x6c, 0x75, 0x36, 0x3b, 0x74, 0x63, 0x6e, 0x2f, 0x74, 0x63, 0x6e, 0x2f, 0x42, 0x33, 0x2e, 0x44,
  0x31, 0x2e, 0x50, 0x57, 0x2e, 0x42, 0x31, 0x2e, 0x42, 0x4e, 0x2f, 0x46, 0x75, 0x73, 0x65, 0x64, 0x42, 0x61, 0x74, 0x63,
  0x68, 0x4e, 0x6f, 0x72, 0x6d, 0x56, 0x33, 0x3b, 0x74, 0x63, 0x6e, 0x2f, 0x74, 0x63, 0x6e, 0x2f, 0x42, 0x34, 0x2e, 0x44,
  0x31, 0x2e, 0x53, 0x45, 0x2e, 0x65, 0x78, 0x2e, 0x63, 0x6f, 0x6e, 0x76, 0x2f, 0x43, 0x6f, 0x6e, 0x76, 0x32, 0x44, 0x3b,
  0x74, 0x63, 0x6e, 0x2f, 0x74, 0x63, 0x6e, 0x2f, 0x42, 0x33, 0x2e, 0x44, 0x31, 0x2e, 0x50, 0x57, 0x2e, 0x42, 0x31, 0x2e,
  0x43, 0x4e, 0x2f, 0x43, 0x6f, 0x6e, 0x76, 0x32, 0x44, 0x00, 0x00, 0x00, 0x04, 0x00, 0x00, 0x00, 0x01, 0x00, 0x00, 0x00,
  0x01, 0x00, 0x00, 0x00, 0xfa, 0x00, 0x00, 0x00, 0x18, 0x00, 0x00, 0x00, 0x8a, 0xcc, 0xff, 0xff, 0x00, 0x00, 0x00, 0x01,
  0x14, 0x00, 0x00, 0x00, 0x34, 0x00, 0x00, 0x00, 0x3a, 0x00, 0x00, 0x00, 0x00, 0x00, 0x00, 0x09, 0x44, 0x00, 0x00, 0x00,
  0x74, 0xcc, 0xff, 0xff, 0x08, 0x00, 0x00, 0x00, 0x14, 0x00, 0x00, 0x00, 0x01, 0x00, 0x00, 0x00, 0x80, 0xff, 0xff, 0xff,
  0xff, 0xff, 0xff, 0xff, 0x00, 0x00, 0x00, 0x00, 0x01, 0x00, 0x00, 0x00, 0xd9, 0x13, 0x5d, 0x3c, 0x16, 0x00, 0x00, 0x00,
  0x74, 0x63, 0x6e, 0x2f, 0x74, 0x63, 0x6e, 0x2f, 0x6d, 0x75, 0x6c, 0x74, 0x69, 0x70, 0x6c, 0x79, 0x5f, 0x31, 0x2f, 0x6d,
  0x75, 0x6c, 0x00, 0x00, 0x04, 0x00, 0x00, 0x00, 0x01, 0x00, 0x00, 0x00, 0x01, 0x00, 0x00, 0x00, 0xfa, 0x00, 0x00, 0x00,
  0x10, 0x00, 0x00, 0x00, 0xfa, 0xcc, 0xff, 0xff, 0x00, 0x00, 0x00, 0x01, 0x14, 0x00, 0x00, 0x00, 0x34, 0x00, 0x00, 0x00,
  0x39, 0x00, 0x00, 0x00, 0x00, 0x00, 0x00, 0x09, 0x54, 0x00, 0x00, 0x00, 0xe4, 0xcc, 0xff, 0xff, 0x08, 0x00, 0x00, 0x00,
  0x14, 0x00, 0x00, 0x00, 0x01, 0x00, 0x00, 0x00, 0x80, 0xff, 0xff, 0xff, 0xff, 0xff, 0xff, 0xff, 0x00, 0x00, 0x00, 0x00,
  0x01, 0x00, 0x00, 0x00, 0xd3, 0x62, 0x5b, 0x3b, 0x25, 0x00, 0x00, 0x00, 0x74, 0x63, 0x6e, 0x2f, 0x74, 0x63, 0x6e, 0x2f,
  0x42, 0x33, 0x2e, 0x44, 0x31, 0x2e, 0x53, 0x45, 0x2e, 0x65, 0x78, 0x2e, 0x61, 0x63, 0x74, 0x2f, 0x63, 0x6c, 0x69, 0x70,
  0x5f, 0x62, 0x79, 0x5f, 0x76, 0x61, 0x6c, 0x75, 0x65, 0x00, 0x00, 0x00, 0x04, 0x00, 0x00, 0x00, 0x01, 0x00, 0x00, 0x00,
  0x01, 0x00, 0x00, 0x00, 0x01, 0x00, 0x00, 0x00, 0x10, 0x00, 0x00, 0x00, 0x7a, 0xcd, 0xff, 0xff, 0x00, 0x00, 0x00, 0x01,
  0x14, 0x00, 0x00, 0x00, 0x34, 0x00, 0x00, 0x00, 0x38, 0x00, 0x00, 0x00, 0x00, 0x00, 0x00, 0x09, 0x5c, 0x00, 0x00, 0x00,
  0x64, 0xcd, 0xff, 0xff, 0x08, 0x00, 0x00, 0x00, 0x14, 0x00, 0x00, 0x00, 0x01, 0x00, 0x00, 0x00, 0x80, 0xff, 0xff, 0xff,
  0xff, 0xff, 0xff, 0xff, 0x00, 0x00, 0x00, 0x00, 0x01, 0x00, 0x00, 0x00, 0xd3, 0x62, 0x5b, 0x3b, 0x2d, 0x00, 0x00, 0x00,
  0x74, 0x63, 0x6e, 0x2f, 0x74, 0x63, 0x6e, 0x2f, 0x42, 0x33, 0x2e, 0x44, 0x31, 0x2e, 0x53, 0x45, 0x2e, 0x65, 0x78, 0x2e,
  0x61, 0x63, 0x74, 0x2f, 0x63, 0x6c, 0x69, 0x70, 0x5f, 0x62, 0x79, 0x5f, 0x76, 0x61, 0x6c, 0x75, 0x65, 0x2f, 0x4d, 0x69,
  0x6e, 0x69, 0x6d, 0x75, 0x6d, 0x00, 0x00, 0x00, 0x04, 0x00, 0x00, 0x00, 0x01, 0x00, 0x00, 0x00, 0x01, 0x00, 0x00, 0x00,
  0x01, 0x00, 0x00, 0x00, 0x10, 0x00, 0x00, 0x00, 0x02, 0xce, 0xff, 0xff, 0x00, 0x00, 0x00, 0x01, 0x14, 0x00, 0x00, 0x00,
  0x34, 0x00, 0x00, 0x00, 0x37, 0x00, 0x00, 0x00, 0x00, 0x00, 0x00, 0x09, 0x14, 0x01, 0x00, 0x00, 0xec, 0xcd, 0xff, 0xff,
  0x08, 0x00, 0x00, 0x00, 0x14, 0x00, 0x00, 0x00, 0x01, 0x00, 0x00, 0x00, 0x80, 0xff, 0xff, 0xff, 0xff, 0xff, 0xff, 0xff,
  0x00, 0x00, 0x00, 0x00, 0x01, 0x00, 0x00, 0x00, 0xd3, 0x62, 0x5b, 0x3b, 0xe6, 0x00, 0x00, 0x00, 0x74, 0x63, 0x6e, 0x2f,
  0x74, 0x63, 0x6e, 0x2f, 0x42, 0x33, 0x2e, 0x44, 0x31, 0x2e, 0x53, 0x45, 0x2e, 0x65, 0x78, 0x2e, 0x61, 0x63, 0x74, 0x2f,
  0x41, 0x64, 0x64, 0x3b, 0x74, 0x63, 0x6e, 0x2f, 0x74, 0x63, 0x6e, 0x2f, 0x42, 0x33, 0x2e, 0x44, 0x31, 0x2e, 0x53, 0x45,
  0x2e, 0x65, 0x78, 0x2e, 0x61, 0x63, 0x74, 0x2f, 0x4d, 0x75, 0x6c, 0x3b, 0x74, 0x63, 0x6e, 0x2f, 0x74, 0x63, 0x6e, 0x2f,
  0x42, 0x33, 0x2e, 0x44, 0x31, 0x2e, 0x53, 0x45, 0x2e, 0x65, 0x78, 0x2e, 0x63, 0x6f, 0x6e, 0x76, 0x2f, 0x42, 0x69, 0x61,
  0x73, 0x41, 0x64, 0x64, 0x2f, 0x52, 0x65, 0x61, 0x64, 0x56, 0x61, 0x72, 0x69, 0x61, 0x62, 0x6c, 0x65, 0x4f, 0x70, 0x3b,
  0x74, 0x63, 0x6e, 0x2f, 0x74, 0x63, 0x6e, 0x2f, 0x42, 0x33, 0x2e, 0x44, 0x31, 0x2e, 0x53, 0x45, 0x2e, 0x65, 0x78, 0x2e,
  0x63, 0x6f, 0x6e, 0x76, 0x2f, 0x42, 0x69, 0x61, 0x73, 0x41, 0x64, 0x64, 0x3b, 0x74, 0x63, 0x6e, 0x2f, 0x74, 0x63, 0x6e,
  0x2f, 0x42, 0x32, 0x2e, 0x44, 0x31, 0x2e, 0x53, 0x45, 0x2e, 0x65, 0x78, 0x2e, 0x61, 0x63, 0x74, 0x2f, 0x43, 0x6f, 0x6e,
  0x73, 0x74, 0x3b, 0x74, 0x63, 0x6e, 0x2f, 0x74, 0x63, 0x6e, 0x2f, 0x42, 0x32, 0x2e, 0x44, 0x31, 0x2e, 0x53, 0x45, 0x2e,
  0x65, 0x78, 0x2e, 0x61, 0x63, 0x74, 0x2f, 0x43, 0x6f, 0x6e, 0x73, 0x74, 0x5f, 0x31, 0x3b, 0x74, 0x63, 0x6e, 0x2f, 0x74,
  0x63, 0x6e, 0x2f, 0x42, 0x33, 0x2e, 0x44, 0x31, 0x2e, 0x53, 0x45, 0x2e, 0x65, 0x78, 0x2e, 0x63, 0x6f, 0x6e, 0x76, 0x2f,
  0x43, 0x6f, 0x6e, 0x76, 0x32, 0x44, 0x00, 0x00, 0x04, 0x00, 0x00, 0x00, 0x01, 0x00, 0x00, 0x00, 0x01, 0x00, 0x00, 0x00,
  0x01, 0x00, 0x00, 0x00, 0x10, 0x00, 0x00, 0x00, 0x42, 0xcf, 0xff, 0xff, 0x00, 0x00, 0x00, 0x01, 0x14, 0x00, 0x00, 0x00,
  0x34, 0x00, 0x00, 0x00, 0x36, 0x00, 0x00, 0x00, 0x00, 0x00, 0x00, 0x09, 0xbc, 0x00, 0x00, 0x00, 0x2c, 0xcf, 0xff, 0xff,
  0x08, 0x00, 0x00, 0x00, 0x14, 0x00, 0x00, 0x00, 0x01, 0x00, 0x00, 0x00, 0x80, 0xff, 0xff, 0xff, 0xff, 0xff, 0xff, 0xff,
  0x00, 0x00, 0x00, 0x00, 0x01, 0x00, 0x00, 0x00, 0x7c, 0xec, 0x47, 0x3b, 0x8e, 0x00, 0x00, 0x00, 0x74, 0x63, 0x6e, 0x2f,
  0x74, 0x63, 0x6e, 0x2f, 0x42, 0x33, 0x2e, 0x44, 0x31, 0x2e, 0x53, 0x45, 0x2e, 0x73, 0x71, 0x2e, 0x61, 0x63, 0x74, 0x2f,
  0x52, 0x65, 0x6c, 0x75, 0x36, 0x3b, 0x74, 0x63, 0x6e, 0x2f, 0x74, 0x63, 0x6e, 0x2f, 0x42, 0x33, 0x2e, 0x44, 0x31, 0x2e,
  0x53, 0x45, 0x2e, 0x73, 0x71, 0x2e, 0x63, 0x6f, 0x6e, 0x76, 0x2f, 0x42, 0x69, 0x61, 0x73, 0x41, 0x64, 0x64, 0x3b, 0x74,
  0x63, 0x6e, 0x2f, 0x74, 0x63, 0x6e, 0x2f, 0x42, 0x33, 0x2e, 0x44, 0x31, 0x2e, 0x53, 0x45, 0x2e, 0x73, 0x71, 0x2e, 0x63,
  0x6f, 0x6e, 0x76, 0x2f, 0x43, 0x6f, 0x6e, 0x76, 0x32, 0x44, 0x3b, 0x74, 0x63, 0x6e, 0x2f, 0x74, 0x63, 0x6e, 0x2f, 0x42,
  0x33, 0x2e, 0x44, 0x31, 0x2e, 0x53, 0x45, 0x2e, 0x73, 0x71, 0x2e, 0x63, 0x6f, 0x6e, 0x76, 0x2f, 0x42, 0x69, 0x61, 0x73,
  0x41, 0x64, 0x64, 0x2f, 0x52, 0x65, 0x61, 0x64, 0x56, 0x61, 0x72, 0x69, 0x61, 0x62, 0x6c, 0x65, 0x4f, 0x70, 0x00, 0x00,
  0x04, 0x00, 0x00, 0x00, 0x01, 0x00, 0x00, 0x00, 0x01, 0x00, 0x00, 0x00, 0x01, 0x00, 0x00, 0x00, 0x08, 0x00, 0x00, 0x00,
  0x2a, 0xd0, 0xff, 0xff, 0x00, 0x00, 0x00, 0x01, 0x14, 0x00, 0x00, 0x00, 0x30, 0x00, 0x00, 0x00, 0x35, 0x00, 0x00, 0x00,
  0x00, 0x00, 0x00, 0x09, 0x44, 0x00, 0x00, 0x00, 0x14, 0xd0, 0xff, 0xff, 0x08, 0x00, 0x00, 0x00, 0x10, 0x00, 0x00, 0x00,
  0x01, 0x00, 0x00, 0x00, 0x80, 0xff, 0xff, 0xff, 0xff, 0xff, 0xff, 0xff, 0x01, 0x00, 0x00, 0x00, 0x69, 0xcb, 0x00, 0x3b,
  0x1a, 0x00, 0x00, 0x00, 0x74, 0x63, 0x6e, 0x2f, 0x74, 0x63, 0x6e, 0x2f, 0x42, 0x33, 0x2e, 0x44, 0x31, 0x2e, 0x53, 0x45,
  0x2e, 0x70, 0x6f, 0x6f, 0x6c, 0x2f, 0x4d, 0x65, 0x61, 0x6e, 0x00, 0x00, 0x04, 0x00, 0x00, 0x00, 0x01, 0x00, 0x00, 0x00,
  0x01, 0x00, 0x00, 0x00, 0x01, 0x00, 0x00, 0x00, 0x10, 0x00, 0x00, 0x00, 0x9a, 0xd0, 0xff, 0xff, 0x00, 0x00, 0x00, 0x01,
  0x14, 0x00, 0x00, 0x00, 0x34, 0x00, 0x00, 0x00, 0x34, 0x00, 0x00, 0x00, 0x00, 0x00, 0x00, 0x09, 0xb4, 0x00, 0x00, 0x00,
  0x84, 0xd0, 0xff, 0xff, 0x08, 0x00, 0x00, 0x00, 0x14, 0x00, 0x00, 0x00, 0x01, 0x00, 0x00, 0x00, 0x80, 0xff, 0xff, 0xff,
  0xff, 0xff, 0xff, 0xff, 0x00, 0x00, 0x00, 0x00, 0x01, 0x00, 0x00, 0x00, 0x9d, 0x3d, 0x9c, 0x3c, 0x84, 0x00, 0x00, 0x00,
  0x74, 0x63, 0x6e, 0x2f, 0x74, 0x63, 0x6e, 0x2f, 0x42, 0x33, 0x2e, 0x44, 0x31, 0x2e, 0x44, 0x57, 0x2e, 0x52, 0x45, 0x4c,
  0x55, 0x2f, 0x52, 0x65, 0x6c, 0x75, 0x36, 0x3b, 0x74, 0x63, 0x6e, 0x2f, 0x74, 0x63, 0x6e, 0x2f, 0x42, 0x33, 0x2e, 0x44,
  0x31, 0x2e, 0x44, 0x57, 0x2e, 0x42, 0x31, 0x2e, 0x42, 0x4e, 0x2f, 0x46, 0x75, 0x73, 0x65, 0x64, 0x42, 0x61, 0x74, 0x63,
  0x68, 0x4e, 0x6f, 0x72, 0x6d, 0x56, 0x33, 0x3b, 0x74, 0x63, 0x6e, 0x2f, 0x74, 0x63, 0x6e, 0x2f, 0x42, 0x33, 0x2e, 0x44,
  0x31, 0x2e, 0x53, 0x45, 0x2e, 0x65, 0x78, 0x2e, 0x63, 0x6f, 0x6e, 0x76, 0x2f, 0x43, 0x6f, 0x6e, 0x76, 0x32, 0x44, 0x3b,
  0x74, 0x63, 0x6e, 0x2f, 0x74, 0x63, 0x6e, 0x2f, 0x42, 0x33, 0x2e, 0x44, 0x31, 0x2e, 0x44, 0x57, 0x2e, 0x42, 0x31, 0x2e,
  0x43, 0x4e, 0x2f, 0x64, 0x65, 0x70, 0x74, 0x68, 0x77, 0x69, 0x73, 0x65, 0x00, 0x00, 0x00, 0x00, 0x04, 0x00, 0x00, 0x00,
  0x01, 0x00, 0x00, 0x00, 0x01, 0x00, 0x00, 0x00, 0xfa, 0x00, 0x00, 0x00, 0x10, 0x00, 0x00, 0x00, 0x7a, 0xd1, 0xff, 0xff,
  0x00, 0x00, 0x00, 0x01, 0x14, 0x00, 0x00, 0x00, 0x30, 0x00, 0x00, 0x00, 0x33, 0x00, 0x00, 0x00, 0x00, 0x00, 0x00, 0x09,
  0xac, 0x00, 0x00, 0x00, 0x64, 0xd1, 0xff, 0xff, 0x08, 0x00, 0x00, 0x00, 0x10, 0x00, 0x00, 0x00, 0x01, 0x00, 0x00, 0x00,
  0x80, 0xff, 0xff, 0xff, 0xff, 0xff, 0xff, 0xff, 0x01, 0x00, 0x00, 0x00, 0x21, 0xcd, 0x84, 0x3c, 0x81, 0x00, 0x00, 0x00,
  0x74, 0x63, 0x6e, 0x2f, 0x74, 0x63, 0x6e, 0x2f, 0x42, 0x32, 0x2e, 0x44, 0x31, 0x2e, 0x50, 0x57, 0x2e, 0x52, 0x45, 0x4c,
  0x55, 0x2f, 0x52, 0x65, 0x6c, 0x75, 0x36, 0x3b, 0x74, 0x63, 0x6e, 0x2f, 0x74, 0x63, 0x6e, 0x2f, 0x42, 0x32, 0x2e, 0x44,
  0x31, 0x2e, 0x50, 0x57, 0x2e, 0x42, 0x31, 0x2e, 0x42, 0x4e, 0x2f, 0x46, 0x75, 0x73, 0x65, 0x64, 0x42, 0x61, 0x74, 0x63,
  0x68, 0x4e, 0x6f, 0x72, 0x6d, 0x56, 0x33, 0x3b, 0x74, 0x63, 0x6e, 0x2f, 0x74, 0x63, 0x6e, 0x2f, 0x42, 0x33, 0x2e, 0x44,
  0x31, 0x2e, 0x53, 0x45, 0x2e, 0x65, 0x78, 0x2e, 0x63, 0x6f, 0x6e, 0x76, 0x2f, 0x43, 0x6f, 0x6e, 0x76, 0x32, 0x44, 0x3b,
  0x74, 0x63, 0x6e, 0x2f, 0x74, 0x63, 0x6e, 0x2f, 0x42, 0x32, 0x2e, 0x44, 0x31, 0x2e, 0x50, 0x57, 0x2e, 0x42, 0x31, 0x2e,
  0x43, 0x4e, 0x2f, 0x43, 0x6f, 0x6e, 0x76, 0x32, 0x44, 0x00, 0x00, 0x00, 0x04, 0x00, 0x00, 0x00, 0x01, 0x00, 0x00, 0x00,
  0x01, 0x00, 0x00, 0x00, 0xfa, 0x00, 0x00, 0x00, 0x10, 0x00, 0x00, 0x00, 0x52, 0xd2, 0xff, 0xff, 0x00, 0x00, 0x00, 0x01,
  0x14, 0x00, 0x00, 0x00, 0x34, 0x00, 0x00, 0x00, 0x32, 0x00, 0x00, 0x00, 0x00, 0x00, 0x00, 0x09, 0x44, 0x00, 0x00, 0x00,
  0x3c, 0xd2, 0xff, 0xff, 0x08, 0x00, 0x00, 0x00, 0x14, 0x00, 0x00, 0x00, 0x01, 0x00, 0x00, 0x00, 0x80, 0xff, 0xff, 0xff,
  0xff, 0xff, 0xff, 0xff, 0x00, 0x00, 0x00, 0x00, 0x01, 0x00, 0x00, 0x00, 0x7b, 0x10, 0x78, 0x3c, 0x14, 0x00, 0x00, 0x00,
  0x74, 0x63, 0x6e, 0x2f, 0x74, 0x63, 0x6e, 0x2f, 0x6d, 0x75, 0x6c, 0x74, 0x69, 0x70, 0x6c, 0x79, 0x2f, 0x6d, 0x75, 0x6c,
  0x00, 0x00, 0x00, 0x00, 0x04, 0x00, 0x00, 0x00, 0x01, 0x00, 0x00, 0x00, 0x01, 0x00, 0x00, 0x00, 0xfa, 0x00, 0x00, 0x00,
  0x08, 0x00, 0x00, 0x00, 0xc2, 0xd2, 0xff, 0xff, 0x00, 0x00, 0x00, 0x01, 0x14, 0x00, 0x00, 0x00, 0x34, 0x00, 0x00, 0x00,
  0x31, 0x00, 0x00, 0x00, 0x00, 0x00, 0x00, 0x09, 0x54, 0x00, 0x00, 0x00, 0xac, 0xd2, 0xff, 0xff, 0x08, 0x00, 0x00, 0x00,
  0x14, 0x00, 0x00, 0x00, 0x01, 0x00, 0x00, 0x00, 0x80, 0xff, 0xff, 0xff, 0xff, 0xff, 0xff, 0xff, 0x00, 0x00, 0x00, 0x00,
  0x01, 0x00, 0x00, 0x00, 0x44, 0x94, 0x2c, 0x3b, 0x25, 0x00, 0x00, 0x00, 0x74, 0x63, 0x6e, 0x2f, 0x74, 0x63, 0x6e, 0x2f,
  0x42, 0x32, 0x2e, 0x44, 0x31, 0x2e, 0x53, 0x45, 0x2e, 0x65, 0x78, 0x2e, 0x61, 0x63, 0x74, 0x2f, 0x63, 0x6c, 0x69, 0x70,
  0x5f, 0x62, 0x79, 0x5f, 0x76, 0x61, 0x6c, 0x75, 0x65, 0x00, 0x00, 0x00, 0x04, 0x00, 0x00, 0x00, 0x01, 0x00, 0x00, 0x00,
  0x01, 0x00, 0x00, 0x00, 0x01, 0x00, 0x00, 0x00, 0x08, 0x00, 0x00, 0x00, 0x42, 0xd3, 0xff, 0xff, 0x00, 0x00, 0x00, 0x01,
  0x14, 0x00, 0x00, 0x00, 0x34, 0x00, 0x00, 0x00, 0x30, 0x00, 0x00, 0x00, 0x00, 0x00, 0x00, 0x09, 0x5c, 0x00, 0x00, 0x00,
  0x2c, 0xd3, 0xff, 0xff, 0x08, 0x00, 0x00, 0x00, 0x14, 0x00, 0x00, 0x00, 0x01, 0x00, 0x00, 0x00, 0x80, 0xff, 0xff, 0xff,
  0xff, 0xff, 0xff, 0xff, 0x00, 0x00, 0x00, 0x00, 0x01, 0x00, 0x00, 0x00, 0x44, 0x94, 0x2c, 0x3b, 0x2d, 0x00, 0x00, 0x00,
  0x74, 0x63, 0x6e, 0x2f, 0x74, 0x63, 0x6e, 0x2f, 0x42, 0x32, 0x2e, 0x44, 0x31, 0x2e, 0x53, 0x45, 0x2e, 0x65, 0x78, 0x2e,
  0x61, 0x63, 0x74, 0x2f, 0x63, 0x6c, 0x69, 0x70, 0x5f, 0x62, 0x79, 0x5f, 0x76, 0x61, 0x6c, 0x75, 0x65, 0x2f, 0x4d, 0x69,
  0x6e, 0x69, 0x6d, 0x75, 0x6d, 0x00, 0x00, 0x00, 0x04, 0x00, 0x00, 0x00, 0x01, 0x00, 0x00, 0x00, 0x01, 0x00, 0x00, 0x00,
  0x01, 0x00, 0x00, 0x00, 0x08, 0x00, 0x00, 0x00, 0xca, 0xd3, 0xff, 0xff, 0x00, 0x00, 0x00, 0x01, 0x14, 0x00, 0x00, 0x00,
  0x34, 0x00, 0x00, 0x00, 0x2f, 0x00, 0x00, 0x00, 0x00, 0x00, 0x00, 0x09, 0x34, 0x01, 0x00, 0x00, 0xb4, 0xd3, 0xff, 0xff,
  0x08, 0x00, 0x00, 0x00, 0x14, 0x00, 0x00, 0x00, 0x01, 0x00, 0x00, 0x00, 0x80, 0xff, 0xff, 0xff, 0xff, 0xff, 0xff, 0xff,
  0x00, 0x00, 0x00, 0x00, 0x01, 0x00, 0x00, 0x00, 0x44, 0x94, 0x2c, 0x3b, 0x06, 0x01, 0x00, 0x00, 0x74, 0x63, 0x6e, 0x2f,
  0x74, 0x63, 0x6e, 0x2f, 0x42, 0x32, 0x2e, 0x44, 0x31, 0x2e, 0x53, 0x45, 0x2e, 0x65, 0x78, 0x2e, 0x61, 0x63, 0x74, 0x2f,
  0x41, 0x64, 0x64, 0x3b, 0x74, 0x63, 0x6e, 0x2f, 0x74, 0x63, 0x6e, 0x2f, 0x42, 0x32, 0x2e, 0x44, 0x31, 0x2e, 0x53, 0x45,
  0x2e, 0x65, 0x78, 0x2e, 0x61, 0x63, 0x74, 0x2f, 0x4d, 0x75, 0x6c, 0x3b, 0x74, 0x63, 0x6e, 0x2f, 0x74, 0x63, 0x6e, 0x2f,
  0x42, 0x32, 0x2e, 0x44, 0x31, 0x2e, 0x53, 0x45, 0x2e, 0x65, 0x78, 0x2e, 0x63, 0x6f, 0x6e, 0x76, 0x2f, 0x42, 0x69, 0x61,
  0x73, 0x41, 0x64, 0x64, 0x2f, 0x52, 0x65, 0x61, 0x64, 0x56, 0x61, 0x72, 0x69, 0x61, 0x62, 0x6c, 0x65, 0x4f, 0x70, 0x3b,
  0x74, 0x63, 0x6e, 0x2f, 0x74, 0x63, 0x6e, 0x2f, 0x42, 0x32, 0x2e, 0x44, 0x31, 0x2e, 0x53, 0x45, 0x2e, 0x65, 0x78, 0x2e,
  0x63, 0x6f, 0x6e, 0x76, 0x2f, 0x42, 0x69, 0x61, 0x73, 0x41, 0x64, 0x64, 0x3b, 0x74, 0x63, 0x6e, 0x2f, 0x74, 0x63, 0x6e,
  0x2f, 0x42, 0x32, 0x2e, 0x44, 0x31, 0x2e, 0x53, 0x45, 0x2e, 0x65, 0x78, 0x2e, 0x61, 0x63, 0x74, 0x2f, 0x43, 0x6f, 0x6e,
  0x73, 0x74, 0x3b, 0x74, 0x63, 0x6e, 0x2f, 0x74, 0x63, 0x6e, 0x2f, 0x42, 0x32, 0x2e, 0x44, 0x31, 0x2e, 0x53, 0x45, 0x2e,
  0x65, 0x78, 0x2e, 0x61, 0x63, 0x74, 0x2f, 0x43, 0x6f, 0x6e, 0x73, 0x74, 0x5f, 0x31, 0x3b, 0x74, 0x63, 0x6e, 0x2f, 0x74,
  0x63, 0x6e, 0x2f, 0x42, 0x33, 0x2e, 0x44, 0x31, 0x2e, 0x53, 0x45, 0x2e, 0x73, 0x71, 0x2e, 0x63, 0x6f, 0x6e, 0x76, 0x2f,
  0x43, 0x6f, 0x6e, 0x76, 0x32, 0x44, 0x3b, 0x74, 0x63, 0x6e, 0x2f, 0x74, 0x63, 0x6e, 0x2f, 0x42, 0x32, 0x2e, 0x44, 0x31,
  0x2e, 0x53, 0x45, 0x2e, 0x65, 0x78, 0x2e, 0x63, 0x6f, 0x6e, 0x76, 0x2f, 0x43, 0x6f, 0x6e, 0x76, 0x32, 0x44, 0x00, 0x00,
  0x04, 0x00, 0x00, 0x00, 0x01, 0x00, 0x00, 0x00, 0x01, 0x00, 0x00, 0x00, 0x01, 0x00, 0x00, 0x00, 0x08, 0x00, 0x00, 0x00,
  0x2a, 0xd5, 0xff, 0xff, 0x00, 0x00, 0x00, 0x01, 0x14, 0x00, 0x00, 0x00, 0x34, 0x00, 0x00, 0x00, 0x2e, 0x00, 0x00, 0x00,
  0x00, 0x00, 0x00, 0x09, 0xbc, 0x00, 0x00, 0x00, 0x14, 0xd5, 0xff, 0xff, 0x08, 0x00, 0x00, 0x00, 0x14, 0x00, 0x00, 0x00,
  0x01, 0x00, 0x00, 0x00, 0x80, 0xff, 0xff, 0xff, 0xff, 0xff, 0xff, 0xff, 0x00, 0x00, 0x00, 0x00, 0x01, 0x00, 0x00, 0x00,
  0x4d, 0x01, 0xf1, 0x3a, 0x8e, 0x00, 0x00, 0x00, 0x74, 0x63, 0x6e, 0x2f, 0x74, 0x63, 0x6e, 0x2f, 0x42, 0x32, 0x2e, 0x44,
  0x31, 0x2e, 0x53, 0x45, 0x2e, 0x73, 0x71, 0x2e, 0x61, 0x63, 0x74, 0x2f, 0x52, 0x65, 0x6c, 0x75, 0x36, 0x3b, 0x74, 0x63,
  0x6e, 0x2f, 0x74, 0x63, 0x6e, 0x2f, 0x42, 0x32, 0x2e, 0x44, 0x31, 0x2e, 0x53, 0x45, 0x2e, 0x73, 0x71, 0x2e, 0x63, 0x6f,
  0x6e, 0x76, 0x2f, 0x42, 0x69, 0x61, 0x73, 0x41, 0x64, 0x64, 0x3b, 0x74, 0x63, 0x6e, 0x2f, 0x74, 0x63, 0x6e, 0x2f, 0x42,
  0x32, 0x2e, 0x44, 0x31, 0x2e, 0x53, 0x45, 0x2e, 0x73, 0x71, 0x2e, 0x63, 0x6f, 0x6e, 0x76, 0x2f, 0x43, 0x6f, 0x6e, 0x76,
  0x32, 0x44, 0x3b, 0x74, 0x63, 0x6e, 0x2f, 0x74, 0x63, 0x6e, 0x2f, 0x42, 0x32, 0x2e, 0x44, 0x31, 0x2e, 0x53, 0x45, 0x2e,
  0x73, 0x71, 0x2e, 0x63, 0x6f, 0x6e, 0x76, 0x2f, 0x42, 0x69, 0x61, 0x73, 0x41, 0x64, 0x64, 0x2f, 0x52, 0x65, 0x61, 0x64,
  0x56, 0x61, 0x72, 0x69, 0x61, 0x62, 0x6c, 0x65, 0x4f, 0x70, 0x00, 0x00, 0x04, 0x00, 0x00, 0x00, 0x01, 0x00, 0x00, 0x00,
  0x01, 0x00, 0x00, 0x00, 0x01, 0x00, 0x00, 0x00, 0x04, 0x00, 0x00, 0x00, 0x12, 0xd6, 0xff, 0xff, 0x00, 0x00, 0x00, 0x01,
  0x14, 0x00, 0x00, 0x00, 0x30, 0x00, 0x00, 0x00, 0x2d, 0x00, 0x00, 0x00, 0x00, 0x00, 0x00, 0x09, 0x44, 0x00, 0x00, 0x00,
  0xfc, 0xd5, 0xff, 0xff, 0x08, 0x00, 0x00, 0x00, 0x10, 0x00, 0x00, 0x00, 0x01, 0x00, 0x00, 0x00, 0x80, 0xff, 0xff, 0xff,
  0xff, 0xff, 0xff, 0xff, 0x01, 0x00, 0x00, 0x00, 0xae, 0xc5, 0x10, 0x3b, 0x1a, 0x00, 0x00, 0x00, 0x74, 0x63, 0x6e, 0x2f,
  0x74, 0x63, 0x6e, 0x2f, 0x42, 0x32, 0x2e, 0x44, 0x31, 0x2e, 0x53, 0x45, 0x2e, 0x70, 0x6f, 0x6f, 0x6c, 0x2f, 0x4d, 0x65,
  0x61, 0x6e, 0x00, 0x00, 0x04, 0x00, 0x00, 0x00, 0x01, 0x00, 0x00, 0x00, 0x01, 0x00, 0x00, 0x00, 0x01, 0x00, 0x00, 0x00,
  0x08, 0x00, 0x00, 0x00, 0x82, 0xd6, 0xff, 0xff, 0x00, 0x00, 0x00, 0x01, 0x14, 0x00, 0x00, 0x00, 0x34, 0x00, 0x00, 0x00,
  0x2c, 0x00, 0x00, 0x00, 0x00, 0x00, 0x00, 0x09, 0xb4, 0x00, 0x00, 0x00, 0x6c, 0xd6, 0xff, 0xff, 0x08, 0x00, 0x00, 0x00,
  0x14, 0x00, 0x00, 0x00, 0x01, 0x00, 0x00, 0x00, 0x80, 0xff, 0xff, 0xff, 0xff, 0xff, 0xff, 0xff, 0x00, 0x00, 0x00, 0x00,
  0x01, 0x00, 0x00, 0x00, 0xc1, 0xc0, 0xc0, 0x3c, 0x84, 0x00, 0x00, 0x00, 0x74, 0x63, 0x6e, 0x2f, 0x74, 0x63, 0x6e, 0x2f,
  0x42, 0x32, 0x2e, 0x44, 0x31, 0x2e, 0x44, 0x57, 0x2e, 0x52, 0x45, 0x4c, 0x55, 0x2f, 0x52, 0x65, 0x6c, 0x75, 0x36, 0x3b,
  0x74, 0x63, 0x6e, 0x2f, 0x74, 0x63, 0x6e, 0x2f, 0x42, 0x32, 0x2e, 0x44, 0x31, 0x2e, 0x44, 0x57, 0x2e, 0x42, 0x31, 0x2e,
  0x42, 0x4e, 0x2f, 0x46, 0x75, 0x73, 0x65, 0x64, 0x42, 0x61, 0x74, 0x63, 0x68, 0x4e, 0x6f, 0x72, 0x6d, 0x56, 0x33, 0x3b,
  0x74, 0x63, 0x6e, 0x2f, 0x74, 0x63, 0x6e, 0x2f, 0x42, 0x33, 0x2e, 0x44, 0x31, 0x2e, 0x53, 0x45, 0x2e, 0x73, 0x71, 0x2e,
  0x63, 0x6f, 0x6e, 0x76, 0x2f, 0x43, 0x6f, 0x6e, 0x76, 0x32, 0x44, 0x3b, 0x74, 0x63, 0x6e, 0x2f, 0x74, 0x63, 0x6e, 0x2f,
  0x42, 0x32, 0x2e, 0x44, 0x31, 0x2e, 0x44, 0x57, 0x2e, 0x42, 0x31, 0x2e, 0x43, 0x4e, 0x2f, 0x64, 0x65, 0x70, 0x74, 0x68,
  0x77, 0x69, 0x73, 0x65, 0x00, 0x00, 0x00, 0x00, 0x04, 0x00, 0x00, 0x00, 0x01, 0x00, 0x00, 0x00, 0x01, 0x00, 0x00, 0x00,
  0xfa, 0x00, 0x00, 0x00, 0x08, 0x00, 0x00, 0x00, 0x62, 0xd7, 0xff, 0xff, 0x00, 0x00, 0x00, 0x01, 0x14, 0x00, 0x00, 0x00,
  0x30, 0x00, 0x00, 0x00, 0x2b, 0x00, 0x00, 0x00, 0x00, 0x00, 0x00, 0x09, 0xac, 0x00, 0x00, 0x00, 0x4c, 0xd7, 0xff, 0xff,
  0x08, 0x00, 0x00, 0x00, 0x10, 0x00, 0x00, 0x00, 0x01, 0x00, 0x00, 0x00, 0x80, 0xff, 0xff, 0xff, 0xff, 0xff, 0xff, 0xff,
  0x01, 0x00, 0x00, 0x00, 0x2d, 0x75, 0x86, 0x3c, 0x81, 0x00, 0x00, 0x00, 0x74, 0x63, 0x6e, 0x2f, 0x74, 0x63, 0x6e, 0x2f,
  0x42, 0x31, 0x2e, 0x44, 0x31, 0x2e, 0x50, 0x57, 0x2e, 0x52, 0x45, 0x4c, 0x55, 0x2f, 0x52, 0x65, 0x6c, 0x75, 0x36, 0x3b,
  0x74, 0x63, 0x6e, 0x2f, 0x74, 0x63, 0x6e, 0x2f, 0x42, 0x31, 0x2e, 0x44, 0x31, 0x2e, 0x50, 0x57, 0x2e, 0x42, 0x31, 0x2e,
  0x42, 0x4e, 0x2f, 0x46, 0x75, 0x73, 0x65, 0x64, 0x42, 0x61, 0x74, 0x63, 0x68, 0x4e, 0x6f, 0x72, 0x6d, 0x56, 0x33, 0x3b,
  0x74, 0x63, 0x6e, 0x2f, 0x74, 0x63, 0x6e, 0x2f, 0x42, 0x33, 0x2e, 0x44, 0x31, 0x2e, 0x53, 0x45, 0x2e, 0x73, 0x71, 0x2e,
  0x63, 0x6f, 0x6e, 0x76, 0x2f, 0x43, 0x6f, 0x6e, 0x76, 0x32, 0x44, 0x3b, 0x74, 0x63, 0x6e, 0x2f, 0x74, 0x63, 0x6e, 0x2f,
  0x42, 0x31, 0x2e, 0x44, 0x31, 0x2e, 0x50, 0x57, 0x2e, 0x42, 0x31, 0x2e, 0x43, 0x4e, 0x2f, 0x43, 0x6f, 0x6e, 0x76, 0x32,
  0x44, 0x00, 0x00, 0x00, 0x04, 0x00, 0x00, 0x00, 0x01, 0x00, 0x00, 0x00, 0x01, 0x00, 0x00, 0x00, 0xfa, 0x00, 0x00, 0x00,
  0x08, 0x00, 0x00, 0x00, 0x3a, 0xd8, 0xff, 0xff, 0x00, 0x00, 0x00, 0x01, 0x14, 0x00, 0x00, 0x00, 0x34, 0x00, 0x00, 0x00,
  0x2a, 0x00, 0x00, 0x00, 0x00, 0x00, 0x00, 0x09, 0x94, 0x00, 0x00, 0x00, 0x24, 0xd8, 0xff, 0xff, 0x08, 0x00, 0x00, 0x00,
  0x14, 0x00, 0x00, 0x00, 0x01, 0x00, 0x00, 0x00, 0x80, 0xff, 0xff, 0xff, 0xff, 0xff, 0xff, 0xff, 0x00, 0x00, 0x00, 0x00,
  0x01, 0x00, 0x00, 0x00, 0xdd, 0xa7, 0x34, 0x3c, 0x64, 0x00, 0x00, 0x00, 0x74, 0x63, 0x6e, 0x2f, 0x74, 0x63, 0x6e, 0x2f,
  0x42, 0x31, 0x2e, 0x44, 0x31, 0x2e, 0x44, 0x57, 0x2e, 0x52, 0x45, 0x4c, 0x55, 0x2f, 0x52, 0x65, 0x6c, 0x75, 0x36, 0x3b,
  0x74, 0x63, 0x6e, 0x2f, 0x74, 0x63, 0x6e, 0x2f, 0x42, 0x31, 0x2e, 0x44, 0x31, 0x2e, 0x44, 0x57, 0x2e, 0x42, 0x31, 0x2e,
  0x42, 0x4e, 0x2f, 0x46, 0x75, 0x73, 0x65, 0x64, 0x42, 0x61, 0x74, 0x63, 0x68, 0x4e, 0x6f, 0x72, 0x6d, 0x56, 0x33, 0x3b,
  0x74, 0x63, 0x6e, 0x2f, 0x74, 0x63, 0x6e, 0x2f, 0x42, 0x31, 0x2e, 0x44, 0x31, 0x2e, 0x44, 0x57, 0x2e, 0x42, 0x31, 0x2e,
  0x43, 0x4e, 0x2f, 0x64, 0x65, 0x70, 0x74, 0x68, 0x77, 0x69, 0x73, 0x65, 0x00, 0x00, 0x00, 0x00, 0x04, 0x00, 0x00, 0x00,
  0x01, 0x00, 0x00, 0x00, 0x01, 0x00, 0x00, 0x00, 0xfa, 0x00, 0x00, 0x00, 0x01, 0x00, 0x00, 0x00, 0xfa, 0xd8, 0xff, 0xff,
  0x00, 0x00, 0x00, 0x01, 0x14, 0x00, 0x00, 0x00, 0x30, 0x00, 0x00, 0x00, 0x29, 0x00, 0x00, 0x00, 0x00, 0x00, 0x00, 0x09,
  0x84, 0x00, 0x00, 0x00, 0xe4, 0xd8, 0xff, 0xff, 0x08, 0x00, 0x00, 0x00, 0x10, 0x00, 0x00, 0x00, 0x01, 0x00, 0x00, 0x00,
  0x06, 0x00, 0x00, 0x00, 0x00, 0x00, 0x00, 0x00, 0x01, 0x00, 0x00, 0x00, 0x6e, 0xf0, 0x2a, 0x3d, 0x59, 0x00, 0x00, 0x00,
  0x74, 0x63, 0x6e, 0x2f, 0x74, 0x63, 0x6e, 0x2f, 0x45, 0x4e, 0x43, 0x2e, 0x42, 0x4e, 0x2f, 0x46, 0x75, 0x73, 0x65, 0x64,
  0x42, 0x61, 0x74, 0x63, 0x68, 0x4e, 0x6f, 0x72, 0x6d, 0x56, 0x33, 0x3b, 0x74, 0x63, 0x6e, 0x2f, 0x74, 0x63, 0x6e, 0x2f,
  0x42, 0x31, 0x2e, 0x44, 0x31, 0x2e, 0x44, 0x57, 0x2e, 0x42, 0x31, 0x2e, 0x43, 0x4e, 0x2f, 0x64, 0x65, 0x70, 0x74, 0x68,
  0x77, 0x69, 0x73, 0x65, 0x3b, 0x74, 0x63, 0x6e, 0x2f, 0x74, 0x63, 0x6e, 0x2f, 0x45, 0x4e, 0x43, 0x2e, 0x43, 0x4e, 0x2f,
  0x64, 0x65, 0x70, 0x74, 0x68, 0x77, 0x69, 0x73, 0x65, 0x00, 0x00, 0x00, 0x04, 0x00, 0x00, 0x00, 0x01, 0x00, 0x00, 0x00,
  0x01, 0x00, 0x00, 0x00, 0xfa, 0x00, 0x00, 0x00, 0x01, 0x00, 0x00, 0x00, 0xaa, 0xd9, 0xff, 0xff, 0x00, 0x00, 0x00, 0x01,
  0x14, 0x00, 0x00, 0x00, 0x30, 0x00, 0x00, 0x00, 0x28, 0x00, 0x00, 0x00, 0x00, 0x00, 0x00, 0x09, 0x40, 0x00, 0x00, 0x00,
  0x94, 0xd9, 0xff, 0xff, 0x08, 0x00, 0x00, 0x00, 0x10, 0x00, 0x00, 0x00, 0x01, 0x00, 0x00, 0x00, 0xff, 0xff, 0xff, 0xff,
  0xff, 0xff, 0xff, 0xff, 0x01, 0x00, 0x00, 0x00, 0xd8, 0x89, 0x44, 0x3d, 0x17, 0x00, 0x00, 0x00, 0x74, 0x63, 0x6e, 0x2f,
  0x74, 0x63, 0x6e, 0x2f, 0x72, 0x65, 0x73, 0x68, 0x61, 0x70, 0x65, 0x2f, 0x52, 0x65, 0x73, 0x68, 0x61, 0x70, 0x65, 0x00,
  0x04, 0x00, 0x00, 0x00, 0x01, 0x00, 0x00, 0x00, 0x01, 0x00, 0x00, 0x00, 0xfa, 0x00, 0x00, 0x00, 0x01, 0x00, 0x00, 0x00,
  0x16, 0xda, 0xff, 0xff, 0x00, 0x00, 0x00, 0x01, 0x14, 0x00, 0x00, 0x00, 0x34, 0x00, 0x00, 0x00, 0x27, 0x00, 0x00, 0x00,
  0x00, 0x00, 0x00, 0x09, 0x88, 0x00, 0x00, 0x00, 0x02, 0xe9, 0xff, 0xff, 0x03, 0x00, 0x00, 0x00, 0x08, 0x00, 0x00, 0x00,
  0x10, 0x00, 0x00, 0x00, 0x01, 0x00, 0x00, 0x00, 0x00, 0x00, 0x00, 0x00, 0x00, 0x00, 0x00, 0x00, 0x01, 0x00, 0x00, 0x00,
  0xee, 0xa5, 0x9b, 0x3b, 0x59, 0x00, 0x00, 0x00, 0x74, 0x63, 0x6e, 0x2f, 0x74, 0x63, 0x6e, 0x2f, 0x45, 0x4e, 0x43, 0x2e,
  0x42, 0x4e, 0x2f, 0x46, 0x75, 0x73, 0x65, 0x64, 0x42, 0x61, 0x74, 0x63, 0x68, 0x4e, 0x6f, 0x72, 0x6d, 0x56, 0x33, 0x3b,
  0x74, 0x63, 0x6e, 0x2f, 0x74, 0x63, 0x6e, 0x2f, 0x45, 0x4e, 0x43, 0x2e, 0x43, 0x4e, 0x2f, 0x64, 0x65, 0x70, 0x74, 0x68,
  0x77, 0x69, 0x73, 0x65, 0x3b, 0x74, 0x63, 0x6e, 0x2f, 0x74, 0x63, 0x6e, 0x2f, 0x42, 0x31, 0x2e, 0x44, 0x31, 0x2e, 0x44,
  0x57, 0x2e, 0x42, 0x31, 0x2e, 0x43, 0x4e, 0x2f, 0x64, 0x65, 0x70, 0x74, 0x68, 0x77, 0x69, 0x73, 0x65, 0x00, 0x00, 0x00,
  0x04, 0x00, 0x00, 0x00, 0x01, 0x00, 0x00, 0x00, 0x01, 0x00, 0x00, 0x00, 0x03, 0x00, 0x00, 0x00, 0x01, 0x00, 0x00, 0x00,
  0xca, 0xda, 0xff, 0xff, 0x00, 0x00, 0x00, 0x01, 0x14, 0x00, 0x00, 0x00, 0x34, 0x00, 0x00, 0x00, 0x26, 0x00, 0x00, 0x00,
  0x00, 0x00, 0x00, 0x02, 0x4c, 0x00, 0x00, 0x00, 0xb4, 0xda, 0xff, 0xff, 0x08, 0x00, 0x00, 0x00, 0x14, 0x00, 0x00, 0x00,
  0x01, 0x00, 0x00, 0x00, 0x00, 0x00, 0x00, 0x00, 0x00, 0x00, 0x00, 0x00, 0x00, 0x00, 0x00, 0x00, 0x01, 0x00, 0x00, 0x00,
  0xb3, 0xfd, 0x6e, 0x39, 0x1f, 0x00, 0x00, 0x00, 0x74, 0x63, 0x6e, 0x2f, 0x74, 0x63, 0x6e, 0x2f, 0x45, 0x4e, 0x43, 0x2e,
  0x42, 0x4e, 0x2f, 0x46, 0x75, 0x73, 0x65, 0x64, 0x42, 0x61, 0x74, 0x63, 0x68, 0x4e, 0x6f, 0x72, 0x6d, 0x56, 0x33, 0x00,
  0x01, 0x00, 0x00, 0x00, 0x01, 0x00, 0x00, 0x00, 0x36, 0xdb, 0xff, 0xff, 0x00, 0x00, 0x00, 0x01, 0x14, 0x00, 0x00, 0x00,
  0x34, 0x00, 0x00, 0x00, 0x25, 0x00, 0x00, 0x00, 0x00, 0x00, 0x00, 0x09, 0x78, 0x00, 0x00, 0x00, 0x22, 0xea, 0xff, 0xff,
  0x03, 0x00, 0x00, 0x00, 0x08, 0x00, 0x00, 0x00, 0x10, 0x00, 0x00, 0x00, 0x01, 0x00, 0x00, 0x00, 0x00, 0x00, 0x00, 0x00,
  0x00, 0x00, 0x00, 0x00, 0x01, 0x00, 0x00, 0x00, 0x48, 0x78, 0x7b, 0x3b, 0x48, 0x00, 0x00, 0x00, 0x74, 0x63, 0x6e, 0x2f,
  0x74, 0x63, 0x6e, 0x2f, 0x42, 0x31, 0x2e, 0x44, 0x31, 0x2e, 0x44, 0x57, 0x2e, 0x42, 0x31, 0x2e, 0x42, 0x4e, 0x2f, 0x46,
  0x75, 0x73, 0x65, 0x64, 0x42, 0x61, 0x74, 0x63, 0x68, 0x4e, 0x6f, 0x72, 0x6d, 0x56, 0x33, 0x3b, 0x74, 0x63, 0x6e, 0x2f,
  0x74, 0x63, 0x6e, 0x2f, 0x42, 0x31, 0x2e, 0x44, 0x31, 0x2e, 0x44, 0x57, 0x2e, 0x42, 0x31, 0x2e, 0x43, 0x4e, 0x2f, 0x64,
  0x65, 0x70, 0x74, 0x68, 0x77, 0x69, 0x73, 0x65, 0x00, 0x00, 0x00, 0x00, 0x04, 0x00, 0x00, 0x00, 0x01, 0x00, 0x00, 0x00,
  0x01, 0x00, 0x00, 0x00, 0x03, 0x00, 0x00, 0x00, 0x01, 0x00, 0x00, 0x00, 0xda, 0xdb, 0xff, 0xff, 0x00, 0x00, 0x00, 0x01,
  0x14, 0x00, 0x00, 0x00, 0x30, 0x00, 0x00, 0x00, 0x24, 0x00, 0x00, 0x00, 0x00, 0x00, 0x00, 0x02, 0x50, 0x00, 0x00, 0x00,
  0xc4, 0xdb, 0xff, 0xff, 0x08, 0x00, 0x00, 0x00, 0x10, 0x00, 0x00, 0x00, 0x01, 0x00, 0x00, 0x00, 0x00, 0x00, 0x00, 0x00,
  0x00, 0x00, 0x00, 0x00, 0x01, 0x00, 0x00, 0x00, 0x0d, 0xea, 0x27, 0x39, 0x27, 0x00, 0x00, 0x00, 0x74, 0x63, 0x6e, 0x2f,
  0x74, 0x63, 0x6e, 0x2f, 0x42, 0x31, 0x2e, 0x44, 0x31, 0x2e, 0x44, 0x57, 0x2e, 0x42, 0x31, 0x2e, 0x42, 0x4e, 0x2f, 0x46,
  0x75, 0x73, 0x65, 0x64, 0x42, 0x61, 0x74, 0x63, 0x68, 0x4e, 0x6f, 0x72, 0x6d, 0x56, 0x33, 0x00, 0x01, 0x00, 0x00, 0x00,
  0x01, 0x00, 0x00, 0x00, 0x4a, 0xdc, 0xff, 0xff, 0x00, 0x00, 0x00, 0x01, 0x14, 0x00, 0x00, 0x00, 0x84, 0x00, 0x00, 0x00,
  0x23, 0x00, 0x00, 0x00, 0x00, 0x00, 0x00, 0x09, 0x9c, 0x00, 0x00, 0x00, 0x34, 0xdc, 0xff, 0xff, 0x08, 0x00, 0x00, 0x00,
  0x48, 0x00, 0x00, 0x00, 0x08, 0x00, 0x00, 0x00, 0x00, 0x00, 0x00, 0x00, 0x00, 0x00, 0x00, 0x00, 0x00, 0x00, 0x00, 0x00,
  0x00, 0x00, 0x00, 0x00, 0x00, 0x00, 0x00, 0x00, 0x00, 0x00, 0x00, 0x00, 0x00, 0x00, 0x00, 0x00, 0x00, 0x00, 0x00, 0x00,
  0x00, 0x00, 0x00, 0x00, 0x00, 0x00, 0x00, 0x00, 0x00, 0x00, 0x00, 0x00, 0x00, 0x00, 0x00, 0x00, 0x00, 0x00, 0x00, 0x00,
  0x00, 0x00, 0x00, 0x00, 0x00, 0x00, 0x00, 0x00, 0x00, 0x00, 0x00, 0x00, 0x08, 0x00, 0x00, 0x00, 0x7e, 0xfe, 0x59, 0x3c,
  0x16, 0xba, 0xcd, 0x3b, 0x0e, 0x45, 0xad, 0x3b, 0x47, 0xcb, 0x15, 0x3c, 0xcb, 0xb1, 0xa7, 0x3b, 0x61, 0x98, 0x7f, 0x3c,
  0x05, 0xb9, 0x95, 0x3c, 0x0d, 0x3d, 0x23, 0x3c, 0x1d, 0x00, 0x00, 0x00, 0x74, 0x63, 0x6e, 0x2f, 0x74, 0x63, 0x6e, 0x2f,
  0x42, 0x31, 0x2e, 0x44, 0x31, 0x2e, 0x50, 0x57, 0x2e, 0x42, 0x31, 0x2e, 0x43, 0x4e, 0x2f, 0x43, 0x6f, 0x6e, 0x76, 0x32,
  0x44, 0x00, 0x00, 0x00, 0x04, 0x00, 0x00, 0x00, 0x08, 0x00, 0x00, 0x00, 0x01, 0x00, 0x00, 0x00, 0x01, 0x00, 0x00, 0x00,
  0x01, 0x00, 0x00, 0x00, 0x12, 0xdd, 0xff, 0xff, 0x00, 0x00, 0x00, 0x01, 0x14, 0x00, 0x00, 0x00, 0x84, 0x00, 0x00, 0x00,
  0x22, 0x00, 0x00, 0x00, 0x00, 0x00, 0x00, 0x02, 0xa4, 0x00, 0x00, 0x00, 0xfc, 0xdc, 0xff, 0xff, 0x08, 0x00, 0x00, 0x00,
  0x48, 0x00, 0x00, 0x00, 0x08, 0x00, 0x00, 0x00, 0x00, 0x00, 0x00, 0x00, 0x00, 0x00, 0x00, 0x00, 0x00, 0x00, 0x00, 0x00,
  0x00, 0x00, 0x00, 0x00, 0x00, 0x00, 0x00, 0x00, 0x00, 0x00, 0x00, 0x00, 0x00, 0x00, 0x00, 0x00, 0x00, 0x00, 0x00, 0x00,
  0x00, 0x00, 0x00, 0x00, 0x00, 0x00, 0x00, 0x00, 0x00, 0x00, 0x00, 0x00, 0x00, 0x00, 0x00, 0x00, 0x00, 0x00, 0x00, 0x00,
  0x00, 0x00, 0x00, 0x00, 0x00, 0x00, 0x00, 0x00, 0x00, 0x00, 0x00, 0x00, 0x08, 0x00, 0x00, 0x00, 0xe2, 0xd5, 0x19, 0x39,
  0xbd, 0x2d, 0x91, 0x38, 0x57, 0x8c, 0x74, 0x38, 0x4e, 0x6a, 0xd3, 0x38, 0xf1, 0xad, 0x6c, 0x38, 0xbd, 0x5e, 0x34, 0x39,
  0x89, 0x50, 0x53, 0x39, 0xee, 0x63, 0xe6, 0x38, 0x27, 0x00, 0x00, 0x00, 0x74, 0x63, 0x6e, 0x2f, 0x74, 0x63, 0x6e, 0x2f,
  0x42, 0x31, 0x2e, 0x44, 0x31, 0x2e, 0x50, 0x57, 0x2e, 0x42, 0x31, 0x2e, 0x42, 0x4e, 0x2f, 0x46, 0x75, 0x73, 0x65, 0x64,
  0x42, 0x61, 0x74, 0x63, 0x68, 0x4e, 0x6f, 0x72, 0x6d, 0x56, 0x33, 0x00, 0x01, 0x00, 0x00, 0x00, 0x08, 0x00, 0x00, 0x00,
  0xd6, 0xdd, 0xff, 0xff, 0x00, 0x00, 0x00, 0x01, 0x14, 0x00, 0x00, 0x00, 0x8c, 0x00, 0x00, 0x00, 0x21, 0x00, 0x00, 0x00,
  0x00, 0x00, 0x00, 0x09, 0xf0, 0x00, 0x00, 0x00, 0xc2, 0xec, 0xff, 0xff, 0x03, 0x00, 0x00, 0x00, 0x08, 0x00, 0x00, 0x00,
  0x4c, 0x00, 0x00, 0x00, 0x08, 0x00, 0x00, 0x00, 0x00, 0x00, 0x00, 0x00, 0x00, 0x00, 0x00, 0x00, 0x00, 0x00, 0x00, 0x00,
  0x00, 0x00, 0x00, 0x00, 0x00, 0x00, 0x00, 0x00, 0x00, 0x00, 0x00, 0x00, 0x00, 0x00, 0x00, 0x00, 0x00, 0x00, 0x00, 0x00,
  0x00, 0x00, 0x00, 0x00, 0x00, 0x00, 0x00, 0x00, 0x00, 0x00, 0x00, 0x00, 0x00, 0x00, 0x00, 0x00, 0x00, 0x00, 0x00, 0x00,
  0x00, 0x00, 0x00, 0x00, 0x00, 0x00, 0x00, 0x00, 0x00, 0x00, 0x00, 0x00, 0x00, 0x00, 0x00, 0x00, 0x08, 0x00, 0x00, 0x00,
  0x3a, 0xcf, 0x02, 0x3d, 0xa4, 0x7c, 0x64, 0x3c, 0xb1, 0xc3, 0x8c, 0x3c, 0xdb, 0x6c, 0x8d, 0x3b, 0x95, 0x09, 0x03, 0x3c,
  0x23, 0xc4, 0x6a, 0x3c, 0x96, 0x04, 0x7c, 0x3c, 0x43, 0x73, 0x9a, 0x3c, 0x68, 0x00, 0x00, 0x00, 0x74, 0x63, 0x6e, 0x2f,
  0x74, 0x63, 0x6e, 0x2f, 0x42, 0x32, 0x2e, 0x44, 0x31, 0x2e, 0x44, 0x57, 0x2e, 0x42, 0x31, 0x2e, 0x42, 0x4e, 0x2f, 0x46,
  0x75, 0x73, 0x65, 0x64, 0x42, 0x61, 0x74, 0x63, 0x68, 0x4e, 0x6f, 0x72, 0x6d, 0x56, 0x33, 0x3b, 0x74, 0x63, 0x6e, 0x2f,
  0x74, 0x63, 0x6e, 0x2f, 0x42, 0x32, 0x2e, 0x44, 0x31, 0x2e, 0x44, 0x57, 0x2e, 0x42, 0x31, 0x2e, 0x43, 0x4e, 0x2f, 0x64,
  0x65, 0x70, 0x74, 0x68, 0x77, 0x69, 0x73, 0x65, 0x3b, 0x74, 0x63, 0x6e, 0x2f, 0x74, 0x63, 0x6e, 0x2f, 0x42, 0x33, 0x2e,
  0x44, 0x31, 0x2e, 0x53, 0x45, 0x2e, 0x73, 0x71, 0x2e, 0x63, 0x6f, 0x6e, 0x76, 0x2f, 0x43, 0x6f, 0x6e, 0x76, 0x32, 0x44,
  0x00, 0x00, 0x00, 0x00, 0x04, 0x00, 0x00, 0x00, 0x01, 0x00, 0x00, 0x00, 0x01, 0x00, 0x00, 0x00, 0x03, 0x00, 0x00, 0x00,
  0x08, 0x00, 0x00, 0x00, 0xf2, 0xde, 0xff, 0xff, 0x00, 0x00, 0x00, 0x01, 0x14, 0x00, 0x00, 0x00, 0x88, 0x00, 0x00, 0x00,
  0x20, 0x00, 0x00, 0x00, 0x00, 0x00, 0x00, 0x02, 0xa8, 0x00, 0x00, 0x00, 0xdc, 0xde, 0xff, 0xff, 0x08, 0x00, 0x00, 0x00,
  0x4c, 0x00, 0x00, 0x00, 0x08, 0x00, 0x00, 0x00, 0x00, 0x00, 0x00, 0x00, 0x00, 0x00, 0x00, 0x00, 0x00, 0x00, 0x00, 0x00,
  0x00, 0x00, 0x00, 0x00, 0x00, 0x00, 0x00, 0x00, 0x00, 0x00, 0x00, 0x00, 0x00, 0x00, 0x00, 0x00, 0x00, 0x00, 0x00, 0x00,
  0x00, 0x00, 0x00, 0x00, 0x00, 0x00, 0x00, 0x00, 0x00, 0x00, 0x00, 0x00, 0x00, 0x00, 0x00, 0x00, 0x00, 0x00, 0x00, 0x00,
  0x00, 0x00, 0x00, 0x00, 0x00, 0x00, 0x00, 0x00, 0x00, 0x00, 0x00, 0x00, 0x00, 0x00, 0x00, 0x00, 0x08, 0x00, 0x00, 0x00,
  0xb0, 0x68, 0x09, 0x3a, 0xa6, 0x03, 0x70, 0x39, 0xba, 0xdd, 0x93, 0x39, 0x6c, 0x8f, 0x94, 0x38, 0xfd, 0xa5, 0x09, 0x39,
  0x3e, 0x9c, 0x76, 0x39, 0xc1, 0x5d, 0x84, 0x39, 0x0e, 0x3e, 0xa2, 0x39, 0x27, 0x00, 0x00, 0x00, 0x74, 0x63, 0x6e, 0x2f,
  0x74, 0x63, 0x6e, 0x2f, 0x42, 0x32, 0x2e, 0x44, 0x31, 0x2e, 0x44, 0x57, 0x2e, 0x42, 0x31, 0x2e, 0x42, 0x4e, 0x2f, 0x46,
  0x75, 0x73, 0x65, 0x64, 0x42, 0x61, 0x74, 0x63, 0x68, 0x4e, 0x6f, 0x72, 0x6d, 0x56, 0x33, 0x00, 0x01, 0x00, 0x00, 0x00,
  0x08, 0x00, 0x00, 0x00, 0xba, 0xdf, 0xff, 0xff, 0x00, 0x00, 0x00, 0x01, 0x14, 0x00, 0x00, 0x00, 0x54, 0x00, 0x00, 0x00,
  0x1f, 0x00, 0x00, 0x00, 0x00, 0x00, 0x00, 0x09, 0x6c, 0x00, 0x00, 0x00, 0xa4, 0xdf, 0xff, 0xff, 0x08, 0x00, 0x00, 0x00,
  0x28, 0x00, 0x00, 0x00, 0x04, 0x00, 0x00, 0x00, 0x00, 0x00, 0x00, 0x00, 0x00, 0x00, 0x00, 0x00, 0x00, 0x00, 0x00, 0x00,
  0x00, 0x00, 0x00, 0x00, 0x00, 0x00, 0x00, 0x00, 0x00, 0x00, 0x00, 0x00, 0x00, 0x00, 0x00, 0x00, 0x00, 0x00, 0x00, 0x00,
  0x04, 0x00, 0x00, 0x00, 0xa0, 0x80, 0x8d, 0x3b, 0x90, 0xc2, 0x20, 0x3c, 0xc5, 0xae, 0xbd, 0x3b, 0x36, 0x68, 0xac, 0x3b,
  0x1f, 0x00, 0x00, 0x00, 0x74, 0x63, 0x6e, 0x2f, 0x74, 0x63, 0x6e, 0x2f, 0x42, 0x32, 0x2e, 0x44, 0x31, 0x2e, 0x53, 0x45,
  0x2e, 0x73, 0x71, 0x2e, 0x63, 0x6f, 0x6e, 0x76, 0x2f, 0x43, 0x6f, 0x6e, 0x76, 0x32, 0x44, 0x00, 0x04, 0x00, 0x00, 0x00,
  0x04, 0x00, 0x00, 0x00, 0x01, 0x00, 0x00, 0x00, 0x01, 0x00, 0x00, 0x00, 0x08, 0x00, 0x00, 0x00, 0x52, 0xe0, 0xff, 0xff,
  0x00, 0x00, 0x00, 0x01, 0x14, 0x00, 0x00, 0x00, 0x58, 0x00, 0x00, 0x00, 0x1e, 0x00, 0x00, 0x00, 0x00, 0x00, 0x00, 0x02,
  0x80, 0x00, 0x00, 0x00, 0x3c, 0xe0, 0xff, 0xff, 0x08, 0x00, 0x00, 0x00, 0x2c, 0x00, 0x00, 0x00, 0x04, 0x00, 0x00, 0x00,
  0x00, 0x00, 0x00, 0x00, 0x00, 0x00, 0x00, 0x00, 0x00, 0x00, 0x00, 0x00, 0x00, 0x00, 0x00, 0x00, 0x00, 0x00, 0x00, 0x00,
  0x00, 0x00, 0x00, 0x00, 0x00, 0x00, 0x00, 0x00, 0x00, 0x00, 0x00, 0x00, 0x00, 0x00, 0x00, 0x00, 0x04, 0x00, 0x00, 0x00,
  0x3c, 0x0b, 0x20, 0x37, 0x28, 0xd3, 0xb5, 0x37, 0x8e, 0x89, 0x56, 0x37, 0x80, 0xff, 0x42, 0x37, 0x2f, 0x00, 0x00, 0x00,
  0x74, 0x63, 0x6e, 0x2f, 0x74, 0x63, 0x6e, 0x2f, 0x42, 0x32, 0x2e, 0x44, 0x31, 0x2e, 0x53, 0x45, 0x2e, 0x73, 0x71, 0x2e,
  0x63, 0x6f, 0x6e, 0x76, 0x2f, 0x42, 0x69, 0x61, 0x73, 0x41, 0x64, 0x64, 0x2f, 0x52, 0x65, 0x61, 0x64, 0x56, 0x61, 0x72,
  0x69, 0x61, 0x62, 0x6c, 0x65, 0x4f, 0x70, 0x00, 0x01, 0x00, 0x00, 0x00, 0x04, 0x00, 0x00, 0x00, 0xf2, 0xe0, 0xff, 0xff,
  0x00, 0x00, 0x00, 0x01, 0x14, 0x00, 0x00, 0x00, 0x84, 0x00, 0x00, 0x00, 0x1d, 0x00, 0x00, 0x00, 0x00, 0x00, 0x00, 0x09,
  0x9c, 0x00, 0x00, 0x00, 0xdc, 0xe0, 0xff, 0xff, 0x08, 0x00, 0x00, 0x00, 0x48, 0x00, 0x00, 0x00, 0x08, 0x00, 0x00, 0x00,
  0x00, 0x00, 0x00, 0x00, 0x00, 0x00, 0x00, 0x00, 0x00, 0x00, 0x00, 0x00, 0x00, 0x00, 0x00, 0x00, 0x00, 0x00, 0x00, 0x00,
  0x00, 0x00, 0x00, 0x00, 0x00, 0x00, 0x00, 0x00, 0x00, 0x00, 0x00, 0x00, 0x00, 0x00, 0x00, 0x00, 0x00, 0x00, 0x00, 0x00,
  0x00, 0x00, 0x00, 0x00, 0x00, 0x00, 0x00, 0x00, 0x00, 0x00, 0x00, 0x00, 0x00, 0x00, 0x00, 0x00, 0x00, 0x00, 0x00, 0x00,
  0x00, 0x00, 0x00, 0x00, 0x08, 0x00, 0x00, 0x00, 0x0c, 0x5d, 0x15, 0x3b, 0x6c, 0xbe, 0xf6, 0x3a, 0x6c, 0xea, 0x23, 0x3b,
  0xf0, 0x4f, 0xcf, 0x3a, 0xfc, 0xaf, 0x02, 0x3b, 0x4a, 0x2f, 0x0c, 0x3b, 0x89, 0x7e, 0x25, 0x3a, 0xfd, 0x99, 0xb1, 0x3a,
  0x1f, 0x00, 0x00, 0x00, 0x74, 0x63, 0x6e, 0x2f, 0x74, 0x63, 0x6e, 0x2f, 0x42, 0x32, 0x2e, 0x44, 0x31, 0x2e, 0x53, 0x45,
  0x2e, 0x65, 0x78, 0x2e, 0x63, 0x6f, 0x6e, 0x76, 0x2f, 0x43, 0x6f, 0x6e, 0x76, 0x32, 0x44, 0x00, 0x04, 0x00, 0x00, 0x00,
  0x08, 0x00, 0x00, 0x00, 0x01, 0x00, 0x00, 0x00, 0x01, 0x00, 0x00, 0x00, 0x04, 0x00, 0x00, 0x00, 0xba, 0xe1, 0xff, 0xff,
  0x00, 0x00, 0x00, 0x01, 0x14, 0x00, 0x00, 0x00, 0x88, 0x00, 0x00, 0x00, 0x1c, 0x00, 0x00, 0x00, 0x00, 0x00, 0x00, 0x02,
  0x48, 0x01, 0x00, 0x00, 0xa4, 0xe1, 0xff, 0xff, 0x08, 0x00, 0x00, 0x00, 0x4c, 0x00, 0x00, 0x00, 0x08, 0x00, 0x00, 0x00,
  0x00, 0x00, 0x00, 0x00, 0x00, 0x00, 0x00, 0x00, 0x00, 0x00, 0x00, 0x00, 0x00, 0x00, 0x00, 0x00, 0x00, 0x00, 0x00, 0x00,
  0x00, 0x00, 0x00, 0x00, 0x00, 0x00, 0x00, 0x00, 0x00, 0x00, 0x00, 0x00, 0x00, 0x00, 0x00, 0x00, 0x00, 0x00, 0x00, 0x00,
  0x00, 0x00, 0x00, 0x00, 0x00, 0x00, 0x00, 0x00, 0x00, 0x00, 0x00, 0x00, 0x00, 0x00, 0x00, 0x00, 0x00, 0x00, 0x00, 0x00,
  0x00, 0x00, 0x00, 0x00, 0x00, 0x00, 0x00, 0x00, 0x08, 0x00, 0x00, 0x00, 0x5b, 0x9d, 0x8c, 0x36, 0x85, 0x4a, 0x68, 0x36,
  0x85, 0x50, 0x9a, 0x36, 0x4f, 0x2b, 0x43, 0x36, 0xac, 0x10, 0x76, 0x36, 0x3b, 0xf9, 0x83, 0x36, 0xf6, 0xcc, 0x9b, 0x35,
  0xde, 0x32, 0x27, 0x36, 0xc6, 0x00, 0x00, 0x00, 0x74, 0x63, 0x6e, 0x2f, 0x74, 0x63, 0x6e, 0x2f, 0x42, 0x32, 0x2e, 0x44,
  0x31, 0x2e, 0x53, 0x45, 0x2e, 0x65, 0x78, 0x2e, 0x61, 0x63, 0x74, 0x2f, 0x41, 0x64, 0x64, 0x3b, 0x74, 0x63, 0x6e, 0x2f,
  0x74, 0x63, 0x6e, 0x2f, 0x42, 0x32, 0x2e, 0x44, 0x31, 0x2e, 0x53, 0x45, 0x2e, 0x65, 0x78, 0x2e, 0x61, 0x63, 0x74, 0x2f,
  0x4d, 0x75, 0x6c, 0x3b, 0x74, 0x63, 0x6e, 0x2f, 0x74, 0x63, 0x6e, 0x2f, 0x42, 0x32, 0x2e, 0x44, 0x31, 0x2e, 0x53, 0x45,
  0x2e, 0x65, 0x78, 0x2e, 0x63, 0x6f, 0x6e, 0x76, 0x2f, 0x42, 0x69, 0x61, 0x73, 0x41, 0x64, 0x64, 0x2f, 0x52, 0x65, 0x61,
  0x64, 0x56, 0x61, 0x72, 0x69, 0x61, 0x62, 0x6c, 0x65, 0x4f, 0x70, 0x3b, 0x74, 0x63, 0x6e, 0x2f, 0x74, 0x63, 0x6e, 0x2f,
  0x42, 0x32, 0x2e, 0x44, 0x31, 0x2e, 0x53, 0x45, 0x2e, 0x65, 0x78, 0x2e, 0x63, 0x6f, 0x6e, 0x76, 0x2f, 0x42, 0x69, 0x61,
  0x73, 0x41, 0x64, 0x64, 0x3b, 0x74, 0x63, 0x6e, 0x2f, 0x74, 0x63, 0x6e, 0x2f, 0x42, 0x32, 0x2e, 0x44, 0x31, 0x2e, 0x53,
  0x45, 0x2e, 0x65, 0x78, 0x2e, 0x61, 0x63, 0x74, 0x2f, 0x43, 0x6f, 0x6e, 0x73, 0x74, 0x3b, 0x74, 0x63, 0x6e, 0x2f, 0x74,
  0x63, 0x6e, 0x2f, 0x42, 0x32, 0x2e, 0x44, 0x31, 0x2e, 0x53, 0x45, 0x2e, 0x65, 0x78, 0x2e, 0x61, 0x63, 0x74, 0x2f, 0x43,
  0x6f, 0x6e, 0x73, 0x74, 0x5f, 0x31, 0x00, 0x00, 0x01, 0x00, 0x00, 0x00, 0x08, 0x00, 0x00, 0x00, 0x22, 0xe3, 0xff, 0xff,
  0x00, 0x00, 0x00, 0x01, 0x14, 0x00, 0x00, 0x00, 0x30, 0x00, 0x00, 0x00, 0x19, 0x00, 0x00, 0x00, 0x00, 0x00, 0x00, 0x09,
  0x5c, 0x00, 0x00, 0x00, 0x0c, 0xe3, 0xff, 0xff, 0x08, 0x00, 0x00, 0x00, 0x10, 0x00, 0x00, 0x00, 0x01, 0x00, 0x00, 0x00,
  0xee, 0xff, 0xff, 0xff, 0xff, 0xff, 0xff, 0xff, 0x01, 0x00, 0x00, 0x00, 0x7f, 0xa5, 0xe2, 0x3b, 0x30, 0x00, 0x00, 0x00,
  0x74, 0x63, 0x6e, 0x2f, 0x74, 0x63, 0x6e, 0x2f, 0x42, 0x32, 0x2e, 0x44, 0x31, 0x2e, 0x53, 0x45, 0x2e, 0x65, 0x78, 0x2e,
  0x61, 0x63, 0x74, 0x2f, 0x63, 0x6c, 0x69, 0x70, 0x5f, 0x62, 0x79, 0x5f, 0x76, 0x61, 0x6c, 0x75, 0x65, 0x2f, 0x4d, 0x69,
  0x6e, 0x69, 0x6d, 0x75, 0x6d, 0x2f, 0x79, 0x32, 0x00, 0x00, 0x00, 0x00, 0x00, 0x00, 0x00, 0x00, 0x9a, 0xe3, 0xff, 0xff,
  0x00, 0x00, 0x00, 0x01, 0x14, 0x00, 0x00, 0x00, 0x30, 0x00, 0x00, 0x00, 0x19, 0x00, 0x00, 0x00, 0x00, 0x00, 0x00, 0x09,
  0x5c, 0x00, 0x00, 0x00, 0x84, 0xe3, 0xff, 0xff, 0x08, 0x00, 0x00, 0x00, 0x10, 0x00, 0x00, 0x00, 0x01, 0x00, 0x00, 0x00,
  0x80, 0xff, 0xff, 0xff, 0xff, 0xff, 0xff, 0xff, 0x01, 0x00, 0x00, 0x00, 0xd3, 0x62, 0x5b, 0x3b, 0x30, 0x00, 0x00, 0x00,
  0x74, 0x63, 0x6e, 0x2f, 0x74, 0x63, 0x6e, 0x2f, 0x42, 0x32, 0x2e, 0x44, 0x31, 0x2e, 0x53, 0x45, 0x2e, 0x65, 0x78, 0x2e,
  0x61, 0x63, 0x74, 0x2f, 0x63, 0x6c, 0x69, 0x70, 0x5f, 0x62, 0x79, 0x5f, 0x76, 0x61, 0x6c, 0x75, 0x65, 0x2f, 0x4d, 0x69,
  0x6e, 0x69, 0x6d, 0x75, 0x6d, 0x2f, 0x79, 0x31, 0x00, 0x00, 0x00, 0x00, 0x00, 0x00, 0x00, 0x00, 0x12, 0xe4, 0xff, 0xff,
  0x00, 0x00, 0x00, 0x01, 0x14, 0x00, 0x00, 0x00, 0x34, 0x00, 0x00, 0x00, 0x19, 0x00, 0x00, 0x00, 0x00, 0x00, 0x00, 0x09,
  0x5c, 0x00, 0x00, 0x00, 0xfc, 0xe3, 0xff, 0xff, 0x08, 0x00, 0x00, 0x00, 0x14, 0x00, 0x00, 0x00, 0x01, 0x00, 0x00, 0x00,
  0x80, 0xff, 0xff, 0xff, 0xff, 0xff, 0xff, 0xff, 0x00, 0x00, 0x00, 0x00, 0x01, 0x00, 0x00, 0x00, 0x44, 0x94, 0x2c, 0x3b,
  0x2f, 0x00, 0x00, 0x00, 0x74, 0x63, 0x6e, 0x2f, 0x74, 0x63, 0x6e, 0x2f, 0x42, 0x32, 0x2e, 0x44, 0x31, 0x2e, 0x53, 0x45,
  0x2e, 0x65, 0x78, 0x2e, 0x61, 0x63, 0x74, 0x2f, 0x63, 0x6c, 0x69, 0x70, 0x5f, 0x62, 0x79, 0x5f, 0x76, 0x61, 0x6c, 0x75,
  0x65, 0x2f, 0x4d, 0x69, 0x6e, 0x69, 0x6d, 0x75, 0x6d, 0x2f, 0x79, 0x00, 0x00, 0x00, 0x00, 0x00, 0x8a, 0xe4, 0xff, 0xff,
  0x00, 0x00, 0x00, 0x01, 0x14, 0x00, 0x00, 0x00, 0xe4, 0x00, 0x00, 0x00, 0x18, 0x00, 0x00, 0x00, 0x00, 0x00, 0x00, 0x09,
  0xfc, 0x00, 0x00, 0x00, 0x74, 0xe4, 0xff, 0xff, 0x08, 0x00, 0x00, 0x00, 0x88, 0x00, 0x00, 0x00, 0x10, 0x00, 0x00, 0x00,
  0x00, 0x00, 0x00, 0x00, 0x00, 0x00, 0x00, 0x00, 0x00, 0x00, 0x00, 0x00, 0x00, 0x00, 0x00, 0x00, 0x00, 0x00, 0x00, 0x00,
  0x00, 0x00, 0x00, 0x00, 0x00, 0x00, 0x00, 0x00, 0x00, 0x00, 0x00, 0x00, 0x00, 0x00, 0x00, 0x00, 0x00, 0x00, 0x00, 0x00,
  0x00, 0x00, 0x00, 0x00, 0x00, 0x00, 0x00, 0x00, 0x00, 0x00, 0x00, 0x00, 0x00, 0x00, 0x00, 0x00, 0x00, 0x00, 0x00, 0x00,
  0x00, 0x00, 0x00, 0x00, 0x00, 0x00, 0x00, 0x00, 0x00, 0x00, 0x00, 0x00, 0x00, 0x00, 0x00, 0x00, 0x00, 0x00, 0x00, 0x00,
  0x00, 0x00, 0x00, 0x00, 0x00, 0x00, 0x00, 0x00, 0x00, 0x00, 0x00, 0x00, 0x00, 0x00, 0x00, 0x00, 0x00, 0x00, 0x00, 0x00,
  0x00, 0x00, 0x00, 0x00, 0x00, 0x00, 0x00, 0x00, 0x00, 0x00, 0x00, 0x00, 0x00, 0x00, 0x00, 0x00, 0x00, 0x00, 0x00, 0x00,
  0x00, 0x00, 0x00, 0x00, 0x00, 0x00, 0x00, 0x00, 0x10, 0x00, 0x00, 0x00, 0x2d, 0x90, 0x34, 0x3c, 0x14, 0xf6, 0x2b, 0x3c,
  0xd9, 0x2a, 0xe7, 0x3b, 0xdb, 0xd2, 0x13, 0x3c, 0x4c, 0xf5, 0xd4, 0x34, 0x3c, 0xd2, 0x3c, 0x3c, 0xda, 0xd3, 0x0d, 0x3c,
  0xc5, 0x59, 0xe8, 0x3b, 0xa7, 0x80, 0x02, 0x3c, 0x3d, 0x19, 0x02, 0x3c, 0xad, 0x9e, 0xeb, 0x3b, 0x9f, 0x72, 0x14, 0x3c,
  0xd0, 0xb9, 0x43, 0x3c, 0x1b, 0xfb, 0x20, 0x3c, 0xb5, 0xe9, 0x1c, 0x3c, 0xcc, 0x23, 0xe5, 0x3b, 0x1d, 0x00, 0x00, 0x00,
  0x74, 0x63, 0x6e, 0x2f, 0x74, 0x63, 0x6e, 0x2f, 0x42, 0x32, 0x2e, 0x44, 0x31, 0x2e, 0x50, 0x57, 0x2e, 0x42, 0x31, 0x2e,
  0x43, 0x4e, 0x2f, 0x43, 0x6f, 0x6e, 0x76, 0x32, 0x44, 0x00, 0x00, 0x00, 0x04, 0x00, 0x00, 0x00, 0x10, 0x00, 0x00, 0x00,
  0x01, 0x00, 0x00, 0x00, 0x01, 0x00, 0x00, 0x00, 0x08, 0x00, 0x00, 0x00, 0xb2, 0xe5, 0xff, 0xff, 0x00, 0x00, 0x00, 0x01,
  0x14, 0x00, 0x00, 0x00, 0xe4, 0x00, 0x00, 0x00, 0x17, 0x00, 0x00, 0x00, 0x00, 0x00, 0x00, 0x02, 0x04, 0x01, 0x00, 0x00,
  0x9c, 0xe5, 0xff, 0xff, 0x08, 0x00, 0x00, 0x00, 0x88, 0x00, 0x00, 0x00, 0x10, 0x00, 0x00, 0x00, 0x00, 0x00, 0x00, 0x00,
  0x00, 0x00, 0x00, 0x00, 0x00, 0x00, 0x00, 0x00, 0x00, 0x00, 0x00, 0x00, 0x00, 0x00, 0x00, 0x00, 0x00, 0x00, 0x00, 0x00,
  0x00, 0x00, 0x00, 0x00, 0x00, 0x00, 0x00, 0x00, 0x00, 0x00, 0x00, 0x00, 0x00, 0x00, 0x00, 0x00, 0x00, 0x00, 0x00, 0x00,
  0x00, 0x00, 0x00, 0x00, 0x00, 0x00, 0x00, 0x00, 0x00, 0x00, 0x00, 0x00, 0x00, 0x00, 0x00, 0x00, 0x00, 0x00, 0x00, 0x00,
  0x00, 0x00, 0x00, 0x00, 0x00, 0x00, 0x00, 0x00, 0x00, 0x00, 0x00, 0x00, 0x00, 0x00, 0x00, 0x00, 0x00, 0x00, 0x00, 0x00,
  0x00, 0x00, 0x00, 0x00, 0x00, 0x00, 0x00, 0x00, 0x00, 0x00, 0x00, 0x00, 0x00, 0x00, 0x00, 0x00, 0x00, 0x00, 0x00, 0x00,
  0x00, 0x00, 0x00, 0x00, 0x00, 0x00, 0x00, 0x00, 0x00, 0x00, 0x00, 0x00, 0x00, 0x00, 0x00, 0x00, 0x00, 0x00, 0x00, 0x00,
  0x00, 0x00, 0x00, 0x00, 0x10, 0x00, 0x00, 0x00, 0x4b, 0xf7, 0x2e, 0x39, 0x75, 0xa1, 0x26, 0x39, 0x64, 0x00, 0xe0, 0x38,
  0xc8, 0x3d, 0x0f, 0x39, 0x57, 0x5b, 0xce, 0x31, 0xd2, 0xf7, 0x36, 0x39, 0x5d, 0x6e, 0x09, 0x39, 0xec, 0x25, 0xe1, 0x38,
  0x11, 0xea, 0xfc, 0x38, 0xa6, 0x21, 0xfc, 0x38, 0xe3, 0x50, 0xe4, 0x38, 0x99, 0xd8, 0x0f, 0x39, 0x9b, 0xa8, 0x3d, 0x39,
  0x9f, 0xfd, 0x1b, 0x39, 0x81, 0x0c, 0x18, 0x39, 0x6e, 0x09, 0xde, 0x38, 0x27, 0x00, 0x00, 0x00, 0x74, 0x63, 0x6e, 0x2f,
  0x74, 0x63, 0x6e, 0x2f, 0x42, 0x32, 0x2e, 0x44, 0x31, 0x2e, 0x50, 0x57, 0x2e, 0x42, 0x31, 0x2e, 0x42, 0x4e, 0x2f, 0x46,
  0x75, 0x73, 0x65, 0x64, 0x42, 0x61, 0x74, 0x63, 0x68, 0x4e, 0x6f, 0x72, 0x6d, 0x56, 0x33, 0x00, 0x01, 0x00, 0x00, 0x00,
  0x10, 0x00, 0x00, 0x00, 0xd6, 0xe6, 0xff, 0xff, 0x00, 0x00, 0x00, 0x01, 0x14, 0x00, 0x00, 0x00, 0xec, 0x00, 0x00, 0x00,
  0x16, 0x00, 0x00, 0x00, 0x00, 0x00, 0x00, 0x09, 0x50, 0x01, 0x00, 0x00, 0xc2, 0xf5, 0xff, 0xff, 0x03, 0x00, 0x00, 0x00,
  0x08, 0x00, 0x00, 0x00, 0x8c, 0x00, 0x00, 0x00, 0x10, 0x00, 0x00, 0x00, 0x00, 0x00, 0x00, 0x00, 0x00, 0x00, 0x00, 0x00,
  0x00, 0x00, 0x00, 0x00, 0x00, 0x00, 0x00, 0x00, 0x00, 0x00, 0x00, 0x00, 0x00, 0x00, 0x00, 0x00, 0x00, 0x00, 0x00, 0x00,
  0x00, 0x00, 0x00, 0x00, 0x00, 0x00, 0x00, 0x00, 0x00, 0x00, 0x00, 0x00, 0x00, 0x00, 0x00, 0x00, 0x00, 0x00, 0x00, 0x00,
  0x00, 0x00, 0x00, 0x00, 0x00, 0x00, 0x00, 0x00, 0x00, 0x00, 0x00, 0x00, 0x00, 0x00, 0x00, 0x00, 0x00, 0x00, 0x00, 0x00,
  0x00, 0x00, 0x00, 0x00, 0x00, 0x00, 0x00, 0x00, 0x00, 0x00, 0x00, 0x00, 0x00, 0x00, 0x00, 0x00, 0x00, 0x00, 0x00, 0x00,
  0x00, 0x00, 0x00, 0x00, 0x00, 0x00, 0x00, 0x00, 0x00, 0x00, 0x00, 0x00, 0x00, 0x00, 0x00, 0x00, 0x00, 0x00, 0x00, 0x00,
  0x00, 0x00, 0x00, 0x00, 0x00, 0x00, 0x00, 0x00, 0x00, 0x00, 0x00, 0x00, 0x00, 0x00, 0x00, 0x00, 0x00, 0x00, 0x00, 0x00,
  0x00, 0x00, 0x00, 0x00, 0x10, 0x00, 0x00, 0x00, 0xd1, 0x1c, 0x53, 0x3c, 0x23, 0x54, 0x26, 0x3c, 0x41, 0x66, 0x4c, 0x3c,
  0x79, 0x94, 0x48, 0x3c, 0x0a, 0x51, 0x94, 0x34, 0x01, 0x79, 0x54, 0x3c, 0x9e, 0x82, 0x62, 0x3c, 0x3f, 0x2a, 0x21, 0x3c,
  0x67, 0x17, 0x32, 0x3c, 0xc9, 0x5a, 0x63, 0x3c, 0x86, 0xa4, 0x04, 0x3c, 0xdb, 0x33, 0x1b, 0x3c, 0xab, 0x9f, 0x60, 0x3c,
  0x96, 0x34, 0x18, 0x3c, 0xc9, 0x64, 0x1a, 0x3c, 0xb3, 0x6d, 0x17, 0x3c, 0x68, 0x00, 0x00, 0x00, 0x74, 0x63, 0x6e, 0x2f,
  0x74, 0x63, 0x6e, 0x2f, 0x42, 0x33, 0x2e, 0x44, 0x31, 0x2e, 0x44, 0x57, 0x2e, 0x42, 0x31, 0x2e, 0x42, 0x4e, 0x2f, 0x46,
  0x75, 0x73, 0x65, 0x64, 0x42, 0x61, 0x74, 0x63, 0x68, 0x4e, 0x6f, 0x72, 0x6d, 0x56, 0x33, 0x3b, 0x74, 0x63, 0x6e, 0x2f,
  0x74, 0x63, 0x6e, 0x2f, 0x42, 0x33, 0x2e, 0x44, 0x31, 0x2e, 0x44, 0x57, 0x2e, 0x42, 0x31, 0x2e, 0x43, 0x4e, 0x2f, 0x64,
  0x65, 0x70, 0x74, 0x68, 0x77, 0x69, 0x73, 0x65, 0x3b, 0x74, 0x63, 0x6e, 0x2f, 0x74, 0x63, 0x6e, 0x2f, 0x42, 0x33, 0x2e,
  0x44, 0x31, 0x2e, 0x53, 0x45, 0x2e, 0x65, 0x78, 0x2e, 0x63, 0x6f, 0x6e, 0x76, 0x2f, 0x43, 0x6f, 0x6e, 0x76, 0x32, 0x44,
  0x00, 0x00, 0x00, 0x00, 0x04, 0x00, 0x00, 0x00, 0x01, 0x00, 0x00, 0x00, 0x01, 0x00, 0x00, 0x00, 0x03, 0x00, 0x00, 0x00,
  0x10, 0x00, 0x00, 0x00, 0x52, 0xe8, 0xff, 0xff, 0x00, 0x00, 0x00, 0x01, 0x14, 0x00, 0x00, 0x00, 0xe8, 0x00, 0x00, 0x00,
  0x15, 0x00, 0x00, 0x00, 0x00, 0x00, 0x00, 0x02, 0x08, 0x01, 0x00, 0x00, 0x3c, 0xe8, 0xff, 0xff, 0x08, 0x00, 0x00, 0x00,
  0x8c, 0x00, 0x00, 0x00, 0x10, 0x00, 0x00, 0x00, 0x00, 0x00, 0x00, 0x00, 0x00, 0x00, 0x00, 0x00, 0x00, 0x00, 0x00, 0x00,
  0x00, 0x00, 0x00, 0x00, 0x00, 0x00, 0x00, 0x00, 0x00, 0x00, 0x00, 0x00, 0x00, 0x00, 0x00, 0x00, 0x00, 0x00, 0x00, 0x00,
  0x00, 0x00, 0x00, 0x00, 0x00, 0x00, 0x00, 0x00, 0x00, 0x00, 0x00, 0x00, 0x00, 0x00, 0x00, 0x00, 0x00, 0x00, 0x00, 0x00,
  0x00, 0x00, 0x00, 0x00, 0x00, 0x00, 0x00, 0x00, 0x00, 0x00, 0x00, 0x00, 0x00, 0x00, 0x00, 0x00, 0x00, 0x00, 0x00, 0x00,
  0x00, 0x00, 0x00, 0x00, 0x00, 0x00, 0x00, 0x00, 0x00, 0x00, 0x00, 0x00, 0x00, 0x00, 0x00, 0x00, 0x00, 0x00, 0x00, 0x00,
  0x00, 0x00, 0x00, 0x00, 0x00, 0x00, 0x00, 0x00, 0x00, 0x00, 0x00, 0x00, 0x00, 0x00, 0x00, 0x00, 0x00, 0x00, 0x00, 0x00,
  0x00, 0x00, 0x00, 0x00, 0x00, 0x00, 0x00, 0x00, 0x00, 0x00, 0x00, 0x00, 0x00, 0x00, 0x00, 0x00, 0x00, 0x00, 0x00, 0x00,
  0x10, 0x00, 0x00, 0x00, 0x0a, 0x08, 0x5b, 0x39, 0x52, 0x91, 0x2c, 0x39, 0x03, 0x11, 0x54, 0x39, 0x8e, 0x1a, 0x50, 0x39,
  0x42, 0xe1, 0x99, 0x31, 0x4a, 0x71, 0x5c, 0x39, 0xb3, 0x01, 0x6b, 0x39, 0xd8, 0x35, 0x27, 0x39, 0x8a, 0xc5, 0x38, 0x39,
  0xf9, 0xe1, 0x6b, 0x39, 0x3c, 0x9e, 0x09, 0x39, 0x33, 0x06, 0x21, 0x39, 0xa2, 0x0c, 0x69, 0x39, 0x26, 0xea, 0x1d, 0x39,
  0x5c, 0x2f, 0x20, 0x39, 0xcd, 0x1b, 0x1d, 0x39, 0x27, 0x00, 0x00, 0x00, 0x74, 0x63, 0x6e, 0x2f, 0x74, 0x63, 0x6e, 0x2f,
  0x42, 0x33, 0x2e, 0x44, 0x31, 0x2e, 0x44, 0x57, 0x2e, 0x42, 0x31, 0x2e, 0x42, 0x4e, 0x2f, 0x46, 0x75, 0x73, 0x65, 0x64,
