#ifndef __ECG_SEGMENTATION_FLATBUFFER_H
#define __ECG_SEGMENTATION_FLATBUFFER_H
const unsigned char ecg_segmentation_flatbuffer[] = {
  0x20, 0x00, 0x00, 0x00, 0x54, 0x46, 0x4c, 0x33, 0x00, 0x00, 0x00, 0x00, 0x14, 0x00, 0x20, 0x00, 0x1c, 0x00, 0x18, 0x00,
  0x14, 0x00, 0x10, 0x00, 0x0c, 0x00, 0x00, 0x00, 0x08, 0x00, 0x04, 0x00, 0x14, 0x00, 0x00, 0x00, 0x1c, 0x00, 0x00, 0x00,
  0x84, 0x00, 0x00, 0x00, 0xdc, 0x00, 0x00, 0x00, 0xc4, 0x20, 0x00, 0x00, 0xd4, 0x20, 0x00, 0x00, 0x68, 0x6e, 0x00, 0x00,
  0x03, 0x00, 0x00, 0x00, 0x01, 0x00, 0x00, 0x00, 0x04, 0x00, 0x00, 0x00, 0x06, 0xda, 0xff, 0xff, 0x0c, 0x00, 0x00, 0x00,
  0x1c, 0x00, 0x00, 0x00, 0x3c, 0x00, 0x00, 0x00, 0x0f, 0x00, 0x00, 0x00, 0x73, 0x65, 0x72, 0x76, 0x69, 0x6e, 0x67, 0x5f,
  0x64, 0x65, 0x66, 0x61, 0x75, 0x6c, 0x74, 0x00, 0x01, 0x00, 0x00, 0x00, 0x04, 0x00, 0x00, 0x00, 0x98, 0xff, 0xff, 0xff,
  0x45, 0x00, 0x00, 0x00, 0x04, 0x00, 0x00, 0x00, 0x08, 0x00, 0x00, 0x00, 0x6f, 0x75, 0x74, 0x70, 0x75, 0x74, 0x5f, 0x30,
  0x00, 0x00, 0x00, 0x00, 0x01, 0x00, 0x00, 0x00, 0x04, 0x00, 0x00, 0x00, 0xba, 0xde, 0xff, 0xff, 0x04, 0x00, 0x00, 0x00,
  0x06, 0x00, 0x00, 0x00, 0x61, 0x72, 0x67, 0x73, 0x5f, 0x30, 0x00, 0x00, 0x02, 0x00, 0x00, 0x00, 0x34, 0x00, 0x00, 0x00,
  0x04, 0x00, 0x00, 0x00, 0xdc, 0xff, 0xff, 0xff, 0x48, 0x00, 0x00, 0x00, 0x04, 0x00, 0x00, 0x00, 0x13, 0x00, 0x00, 0x00,
  0x43, 0x4f, 0x4e, 0x56, 0x45, 0x52, 0x53, 0x49, 0x4f, 0x4e, 0x5f, 0x4d, 0x45, 0x54, 0x41, 0x44, 0x41, 0x54, 0x41, 0x00,
  0x08, 0x00, 0x0c, 0x00, 0x08, 0x00, 0x04, 0x00, 0x08, 0x00, 0x00, 0x00, 0x47, 0x00, 0x00, 0x00, 0x04, 0x00, 0x00, 0x00,
  0x13, 0x00, 0x00, 0x00, 0x6d, 0x69, 0x6e, 0x5f, 0x72, 0x75, 0x6e, 0x74, 0x69, 0x6d, 0x65, 0x5f, 0x76, 0x65, 0x72, 0x73,
  0x69, 0x6f, 0x6e, 0x00, 0x49, 0x00, 0x00, 0x00, 0xe4, 0x1f, 0x00, 0x00, 0xdc, 0x1f, 0x00, 0x00, 0xbc, 0x1f, 0x00, 0x00,
  0xa4, 0x1f, 0x00, 0x00, 0x88, 0x1f, 0x00, 0x00, 0x68, 0x1f, 0x00, 0x00, 0xf8, 0x1a, 0x00, 0x00, 0x48, 0x1a, 0x00, 0x00,
  0x38, 0x15, 0x00, 0x00, 0xa8, 0x14, 0x00, 0x00, 0x98, 0x12, 0x00, 0x00, 0x48, 0x12, 0x00, 0x00, 0x38, 0x10, 0x00, 0x00,
  0xa8, 0x0f, 0x00, 0x00, 0xb8, 0x0e, 0x00, 0x00, 0x28, 0x0e, 0x00, 0x00, 0x18, 0x0b, 0x00, 0x00, 0xa8, 0x0a, 0x00, 0x00,
  0x78, 0x09, 0x00, 0x00, 0x38, 0x09, 0x00, 0x00, 0x08, 0x08, 0x00, 0x00, 0x98, 0x07, 0x00, 0x00, 0xe0, 0x06, 0x00, 0x00,
  0x70, 0x06, 0x00, 0x00, 0xe0, 0x04, 0x00, 0x00, 0xcc, 0x04, 0x00, 0x00, 0xc4, 0x04, 0x00, 0x00, 0xbc, 0x04, 0x00, 0x00,
  0x6c, 0x04, 0x00, 0x00, 0xdc, 0x03, 0x00, 0x00, 0xac, 0x03, 0x00, 0x00, 0x1c, 0x03, 0x00, 0x00, 0xcc, 0x02, 0x00, 0x00,
  0x4c, 0x02, 0x00, 0x00, 0xfc, 0x01, 0x00, 0x00, 0xdc, 0x01, 0x00, 0x00, 0xc8, 0x01, 0x00, 0x00, 0xb0, 0x01, 0x00, 0x00,
  0x9c, 0x01, 0x00, 0x00, 0x84, 0x01, 0x00, 0x00, 0x7c, 0x01, 0x00, 0x00, 0x74, 0x01, 0x00, 0x00, 0x6c, 0x01, 0x00, 0x00,
  0x64, 0x01, 0x00, 0x00, 0x5c, 0x01, 0x00, 0x00, 0x54, 0x01, 0x00, 0x00, 0x4c, 0x01, 0x00, 0x00, 0x44, 0x01, 0x00, 0x00,
  0x3c, 0x01, 0x00, 0x00, 0x34, 0x01, 0x00, 0x00, 0x2c, 0x01, 0x00, 0x00, 0x24, 0x01, 0x00, 0x00, 0x1c, 0x01, 0x00, 0x00,
  0x14, 0x01, 0x00, 0x00, 0x0c, 0x01, 0x00, 0x00, 0x04, 0x01, 0x00, 0x00, 0xfc, 0x00, 0x00, 0x00, 0xf4, 0x00, 0x00, 0x00,
  0xec, 0x00, 0x00, 0x00, 0xe4, 0x00, 0x00, 0x00, 0xdc, 0x00, 0x00, 0x00, 0xd4, 0x00, 0x00, 0x00, 0xcc, 0x00, 0x00, 0x00,
  0xc4, 0x00, 0x00, 0x00, 0xbc, 0x00, 0x00, 0x00, 0xb4, 0x00, 0x00, 0x00, 0xac, 0x00, 0x00, 0x00, 0xa4, 0x00, 0x00, 0x00,
  0x9c, 0x00, 0x00, 0x00, 0x94, 0x00, 0x00, 0x00, 0x8c, 0x00, 0x00, 0x00, 0x6c, 0x00, 0x00, 0x00, 0x04, 0x00, 0x00, 0x00,
  0x52, 0xe0, 0xff, 0xff, 0x04, 0x00, 0x00, 0x00, 0x58, 0x00, 0x00, 0x00, 0x0c, 0x00, 0x00, 0x00, 0x08, 0x00, 0x0e, 0x00,
  0x08, 0x00, 0x04, 0x00, 0x08, 0x00, 0x00, 0x00, 0x10, 0x00, 0x00, 0x00, 0x28, 0x00, 0x00, 0x00, 0x00, 0x00, 0x06, 0x00,
  0x08, 0x00, 0x04, 0x00, 0x06, 0x00, 0x00, 0x00, 0x04, 0x00, 0x00, 0x00, 0x01, 0x00, 0x00, 0x00, 0xeb, 0x03, 0x00, 0x00,
  0x00, 0x00, 0x0a, 0x00, 0x10, 0x00, 0x0c, 0x00, 0x08, 0x00, 0x04, 0x00, 0x0a, 0x00, 0x00, 0x00, 0x03, 0x00, 0x00, 0x00,
  0x02, 0x00, 0x00, 0x00, 0x04, 0x00, 0x00, 0x00, 0x06, 0x00, 0x00, 0x00, 0x32, 0x2e, 0x31, 0x35, 0x2e, 0x30, 0x00, 0x00,
  0xb6, 0xe0, 0xff, 0xff, 0x04, 0x00, 0x00, 0x00, 0x10, 0x00, 0x00, 0x00, 0x32, 0x2e, 0x31, 0x2e, 0x30, 0x00, 0x00, 0x00,
  0x00, 0x00, 0x00, 0x00, 0x00, 0x00, 0x00, 0x00, 0xd4, 0x94, 0xff, 0xff, 0xd8, 0x94, 0xff, 0xff, 0xdc, 0x94, 0xff, 0xff,
  0xe0, 0x94, 0xff, 0xff, 0xe4, 0x94, 0xff, 0xff, 0xe8, 0x94, 0xff, 0xff, 0xec, 0x94, 0xff, 0xff, 0xf0, 0x94, 0xff, 0xff,
  0xf4, 0x94, 0xff, 0xff, 0xf8, 0x94, 0xff, 0xff, 0xfc, 0x94, 0xff, 0xff, 0x00, 0x95, 0xff, 0xff, 0x04, 0x95, 0xff, 0xff,
  0x08, 0x95, 0xff, 0xff, 0x0c, 0x95, 0xff, 0xff, 0x10, 0x95, 0xff, 0xff, 0x14, 0x95, 0xff, 0xff, 0x18, 0x95, 0xff, 0xff,
  0x1c, 0x95, 0xff, 0xff, 0x20, 0x95, 0xff, 0xff, 0x24, 0x95, 0xff, 0xff, 0x28, 0x95, 0xff, 0xff, 0x2c, 0x95, 0xff, 0xff,
  0x30, 0x95, 0xff, 0xff, 0x34, 0x95, 0xff, 0xff, 0x38, 0x95, 0xff, 0xff, 0x3c, 0x95, 0xff, 0xff, 0x40, 0x95, 0xff, 0xff,
  0x44, 0x95, 0xff, 0xff, 0x48, 0x95, 0xff, 0xff, 0x4c, 0x95, 0xff, 0xff, 0x4e, 0xe1, 0xff, 0xff, 0x04, 0x00, 0x00, 0x00,
  0x07, 0x00, 0x00, 0x00, 0x52, 0xf0, 0x74, 0xb7, 0x81, 0xda, 0x29, 0x00, 0x62, 0xe1, 0xff, 0xff, 0x04, 0x00, 0x00, 0x00,
  0x04, 0x00, 0x00, 0x00, 0xb9, 0xff, 0xff, 0xff, 0x72, 0xe1, 0xff, 0xff, 0x04, 0x00, 0x00, 0x00, 0x07, 0x00, 0x00, 0x00,
  0xf5, 0x16, 0xa8, 0xe5, 0xad, 0x7f, 0xe6, 0x00, 0x86, 0xe1, 0xff, 0xff, 0x04, 0x00, 0x00, 0x00, 0x04, 0x00, 0x00, 0x00,
  0xb3, 0x11, 0x00, 0x00, 0x96, 0xe1, 0xff, 0xff, 0x04, 0x00, 0x00, 0x00, 0x10, 0x00, 0x00, 0x00, 0x7f, 0x7f, 0x7f, 0x7f,
  0x7f, 0x7f, 0x81, 0x7f, 0x81, 0x81, 0x7f, 0x7f, 0x81, 0x81, 0x7f, 0x7f, 0xb2, 0xe1, 0xff, 0xff, 0x04, 0x00, 0x00, 0x00,
  0x40, 0x00, 0x00, 0x00, 0x99, 0xea, 0xff, 0xff, 0x7b, 0xef, 0xff, 0xff, 0xc2, 0xec, 0xff, 0xff, 0xc5, 0xee, 0xff, 0xff,
  0x67, 0xeb, 0xff, 0xff, 0x4d, 0xec, 0xff, 0xff, 0x91, 0x15, 0x00, 0x00, 0xd9, 0xed, 0xff, 0xff, 0xe7, 0x16, 0x00, 0x00,
  0x26, 0x19, 0x00, 0x00, 0xaf, 0xf5, 0xff, 0xff, 0x7b, 0xed, 0xff, 0xff, 0x24, 0x16, 0x00, 0x00, 0x9e, 0x17, 0x00, 0x00,
  0x1d, 0xee, 0xff, 0xff, 0xb0, 0xe9, 0xff, 0xff, 0xfe, 0xe1, 0xff, 0xff, 0x04, 0x00, 0x00, 0x00, 0x70, 0x00, 0x00, 0x00,
  0xbc, 0xcd, 0xa5, 0x1d, 0x0f, 0xa1, 0x08, 0x7b, 0xfe, 0x62, 0x7f, 0x10, 0x1e, 0xd8, 0xdf, 0x6e, 0xef, 0x4a, 0xf0, 0xfe,
  0x7f, 0x1c, 0x0a, 0x2b, 0xee, 0xe8, 0xd4, 0xe5, 0x4a, 0xe9, 0xb9, 0x52, 0x37, 0xbe, 0x3a, 0x7d, 0x87, 0x25, 0xc4, 0x40,
  0x6d, 0x81, 0xf8, 0x81, 0x7f, 0x08, 0x8e, 0x6a, 0xac, 0x7f, 0xce, 0x4b, 0xbd, 0x7f, 0x73, 0xd5, 0x81, 0x9f, 0x27, 0xbc,
  0xdf, 0x86, 0xa1, 0x64, 0x81, 0xa5, 0x7f, 0x16, 0x9d, 0x37, 0x65, 0x7f, 0x54, 0xe3, 0x31, 0xd0, 0xe4, 0x81, 0xd7, 0xbf,
  0x8f, 0x27, 0x42, 0x0d, 0x8d, 0x11, 0x7f, 0x0b, 0xd1, 0x14, 0x14, 0x35, 0x93, 0xa3, 0x81, 0x81, 0x9e, 0x34, 0x20, 0x7f,
  0x38, 0xf1, 0x46, 0xe3, 0xe3, 0x15, 0xef, 0x23, 0x0f, 0xc0, 0x9c, 0x96, 0x7a, 0xe2, 0xff, 0xff, 0x04, 0x00, 0x00, 0x00,
  0x40, 0x00, 0x00, 0x00, 0xa8, 0x0d, 0x00, 0x00, 0x66, 0xfd, 0xff, 0xff, 0xcc, 0x00, 0x00, 0x00, 0x07, 0xeb, 0xff, 0xff,
  0x03, 0x08, 0x00, 0x00, 0x0f, 0xfd, 0xff, 0xff, 0xd6, 0xfe, 0xff, 0xff, 0x32, 0xf5, 0xff, 0xff, 0x08, 0x00, 0x00, 0x00,
  0x4e, 0x07, 0x00, 0x00, 0xb7, 0xf1, 0xff, 0xff, 0xcd, 0x05, 0x00, 0x00, 0x7e, 0xfd, 0xff, 0xff, 0x9b, 0x12, 0x00, 0x00,
  0xc0, 0x12, 0x00, 0x00, 0x0f, 0xff, 0xff, 0xff, 0xc6, 0xe2, 0xff, 0xff, 0x04, 0x00, 0x00, 0x00, 0x80, 0x00, 0x00, 0x00,
  0x7a, 0x81, 0xfd, 0x20, 0xd6, 0x18, 0xe0, 0xce, 0xf3, 0x42, 0x9c, 0x43, 0x44, 0xd1, 0xf6, 0xcd, 0x1d, 0x81, 0x10, 0xfb,
  0xeb, 0x3d, 0xef, 0xf0, 0xd0, 0x2d, 0x8f, 0x3f, 0x69, 0xcb, 0x0c, 0xf3, 0x30, 0xaf, 0xed, 0xf1, 0x22, 0x8c, 0xf9, 0x27,
  0xfa, 0xec, 0xcd, 0x1f, 0xcb, 0x7f, 0x27, 0xcc, 0x1c, 0x95, 0x0b, 0xa4, 0x26, 0xec, 0xd9, 0xc6, 0xef, 0x23, 0x3b, 0x1a,
  0xd7, 0x10, 0xd4, 0x81, 0x5a, 0xf4, 0x13, 0x64, 0xde, 0xd6, 0x04, 0xe1, 0xe3, 0xcd, 0xc6, 0xd2, 0xd4, 0x54, 0xfc, 0x81,
  0x53, 0x3c, 0xb9, 0x81, 0x05, 0xf7, 0xc5, 0x91, 0x70, 0x4d, 0xe2, 0xd8, 0x58, 0xe7, 0xfc, 0xd1, 0xe1, 0x9c, 0xe8, 0x3f,
  0x37, 0x5b, 0x63, 0x62, 0xe2, 0x81, 0x89, 0xbd, 0xd7, 0xde, 0x64, 0xa0, 0x27, 0x7f, 0x56, 0x34, 0xeb, 0x0d, 0x6b, 0xc4,
  0x25, 0x1c, 0x1e, 0xf0, 0xdd, 0xde, 0x5f, 0x16, 0x52, 0xe3, 0xff, 0xff, 0x04, 0x00, 0x00, 0x00, 0x20, 0x00, 0x00, 0x00,
  0xbb, 0x18, 0x00, 0x00, 0x21, 0x21, 0x00, 0x00, 0x52, 0x26, 0x00, 0x00, 0x93, 0xeb, 0xff, 0xff, 0x90, 0x1b, 0x00, 0x00,
  0x4d, 0x2d, 0x00, 0x00, 0x00, 0x00, 0x00, 0x00, 0xf6, 0x10, 0x00, 0x00, 0x7e, 0xe3, 0xff, 0xff, 0x04, 0x00, 0x00, 0x00,
  0x80, 0x00, 0x00, 0x00, 0x91, 0x8b, 0xa5, 0x04, 0xef, 0x3d, 0x7f, 0x2c, 0x2a, 0xdd, 0x17, 0x05, 0x81, 0x1f, 0x98, 0x37,
  0x25, 0x7f, 0x4a, 0xcb, 0x05, 0x68, 0x21, 0xb6, 0x2f, 0x7d, 0x6c, 0x81, 0x8e, 0xcc, 0x21, 0x04, 0x26, 0x3b, 0x3a, 0xe9,
  0x7f, 0xfc, 0x1e, 0x6e, 0x7f, 0x38, 0x57, 0x4c, 0x14, 0x3b, 0x0d, 0xfd, 0x67, 0xb0, 0x45, 0x21, 0x7f, 0x61, 0x75, 0x96,
  0x81, 0xb9, 0xc0, 0xea, 0xda, 0xf0, 0x44, 0x12, 0xbe, 0xbb, 0xd6, 0x1f, 0x81, 0x5f, 0xd9, 0x03, 0xf2, 0xe0, 0x25, 0x7f,
  0x8e, 0x0e, 0x11, 0x43, 0x39, 0x65, 0x7f, 0x3e, 0x51, 0x5f, 0xf7, 0xbf, 0xb8, 0xed, 0xb0, 0x59, 0xe0, 0x7f, 0xb3, 0x05,
  0x1f, 0xbc, 0x81, 0xd0, 0x3d, 0x7e, 0xb2, 0x9e, 0xc4, 0xf7, 0x7f, 0x16, 0xfd, 0x95, 0xe0, 0x11, 0x21, 0xa5, 0x48, 0xc6,
  0x7f, 0xdb, 0x60, 0x41, 0xc0, 0xf8, 0xeb, 0xae, 0x2d, 0x7f, 0x15, 0x0d, 0x0a, 0xe4, 0xff, 0xff, 0x04, 0x00, 0x00, 0x00,
  0x40, 0x00, 0x00, 0x00, 0xb7, 0x1e, 0x01, 0x00, 0xcd, 0x5f, 0x01, 0x00, 0x03, 0xd0, 0x00, 0x00, 0x6e, 0x77, 0x01, 0x00,
  0x8c, 0xe8, 0x00, 0x00, 0x13, 0xf4, 0x01, 0x00, 0x85, 0x20, 0x01, 0x00, 0x0b, 0xef, 0x00, 0x00, 0xc8, 0x2f, 0x02, 0x00,
  0x02, 0xd9, 0x01, 0x00, 0xfe, 0xec, 0x00, 0x00, 0xc8, 0x18, 0x01, 0x00, 0xd7, 0x3d, 0x01, 0x00, 0x06, 0xec, 0x00, 0x00,
  0x30, 0x5e, 0x01, 0x00, 0xf4, 0xa0, 0x00, 0x00, 0x58, 0x98, 0xff, 0xff, 0x5c, 0x98, 0xff, 0xff, 0x5e, 0xe4, 0xff, 0xff,
  0x04, 0x00, 0x00, 0x00, 0x01, 0x00, 0x00, 0x00, 0x7f, 0x00, 0x00, 0x00, 0x6e, 0xe4, 0xff, 0xff, 0x04, 0x00, 0x00, 0x00,
  0x80, 0x01, 0x00, 0x00, 0x81, 0x48, 0xe9, 0x96, 0x0f, 0xfc, 0x15, 0x9f, 0x73, 0xee, 0xe0, 0x0a, 0x20, 0xbd, 0xb4, 0xef,
  0x82, 0xdb, 0x81, 0xd9, 0xd4, 0xe1, 0x8f, 0x3e, 0xec, 0xde, 0xb0, 0x07, 0xbc, 0x01, 0x25, 0x91, 0xd6, 0x60, 0x12, 0xc4,
  0xa0, 0x0e, 0x1d, 0x7e, 0x7f, 0xc7, 0xb0, 0x9f, 0x95, 0x12, 0x78, 0x44, 0x10, 0x1c, 0xfe, 0x2f, 0xf1, 0x1c, 0x0f, 0xff,
  0x17, 0x1f, 0xbf, 0x81, 0x5a, 0x3b, 0xee, 0x94, 0x0c, 0xee, 0x17, 0x17, 0x1c, 0x3c, 0xe2, 0xe7, 0xc5, 0xeb, 0xd4, 0x04,
  0xea, 0x24, 0x81, 0x0d, 0xfb, 0xf8, 0x4b, 0x27, 0x49, 0x2c, 0x7d, 0xaf, 0x5d, 0x81, 0x27, 0x63, 0x04, 0x9a, 0x1b, 0x5f,
  0x18, 0x4b, 0xed, 0xec, 0xbb, 0xf3, 0x00, 0x54, 0x01, 0x81, 0xee, 0xdf, 0x2a, 0xe1, 0xf7, 0x69, 0x00, 0x35, 0x1f, 0xf0,
  0xc5, 0xd8, 0x4e, 0x2b, 0x27, 0x19, 0xd3, 0xa6, 0x3b, 0x7f, 0xe9, 0x24, 0x81, 0x48, 0x00, 0x10, 0xe6, 0x36, 0x05, 0x26,
  0xce, 0x5d, 0xd3, 0xdb, 0x01, 0xb0, 0x19, 0x84, 0xa2, 0x20, 0x52, 0x24, 0xa8, 0x39, 0x81, 0xda, 0xbc, 0xff, 0xe8, 0xd0,
  0x03, 0x53, 0x96, 0xaa, 0xa6, 0xd3, 0xfc, 0x81, 0x14, 0x54, 0x4f, 0x4f, 0x12, 0x2d, 0xfc, 0x24, 0xe4, 0xeb, 0xf3, 0xb4,
  0xdf, 0x10, 0x49, 0xd7, 0xd3, 0x0d, 0x18, 0xff, 0xf6, 0x81, 0xf0, 0x00, 0x95, 0x58, 0xde, 0xe5, 0x37, 0xd1, 0xd1, 0xd6,
  0x43, 0xca, 0x1c, 0x88, 0x49, 0x52, 0x11, 0xdc, 0x2e, 0x81, 0x23, 0xe3, 0xa4, 0x3d, 0x13, 0xf5, 0xcf, 0xb3, 0xdc, 0xf5,
  0x73, 0x2c, 0x16, 0xe7, 0xa8, 0x8c, 0x3f, 0x81, 0x18, 0xd0, 0xbd, 0xfd, 0x1c, 0xa0, 0x7f, 0xf6, 0x2b, 0xf1, 0x2a, 0xd6,
  0xf8, 0x1c, 0xe9, 0xcc, 0x13, 0x81, 0xc3, 0xe3, 0x12, 0x05, 0xab, 0x4f, 0xe3, 0x39, 0xc7, 0xf3, 0x13, 0x12, 0xfa, 0xde,
  0x3c, 0x23, 0xdc, 0xfd, 0xdd, 0xd6, 0x7f, 0x00, 0x15, 0xf3, 0x0d, 0xeb, 0x18, 0xf1, 0x07, 0x17, 0x39, 0x9f, 0x32, 0x09,
  0x9c, 0xa9, 0x7f, 0x9a, 0x22, 0xf1, 0x3f, 0x9e, 0x0c, 0x01, 0xc3, 0x5e, 0xc2, 0xf3, 0xe7, 0x7c, 0x75, 0x9e, 0xca, 0xe1,
  0xd6, 0x7f, 0x54, 0x6b, 0x65, 0x93, 0x4a, 0xe7, 0xe4, 0x71, 0x8d, 0xdc, 0xbd, 0xee, 0x5b, 0x7f, 0x2b, 0xfc, 0xb6, 0xa8,
  0x58, 0x2b, 0x0f, 0x48, 0x03, 0x0e, 0x1b, 0xd8, 0xb2, 0x30, 0x0b, 0xdf, 0xd3, 0x0d, 0xeb, 0xd3, 0xcb, 0x7f, 0xcc, 0xf1,
  0x0b, 0x24, 0x9d, 0x09, 0x01, 0xeb, 0x70, 0x81, 0x05, 0xec, 0xfe, 0xa9, 0xed, 0xaa, 0x42, 0x55, 0x10, 0xee, 0xff, 0x05,
  0x2b, 0xd2, 0x81, 0x46, 0x00, 0x96, 0x18, 0x2e, 0x37, 0xde, 0x06, 0xbf, 0x97, 0xf2, 0x42, 0x33, 0x00, 0x9c, 0x4c, 0x34,
  0x63, 0xfa, 0xab, 0x0b, 0x81, 0xae, 0x5c, 0x93, 0xfa, 0xe5, 0xff, 0xff, 0x04, 0x00, 0x00, 0x00, 0x60, 0x00, 0x00, 0x00,
  0xc3, 0x0d, 0x00, 0x00, 0x53, 0x1f, 0x00, 0x00, 0xb4, 0xfd, 0xff, 0xff, 0x64, 0x01, 0x00, 0x00, 0x35, 0x02, 0x00, 0x00,
  0x25, 0xf2, 0xff, 0xff, 0xc5, 0x02, 0x00, 0x00, 0x2f, 0xff, 0xff, 0xff, 0x94, 0x06, 0x00, 0x00, 0xd7, 0x12, 0x00, 0x00,
  0x75, 0x06, 0x00, 0x00, 0x0b, 0x03, 0x00, 0x00, 0x3e, 0x08, 0x00, 0x00, 0x90, 0x0f, 0x00, 0x00, 0x68, 0xfc, 0xff, 0xff,
  0x0e, 0x09, 0x00, 0x00, 0x27, 0xfd, 0xff, 0xff, 0x26, 0x04, 0x00, 0x00, 0xc6, 0xf8, 0xff, 0xff, 0xce, 0xf7, 0xff, 0xff,
  0xc7, 0x02, 0x00, 0x00, 0x1d, 0x08, 0x00, 0x00, 0x9e, 0x04, 0x00, 0x00, 0x7d, 0x00, 0x00, 0x00, 0x66, 0xe6, 0xff, 0xff,
  0x04, 0x00, 0x00, 0x00, 0xa8, 0x00, 0x00, 0x00, 0x7f, 0x81, 0xc7, 0xfc, 0x97, 0x51, 0x7f, 0x09, 0xe9, 0x1e, 0x00, 0x24,
  0xec, 0xca, 0x00, 0xf4, 0x95, 0x50, 0x40, 0x3a, 0x18, 0xf9, 0xce, 0xab, 0x15, 0xbf, 0x47, 0x88, 0xda, 0x2a, 0x69, 0x15,
  0xbc, 0x08, 0x36, 0x0c, 0xae, 0xe5, 0x2c, 0x2d, 0x81, 0x45, 0x29, 0xd5, 0xef, 0xfc, 0xe2, 0xf7, 0x42, 0xd8, 0x7f, 0x12,
  0x3d, 0x3d, 0x2b, 0x4c, 0xf2, 0x49, 0x7f, 0x81, 0x7f, 0x7f, 0x0a, 0x0c, 0x98, 0x74, 0xc8, 0xf7, 0xe6, 0xd1, 0x58, 0x7f,
  0x4d, 0xec, 0x52, 0x7f, 0x7f, 0x49, 0xe8, 0x81, 0x3b, 0x0f, 0x7f, 0xe0, 0x49, 0xfd, 0xd2, 0xf3, 0x9b, 0x7f, 0x8a, 0x4a,
  0x5d, 0x7f, 0x7f, 0x6b, 0x22, 0x18, 0xaf, 0x0c, 0x3b, 0x30, 0xd9, 0x82, 0x7f, 0xb7, 0xc7, 0x61, 0xd7, 0xa1, 0x7f, 0x81,
  0x65, 0xe1, 0xde, 0x7f, 0x7f, 0x34, 0x69, 0xd7, 0xea, 0x35, 0xdf, 0xc8, 0xf6, 0x53, 0xf0, 0xe5, 0x65, 0xe3, 0xa3, 0x47,
  0xbb, 0xec, 0x51, 0xa7, 0x0d, 0x20, 0x39, 0x7b, 0x32, 0xf1, 0xde, 0xf1, 0xf2, 0x1a, 0xc9, 0x00, 0x2d, 0x7f, 0x3e, 0xde,
  0x04, 0x81, 0xa9, 0x24, 0xa5, 0x1c, 0x1f, 0xdb, 0x48, 0xeb, 0x7f, 0xb4, 0xf7, 0xde, 0xa9, 0xbd, 0x1a, 0xe7, 0xff, 0xff,
  0x04, 0x00, 0x00, 0x00, 0x60, 0x00, 0x00, 0x00, 0xcd, 0xf9, 0xff, 0xff, 0x75, 0x0c, 0x00, 0x00, 0xfa, 0xff, 0xff, 0xff,
  0x0a, 0x01, 0x00, 0x00, 0xfd, 0xfc, 0xff, 0xff, 0xef, 0xee, 0xff, 0xff, 0x52, 0xff, 0xff, 0xff, 0xf8, 0x0d, 0x00, 0x00,
  0xb4, 0xfa, 0xff, 0xff, 0x54, 0x08, 0x00, 0x00, 0xa9, 0x03, 0x00, 0x00, 0x67, 0xfa, 0xff, 0xff, 0x06, 0x03, 0x00, 0x00,
  0x77, 0x03, 0x00, 0x00, 0x38, 0xff, 0xff, 0xff, 0xb3, 0x0e, 0x00, 0x00, 0xa6, 0x0f, 0x00, 0x00, 0x4a, 0xf7, 0xff, 0xff,
  0x43, 0x00, 0x00, 0x00, 0x99, 0xfc, 0xff, 0xff, 0xc9, 0xf7, 0xff, 0xff, 0xeb, 0xfd, 0xff, 0xff, 0x21, 0xff, 0xff, 0xff,
  0x02, 0x00, 0x00, 0x00, 0x86, 0xe7, 0xff, 0xff, 0x04, 0x00, 0x00, 0x00, 0x20, 0x01, 0x00, 0x00, 0x3c, 0x07, 0x7f, 0xff,
  0xd0, 0xb9, 0xf9, 0x59, 0x2b, 0x01, 0xed, 0xef, 0xf7, 0x01, 0xa4, 0x5f, 0xfa, 0xee, 0x16, 0x40, 0xf5, 0x38, 0x9d, 0x1b,
  0x7b, 0xfc, 0xee, 0xf1, 0x3c, 0x4e, 0x45, 0x21, 0x36, 0x57, 0x86, 0x00, 0xb1, 0x81, 0x00, 0x43, 0x2f, 0x98, 0x90, 0x1b,
  0xbe, 0x61, 0xb3, 0x69, 0x3b, 0x35, 0x1e, 0xaa, 0xd8, 0x5e, 0xcd, 0xc2, 0x19, 0x3c, 0x81, 0xc4, 0x3d, 0xe7, 0x3a, 0xdc,
  0xc5, 0x9b, 0x31, 0xc5, 0xc6, 0x0d, 0x1e, 0xfa, 0x8c, 0xb2, 0x8b, 0xc3, 0xff, 0x70, 0xb4, 0x28, 0x7c, 0xe5, 0xd6, 0x39,
  0x81, 0x04, 0xb4, 0x58, 0x09, 0xbd, 0xd3, 0xd0, 0xbf, 0xcf, 0xf6, 0xdf, 0x31, 0xb4, 0x7f, 0x7f, 0x08, 0x60, 0x72, 0xdd,
  0xbc, 0x45, 0x4b, 0x0a, 0xbe, 0xab, 0x4c, 0x17, 0x18, 0x29, 0x17, 0x1f, 0x9d, 0x07, 0xce, 0x37, 0xf1, 0x18, 0x7f, 0x84,
  0x03, 0xba, 0x0a, 0x45, 0x1a, 0xf6, 0xbb, 0x14, 0xce, 0xc4, 0x26, 0xbb, 0x06, 0xbc, 0x19, 0xe3, 0xbb, 0xa9, 0xe8, 0x1b,
  0xf1, 0x36, 0x04, 0x1d, 0x8b, 0xeb, 0x7b, 0x6e, 0x28, 0x71, 0xe2, 0x48, 0xb2, 0xe7, 0x84, 0x6b, 0x03, 0x34, 0xcb, 0xf2,
  0xa2, 0x2e, 0x12, 0x7f, 0xc3, 0x2c, 0x04, 0x7b, 0x33, 0x81, 0x99, 0x51, 0xd1, 0x06, 0x4a, 0xcf, 0xd0, 0x25, 0xa4, 0x2c,
  0x0d, 0xf8, 0xd1, 0xa1, 0x22, 0xb7, 0x0d, 0x02, 0xe6, 0xc1, 0x3a, 0x9e, 0xf3, 0xf7, 0xf9, 0x06, 0x18, 0xab, 0x81, 0x0c,
  0x90, 0x19, 0xef, 0x04, 0x02, 0x17, 0xe8, 0xcc, 0x76, 0xc8, 0x47, 0xf8, 0xb0, 0x34, 0x1a, 0xfe, 0xcb, 0x50, 0xd1, 0xa9,
  0xb6, 0xf9, 0x24, 0x2b, 0x81, 0x1b, 0x11, 0xb2, 0x91, 0x24, 0xdb, 0x0e, 0xeb, 0x42, 0x48, 0x71, 0xfc, 0x5a, 0xa4, 0x39,
  0xb7, 0xbc, 0xfd, 0x45, 0x84, 0x20, 0x2a, 0xf4, 0xf7, 0xf1, 0x26, 0x32, 0x10, 0xd6, 0x02, 0x81, 0xc2, 0xd7, 0x00, 0x3c,
  0x36, 0x4c, 0x34, 0x2c, 0xef, 0x7f, 0x5e, 0xae, 0xcd, 0xc3, 0x37, 0x7c, 0x3b, 0xfd, 0x13, 0x14, 0x00, 0xdd, 0xd9, 0x0d,
  0x56, 0x4c, 0x1e, 0x58, 0xb2, 0xe8, 0xff, 0xff, 0x04, 0x00, 0x00, 0x00, 0x30, 0x00, 0x00, 0x00, 0x36, 0x04, 0x00, 0x00,
  0x8a, 0x01, 0x00, 0x00, 0x5c, 0xfc, 0xff, 0xff, 0xf3, 0xf7, 0xff, 0xff, 0x95, 0x0b, 0x00, 0x00, 0x00, 0x00, 0x00, 0x00,
  0x84, 0x0a, 0x00, 0x00, 0xbd, 0x1c, 0x00, 0x00, 0x00, 0x00, 0x00, 0x00, 0xcd, 0xfd, 0xff, 0xff, 0x52, 0x19, 0x00, 0x00,
  0x92, 0xfe, 0xff, 0xff, 0xee, 0xe8, 0xff, 0xff, 0x04, 0x00, 0x00, 0x00, 0x20, 0x01, 0x00, 0x00, 0x19, 0xd0, 0x9c, 0x4e,
  0xe1, 0x33, 0xdd, 0x6c, 0x32, 0x15, 0x2b, 0x81, 0x4f, 0x1b, 0x2a, 0x3b, 0x0f, 0xd2, 0xfe, 0x0a, 0x7f, 0x9e, 0x5e, 0x16,
  0x67, 0xcb, 0x36, 0xf6, 0xad, 0xfb, 0x56, 0x33, 0x4d, 0xe4, 0x7f, 0xec, 0x39, 0xea, 0xfe, 0xdd, 0x16, 0x29, 0x3e, 0x81,
  0xd9, 0x81, 0x98, 0x16, 0x81, 0x9d, 0xe3, 0x94, 0x2f, 0x12, 0xf4, 0xd9, 0xee, 0xfd, 0xbe, 0x03, 0xcc, 0xcc, 0xd4, 0x5e,
  0x13, 0xfb, 0xda, 0x01, 0x27, 0xf5, 0x38, 0x81, 0x70, 0x1f, 0x6b, 0x5b, 0xf7, 0xc2, 0xfd, 0x01, 0xd9, 0xf7, 0xf6, 0x81,
  0x04, 0xe4, 0xe9, 0x08, 0xf8, 0x48, 0x9e, 0x81, 0xf5, 0xbf, 0xef, 0x36, 0xa2, 0xad, 0xcd, 0xd8, 0xc8, 0xf5, 0x5d, 0xf4,
  0xcb, 0x82, 0x4b, 0x81, 0x0e, 0x10, 0x7f, 0xc7, 0x2c, 0xd5, 0xff, 0xce, 0xf4, 0x70, 0xa3, 0xe0, 0x18, 0x06, 0x28, 0x23,
  0x94, 0xca, 0xba, 0x7f, 0x10, 0xfd, 0x60, 0xfa, 0x18, 0x00, 0x4c, 0xf5, 0xcd, 0x23, 0xb8, 0x93, 0xcb, 0xca, 0xea, 0x7f,
  0x00, 0xf4, 0x0c, 0xaf, 0xef, 0x0f, 0x81, 0xf9, 0xfa, 0x3a, 0x3b, 0x77, 0xc8, 0xb7, 0xf1, 0x08, 0x82, 0x00, 0x4e, 0xeb,
  0xfd, 0x78, 0x7f, 0xd2, 0xe9, 0x39, 0x64, 0x7b, 0xe7, 0x4b, 0xd0, 0xf2, 0x01, 0x07, 0x7f, 0xe5, 0x81, 0x56, 0x23, 0xc9,
  0x9c, 0xae, 0x7c, 0xa3, 0x7a, 0x8d, 0x0d, 0xd4, 0x87, 0xff, 0xd4, 0x44, 0xf5, 0xda, 0xb4, 0x7f, 0x0c, 0xea, 0x24, 0x6c,
  0xfe, 0x2e, 0xd7, 0x2d, 0xc4, 0x44, 0x8f, 0x63, 0x2c, 0x35, 0x7f, 0xbb, 0x12, 0xae, 0x23, 0x6a, 0xfd, 0xcc, 0xc3, 0x7f,
  0xc4, 0x30, 0x27, 0xea, 0x33, 0x2c, 0x61, 0xe6, 0x0e, 0xe0, 0xb5, 0x7f, 0xe0, 0xe1, 0x15, 0xe6, 0x81, 0xce, 0xc2, 0x4c,
  0xcc, 0xb8, 0x2d, 0x2b, 0x41, 0x0a, 0x52, 0xff, 0x1f, 0xe5, 0xb0, 0xfb, 0x45, 0x7a, 0x1e, 0x64, 0x81, 0x3b, 0xe7, 0xf9,
  0xdc, 0x64, 0xfa, 0x11, 0xe3, 0x5b, 0xca, 0xdc, 0x41, 0xf8, 0x81, 0x72, 0xe2, 0xb6, 0x7f, 0x5e, 0x85, 0x0e, 0xb5, 0x37,
  0x1b, 0xba, 0x25, 0xed, 0x1a, 0xea, 0xff, 0xff, 0x04, 0x00, 0x00, 0x00, 0x60, 0x00, 0x00, 0x00, 0x6a, 0x79, 0x00, 0x00,
  0x47, 0xd7, 0x00, 0x00, 0xdf, 0x9b, 0x00, 0x00, 0x23, 0x97, 0x00, 0x00, 0xb0, 0x87, 0x00, 0x00, 0x2a, 0x96, 0x00, 0x00,
  0x25, 0xaa, 0x00, 0x00, 0xce, 0x6c, 0x00, 0x00, 0x5f, 0x9b, 0x00, 0x00, 0x64, 0x9f, 0x00, 0x00, 0x6e, 0x9d, 0x00, 0x00,
  0xc3, 0x99, 0x00, 0x00, 0x4b, 0x8d, 0x00, 0x00, 0xb6, 0x8c, 0x00, 0x00, 0x46, 0x89, 0x00, 0x00, 0x10, 0xc0, 0x00, 0x00,
  0x9b, 0xa3, 0x00, 0x00, 0x92, 0x7e, 0x00, 0x00, 0x44, 0x8c, 0x00, 0x00, 0xb3, 0x9a, 0x00, 0x00, 0x7f, 0x8d, 0x00, 0x00,
  0x97, 0x97, 0x00, 0x00, 0x7c, 0x7d, 0x00, 0x00, 0x69, 0x07, 0x01, 0x00, 0x86, 0xea, 0xff, 0xff, 0x04, 0x00, 0x00, 0x00,
  0x00, 0x03, 0x00, 0x00, 0xfa, 0x1c, 0x6f, 0x08, 0xd5, 0xe0, 0xe1, 0x00, 0xf6, 0x0a, 0x2a, 0x59, 0xe7, 0xba, 0x25, 0xb9,
  0x81, 0x1e, 0x8d, 0x2e, 0x83, 0xe9, 0x23, 0xdb, 0x1c, 0x7f, 0xd2, 0x2d, 0x3b, 0xf0, 0x4f, 0x06, 0x7e, 0x07, 0x4d, 0xc1,
  0xaf, 0xe9, 0xd0, 0xfe, 0xd4, 0x2b, 0x17, 0x0a, 0x26, 0xf1, 0x22, 0x04, 0xc8, 0x99, 0x9c, 0xf0, 0xd6, 0xc6, 0xa7, 0x1a,
  0x01, 0xfe, 0xbe, 0x2d, 0xd2, 0xde, 0xd7, 0xd5, 0xec, 0xba, 0x81, 0x50, 0xc8, 0xc1, 0xdb, 0xf9, 0x2f, 0x31, 0x7f, 0x05,
  0xeb, 0x11, 0xf9, 0xc6, 0xb3, 0xf2, 0x0f, 0xf2, 0xbb, 0xc3, 0xd6, 0xdb, 0xdf, 0x19, 0x31, 0x4d, 0xc6, 0x0a, 0x57, 0x35,
  0x9e, 0x04, 0x25, 0x24, 0xfa, 0x51, 0x6c, 0x46, 0x7f, 0xf4, 0xcf, 0x1f, 0xf8, 0x29, 0x9a, 0x09, 0x0f, 0xf0, 0x24, 0x03,
  0xf1, 0xcc, 0x20, 0x69, 0x0e, 0xf3, 0x67, 0x0c, 0xfd, 0xf2, 0xe4, 0x0d, 0x30, 0x00, 0x1c, 0x42, 0x07, 0x18, 0xcf, 0x22,
  0x0b, 0x0b, 0x2a, 0x1a, 0xff, 0x11, 0xff, 0x7f, 0x56, 0x45, 0x66, 0x81, 0xe6, 0xe5, 0x01, 0x21, 0x2d, 0xbb, 0xd6, 0x63,
  0x69, 0x36, 0x0e, 0xe4, 0x12, 0x24, 0xfe, 0xdb, 0x76, 0x0d, 0xf7, 0xea, 0x6d, 0x10, 0x35, 0x17, 0x92, 0x60, 0xcd, 0xcf,
  0x10, 0xf2, 0xda, 0x1b, 0xa5, 0xed, 0x81, 0x0b, 0x21, 0x31, 0x00, 0xcb, 0x26, 0xb9, 0xed, 0x67, 0xb5, 0xdd, 0x81, 0x02,
  0xec, 0x05, 0xa6, 0xe3, 0x26, 0x4b, 0xfc, 0x0d, 0x20, 0x43, 0xf3, 0xfd, 0x20, 0xc2, 0xea, 0x12, 0x03, 0xdb, 0x1b, 0x25,
  0x0f, 0x52, 0x73, 0x20, 0x37, 0x1e, 0x3a, 0xcb, 0x15, 0x21, 0x5c, 0xd2, 0xd5, 0x66, 0x81, 0xf7, 0xcd, 0xd1, 0x1a, 0x1d,
  0xeb, 0x07, 0x05, 0xf8, 0xcd, 0x01, 0x9d, 0x1b, 0x3e, 0xc8, 0xa2, 0x25, 0xf7, 0x15, 0xee, 0xdb, 0xd5, 0xef, 0x01, 0x06,
  0x9f, 0x81, 0xbe, 0xd4, 0x10, 0xdc, 0x23, 0x16, 0x28, 0x37, 0x4f, 0x1e, 0xd4, 0x20, 0xc5, 0x16, 0xbf, 0x11, 0x7f, 0xc2,
  0xad, 0x68, 0xf5, 0x30, 0xe6, 0x64, 0x00, 0x4d, 0x2b, 0xf2, 0xb9, 0xc8, 0x06, 0x1b, 0x7f, 0x1c, 0x2a, 0xc3, 0x84, 0x8c,
  0x2a, 0xf0, 0x31, 0xee, 0xf9, 0xdc, 0xeb, 0xff, 0x4f, 0x1e, 0x18, 0xe1, 0xdf, 0x20, 0x46, 0x5a, 0xcb, 0x00, 0xcb, 0xda,
  0xf2, 0xf5, 0x0c, 0x0e, 0x14, 0x29, 0xf1, 0xed, 0x2a, 0xdf, 0xe6, 0xeb, 0x16, 0xea, 0x0f, 0xb5, 0x54, 0x7f, 0xe1, 0x39,
  0xe6, 0x9b, 0xba, 0xed, 0xdc, 0x7f, 0xee, 0xd9, 0x1e, 0x01, 0xd8, 0x37, 0xe0, 0x03, 0x07, 0x22, 0x00, 0x02, 0xbb, 0x16,
  0xdc, 0xf6, 0xfc, 0x0d, 0x28, 0x28, 0x56, 0xfc, 0x03, 0x81, 0xe4, 0xf4, 0xe4, 0xdc, 0x56, 0x2b, 0x31, 0xec, 0x32, 0xbf,
  0xd6, 0x24, 0x06, 0xcf, 0x2a, 0x19, 0xff, 0x70, 0xd9, 0x3e, 0xba, 0xcd, 0x34, 0xf4, 0x1f, 0x7f, 0xf1, 0xec, 0xd8, 0x4d,
  0xf5, 0x92, 0x48, 0xf7, 0xb1, 0xe7, 0xf0, 0xb7, 0xb8, 0x8b, 0x2b, 0x05, 0x1b, 0xcd, 0xfc, 0x81, 0xec, 0x1a, 0x0b, 0x1b,
  0xa8, 0xe4, 0xba, 0x24, 0x51, 0x9b, 0xbc, 0x38, 0x1d, 0xf9, 0x06, 0x20, 0xfe, 0xd2, 0x1f, 0x52, 0x02, 0xc1, 0x7f, 0xf3,
  0x1a, 0x45, 0xb6, 0x08, 0x57, 0xaa, 0xd8, 0x45, 0x0f, 0x09, 0x3d, 0x6a, 0x0b, 0xf3, 0x2b, 0x5a, 0x20, 0xf7, 0xc1, 0x69,
  0xbc, 0x18, 0x81, 0xcd, 0x36, 0x0a, 0xea, 0x38, 0x63, 0xf2, 0x0e, 0x3c, 0x15, 0xef, 0x2d, 0x6e, 0xca, 0xbe, 0x38, 0x0b,
  0x32, 0xfb, 0xd4, 0x1f, 0x33, 0x4d, 0x32, 0x0e, 0x33, 0x31, 0x1c, 0xb7, 0x2a, 0x22, 0x76, 0x81, 0xdf, 0x54, 0xf8, 0x2d,
  0xdf, 0xf5, 0x1b, 0x24, 0xeb, 0x1d, 0xfd, 0x4e, 0x4f, 0x72, 0x12, 0x53, 0x7f, 0xae, 0x31, 0x21, 0x97, 0xc4, 0x2e, 0x09,
  0xef, 0xf2, 0x93, 0x27, 0x9c, 0x5f, 0xd0, 0x97, 0xe3, 0xc3, 0x6d, 0xd5, 0xfd, 0x9c, 0x7f, 0xbc, 0x88, 0xee, 0x37, 0x40,
  0xd5, 0xcf, 0xec, 0xfd, 0x0d, 0x59, 0xa0, 0x4b, 0x21, 0x41, 0x2f, 0xf9, 0xf8, 0xc6, 0x4d, 0x44, 0x04, 0x37, 0x42, 0x1e,
  0xbf, 0xab, 0x58, 0x32, 0xc2, 0xf5, 0x17, 0xff, 0x2f, 0xef, 0xf4, 0xf8, 0xbc, 0x37, 0x7f, 0x07, 0xf2, 0xbb, 0x41, 0xc2,
  0x19, 0xe8, 0xf1, 0x25, 0x0d, 0xff, 0x0d, 0xcd, 0xca, 0xa7, 0x53, 0x4a, 0xff, 0xd5, 0xe6, 0x2b, 0xc9, 0x1c, 0x0d, 0x27,
  0x3a, 0x81, 0x13, 0xe4, 0xbd, 0xb5, 0xbc, 0x0c, 0xd8, 0xb4, 0xf3, 0x33, 0xfb, 0x15, 0x31, 0xeb, 0x06, 0x20, 0x10, 0x0a,
  0x81, 0xbc, 0xa3, 0xe1, 0x06, 0xee, 0xf2, 0xd7, 0x03, 0x1b, 0x7f, 0xf0, 0xec, 0x3e, 0x38, 0xf1, 0x2c, 0xda, 0xf6, 0x2f,
  0xfa, 0x43, 0x4f, 0xef, 0x0a, 0x1c, 0x0a, 0x39, 0x1e, 0x28, 0xfa, 0x3e, 0xb7, 0x0e, 0xb3, 0x48, 0xfc, 0x17, 0xc3, 0x9e,
  0x51, 0x63, 0x36, 0x16, 0x37, 0xe8, 0x04, 0x7f, 0xb0, 0x89, 0x59, 0xd9, 0x22, 0x1d, 0xd9, 0x3d, 0x77, 0x15, 0xd1, 0x4c,
  0x4c, 0x05, 0x66, 0x7f, 0x25, 0x8a, 0xfe, 0xef, 0x42, 0xf2, 0x8a, 0xeb, 0x4f, 0xa0, 0x14, 0x2b, 0x9f, 0xa9, 0x39, 0xe1,
  0x17, 0x97, 0x4e, 0xc9, 0xcb, 0xf6, 0x14, 0x40, 0xf9, 0xfe, 0x02, 0x2d, 0x5c, 0x0a, 0x0a, 0xdb, 0x54, 0x16, 0x1f, 0x65,
  0x07, 0x12, 0xef, 0x7f, 0x7e, 0xdd, 0x62, 0xd7, 0x11, 0x2c, 0xce, 0xe4, 0x41, 0x09, 0x26, 0x0f, 0x1a, 0x51, 0x77, 0x7f,
  0x16, 0x3e, 0xe9, 0x0d, 0x2a, 0x12, 0x3d, 0x47, 0x21, 0xcd, 0xc4, 0x0a, 0xda, 0xc4, 0x7f, 0x11, 0xc7, 0xe1, 0xce, 0x00,
  0x06, 0x0a, 0xe8, 0xf3, 0xe3, 0xe1, 0x45, 0x3b, 0xf1, 0xf1, 0xfa, 0xda, 0x92, 0xed, 0xff, 0xff, 0x04, 0x00, 0x00, 0x00,
  0x80, 0x00, 0x00, 0x00, 0xcf, 0x07, 0x00, 0x00, 0x51, 0xf7, 0xff, 0xff, 0xf9, 0x21, 0x00, 0x00, 0x17, 0xfd, 0xff, 0xff,
  0x3b, 0xf4, 0xff, 0xff, 0xee, 0xf1, 0xff, 0xff, 0x40, 0xfd, 0xff, 0xff, 0xe1, 0x03, 0x00, 0x00, 0x76, 0x0c, 0x00, 0x00,
  0x3c, 0xf8, 0xff, 0xff, 0xb8, 0x1c, 0x00, 0x00, 0xa4, 0xf2, 0xff, 0xff, 0xec, 0xfb, 0xff, 0xff, 0x88, 0xfc, 0xff, 0xff,
  0x29, 0x0c, 0x00, 0x00, 0xf8, 0xff, 0xff, 0xff, 0x29, 0x0f, 0x00, 0x00, 0xdb, 0x03, 0x00, 0x00, 0xcd, 0xfc, 0xff, 0xff,
  0x31, 0xff, 0xff, 0xff, 0xb0, 0xf0, 0xff, 0xff, 0x5c, 0x04, 0x00, 0x00, 0xf9, 0xf6, 0xff, 0xff, 0x3b, 0x01, 0x00, 0x00,
  0x5f, 0x09, 0x00, 0x00, 0x9f, 0x14, 0x00, 0x00, 0xd2, 0xf2, 0xff, 0xff, 0x50, 0xfb, 0xff, 0xff, 0xfe, 0xf6, 0xff, 0xff,
  0x10, 0xf5, 0xff, 0xff, 0xaf, 0xef, 0xff, 0xff, 0x5f, 0x0f, 0x00, 0x00, 0x1e, 0xee, 0xff, 0xff, 0x04, 0x00, 0x00, 0x00,
  0xe0, 0x00, 0x00, 0x00, 0xdc, 0x81, 0x81, 0x7f, 0xae, 0x81, 0xbb, 0x50, 0x16, 0xd9, 0x1b, 0x26, 0x04, 0xf9, 0xaf, 0x92,
  0x0f, 0xf4, 0xb5, 0x09, 0xbc, 0xd0, 0x62, 0x7f, 0xeb, 0x7c, 0xa6, 0x10, 0xb5, 0xfd, 0xa6, 0x96, 0x5a, 0xbb, 0xe6, 0x2f,
  0x87, 0xb4, 0xae, 0x55, 0x1d, 0xf4, 0xf9, 0x14, 0x29, 0xe7, 0x03, 0x81, 0xf0, 0x0b, 0x98, 0x03, 0x9a, 0xe9, 0x06, 0x33,
  0xde, 0x47, 0xbc, 0x20, 0x7f, 0xef, 0x25, 0x81, 0x7f, 0xb8, 0x2b, 0xb9, 0xd3, 0xc9, 0xe7, 0x28, 0x7f, 0x3e, 0x0b, 0x15,
  0xed, 0x27, 0x2e, 0x00, 0xf8, 0xed, 0xe4, 0x31, 0x2b, 0xf0, 0x7f, 0xca, 0x0c, 0x7f, 0xa8, 0xa8, 0xfe, 0xe6, 0x1d, 0xff,
  0x0c, 0x3d, 0x40, 0xcf, 0x7f, 0x10, 0x71, 0x7f, 0xe0, 0xc6, 0x3c, 0x7f, 0x7f, 0x7f, 0x09, 0xf9, 0x7f, 0x7f, 0xff, 0x2d,
  0x21, 0x7f, 0x52, 0xd1, 0x7f, 0x26, 0x7f, 0xcb, 0xd6, 0xe1, 0x7f, 0xdb, 0x04, 0xac, 0x15, 0xe4, 0xc1, 0x54, 0xcc, 0x53,
  0xd6, 0x7a, 0x43, 0xa1, 0x36, 0x1a, 0xd5, 0x1b, 0x9c, 0xdf, 0x81, 0x7f, 0xa2, 0x1a, 0x7c, 0xd4, 0xe6, 0x26, 0xc2, 0xdd,
  0x13, 0x81, 0xe4, 0x32, 0x03, 0x6e, 0xa9, 0xf0, 0xa4, 0x2e, 0x81, 0xfe, 0xff, 0x4f, 0x7f, 0x1b, 0xf0, 0xd7, 0x81, 0x64,
  0xeb, 0x04, 0xa4, 0x0d, 0x81, 0xdf, 0x0a, 0xe4, 0x00, 0x24, 0x49, 0x7f, 0x3a, 0x13, 0xa8, 0xfc, 0xf2, 0x1d, 0xb1, 0x4f,
  0xab, 0x1d, 0x9e, 0x1d, 0x06, 0x7f, 0x55, 0xe4, 0xec, 0xfa, 0x91, 0x6d, 0x12, 0xe1, 0xf8, 0xd9, 0x9d, 0xf0, 0x38, 0xed,
  0x02, 0x02, 0x3c, 0x49, 0x31, 0x0c, 0x13, 0xe3, 0x0a, 0xef, 0xff, 0xff, 0x04, 0x00, 0x00, 0x00, 0x80, 0x00, 0x00, 0x00,
  0xf6, 0xfc, 0xff, 0xff, 0x20, 0x0a, 0x00, 0x00, 0x18, 0x0e, 0x00, 0x00, 0xea, 0xfc, 0xff, 0xff, 0x92, 0x11, 0x00, 0x00,
  0xec, 0x03, 0x00, 0x00, 0x18, 0x0e, 0x00, 0x00, 0xda, 0xf4, 0xff, 0xff, 0x11, 0xfa, 0xff, 0xff, 0x45, 0xf8, 0xff, 0xff,
  0xda, 0xee, 0xff, 0xff, 0xbe, 0xfe, 0xff, 0xff, 0xdb, 0xfb, 0xff, 0xff, 0xeb, 0xfe, 0xff, 0xff, 0x6a, 0x0e, 0x00, 0x00,
  0xe6, 0x01, 0x00, 0x00, 0xaa, 0x02, 0x00, 0x00, 0xfc, 0x00, 0x00, 0x00, 0xd1, 0x1b, 0x00, 0x00, 0x5a, 0xfb, 0xff, 0xff,
  0xac, 0x11, 0x00, 0x00, 0xc2, 0xff, 0xff, 0xff, 0x72, 0xf7, 0xff, 0xff, 0xc3, 0x03, 0x00, 0x00, 0x8d, 0xfe, 0xff, 0xff,
  0x6b, 0xf5, 0xff, 0xff, 0x70, 0x03, 0x00, 0x00, 0x15, 0x00, 0x00, 0x00, 0xef, 0xfb, 0xff, 0xff, 0x1f, 0x08, 0x00, 0x00,
  0xb3, 0x04, 0x00, 0x00, 0xe2, 0x10, 0x00, 0x00, 0x96, 0xef, 0xff, 0xff, 0x04, 0x00, 0x00, 0x00, 0x00, 0x02, 0x00, 0x00,
  0x11, 0x0d, 0xe6, 0x15, 0xc0, 0x1c, 0x53, 0x7f, 0xeb, 0x49, 0x48, 0xbe, 0x47, 0x26, 0x19, 0xeb, 0xff, 0x38, 0x1d, 0x33,
  0x0f, 0xe2, 0x16, 0x27, 0xf2, 0x59, 0xf0, 0xf7, 0x9c, 0x23, 0xbb, 0x0e, 0xf1, 0xfa, 0x17, 0x64, 0x0c, 0x40, 0x1f, 0x7f,
  0xf9, 0xc7, 0xfa, 0xd0, 0x34, 0x46, 0x1e, 0xff, 0xc3, 0x38, 0x19, 0x5f, 0x55, 0x2c, 0x7c, 0xe8, 0xfe, 0xda, 0xda, 0x20,
  0xae, 0x09, 0xed, 0x3d, 0x06, 0xde, 0x7f, 0xcd, 0x1f, 0xf7, 0xe7, 0xa3, 0xf1, 0x01, 0xd7, 0xde, 0xe7, 0xdd, 0x3c, 0x86,
  0x09, 0xea, 0x0d, 0xd3, 0x0b, 0x3c, 0xea, 0xd2, 0xd1, 0x3b, 0xca, 0x1b, 0xea, 0x11, 0x0a, 0x15, 0x0f, 0x3a, 0x4a, 0x7f,
  0x00, 0xe2, 0x4a, 0x2a, 0xdc, 0x27, 0xdd, 0x3e, 0xf2, 0x59, 0x67, 0x23, 0xd6, 0x14, 0xe6, 0x98, 0xf7, 0x19, 0xdb, 0x65,
  0x0f, 0x9f, 0x65, 0x16, 0xc2, 0x48, 0xbb, 0xd2, 0x91, 0x31, 0xe1, 0x1e, 0x8c, 0xdf, 0xf0, 0x05, 0xa3, 0xa0, 0xac, 0x44,
  0xc9, 0x81, 0x8c, 0xd3, 0xe8, 0xae, 0xe7, 0x39, 0xb9, 0x8a, 0x20, 0xf7, 0xeb, 0xca, 0x15, 0xf8, 0x0e, 0x64, 0x01, 0xd1,
  0xf2, 0xca, 0x7f, 0x64, 0xdc, 0xe7, 0x2a, 0x5e, 0x2d, 0x0f, 0xb2, 0x0c, 0xd7, 0x31, 0x33, 0x11, 0x13, 0x24, 0x15, 0xe1,
  0xf3, 0x73, 0x18, 0xba, 0xcd, 0x2e, 0xfb, 0xd8, 0xf5, 0xf8, 0x30, 0x2c, 0x34, 0xb6, 0x7f, 0xed, 0xef, 0x18, 0x17, 0xe8,
  0x2e, 0x18, 0xd7, 0xea, 0x3f, 0x35, 0x10, 0xc0, 0x20, 0xf6, 0xd5, 0x1e, 0xfc, 0x03, 0x04, 0xd0, 0xf6, 0xc0, 0xda, 0x02,
  0xd1, 0xec, 0x4a, 0x04, 0x50, 0x0b, 0x04, 0x1c, 0x17, 0x57, 0xee, 0xba, 0xfa, 0xc8, 0x0b, 0xdd, 0xe8, 0x23, 0x74, 0x05,
  0x36, 0x56, 0x08, 0x60, 0x37, 0x1b, 0xf2, 0x2f, 0x0a, 0x64, 0x10, 0x42, 0x81, 0x72, 0xb7, 0x6c, 0xdc, 0x45, 0xc0, 0x81,
  0x36, 0xcf, 0x25, 0xbe, 0x16, 0xdb, 0x21, 0xe4, 0x09, 0x15, 0x11, 0xe6, 0x31, 0xf3, 0xf0, 0x21, 0xf4, 0x1b, 0xb2, 0xed,
  0xf3, 0xfa, 0xf5, 0xfc, 0x44, 0x05, 0xef, 0x1f, 0x00, 0xf4, 0x28, 0xf9, 0x3c, 0xe1, 0x51, 0x08, 0xf7, 0x1b, 0x55, 0xd9,
  0xfe, 0x81, 0xa2, 0x0e, 0xc4, 0x68, 0xed, 0x4b, 0x9a, 0xf1, 0x73, 0x1a, 0xfc, 0x74, 0x09, 0xfb, 0xa2, 0x37, 0x89, 0x40,
  0xf3, 0x1a, 0x7f, 0x1b, 0x05, 0xc3, 0xfe, 0xe9, 0x6c, 0xff, 0x5f, 0xec, 0xb7, 0x89, 0x05, 0xe5, 0x89, 0xf3, 0x23, 0xc2,
  0x0c, 0x0c, 0x52, 0x0a, 0xed, 0x18, 0xfd, 0xf6, 0x41, 0x1e, 0x15, 0xcf, 0xa8, 0xad, 0xe0, 0xdd, 0x1a, 0xe2, 0xf1, 0x19,
  0x65, 0x29, 0x12, 0xf1, 0xf1, 0xb5, 0xaf, 0x81, 0x05, 0x52, 0xac, 0x18, 0x16, 0x6d, 0x1d, 0x4f, 0x9c, 0x13, 0xf2, 0x30,
  0xbd, 0x05, 0xc3, 0xc2, 0xf8, 0x20, 0xf6, 0x20, 0x7c, 0xba, 0x1b, 0xe8, 0xe6, 0x33, 0x0b, 0x2b, 0x5b, 0xba, 0xd6, 0xf0,
  0x1c, 0xe6, 0x9a, 0x98, 0x47, 0x39, 0xfe, 0x9b, 0x20, 0x52, 0x34, 0x81, 0x05, 0x2b, 0xd7, 0xd3, 0xd9, 0xd9, 0x3c, 0x98,
  0xba, 0xde, 0xb3, 0x24, 0x0e, 0x52, 0x46, 0xcf, 0xc6, 0x33, 0xb3, 0x4d, 0x81, 0x09, 0xd8, 0x45, 0xfb, 0xe5, 0x52, 0x1b,
  0xbd, 0xd7, 0xda, 0xb2, 0xa6, 0xfe, 0xa8, 0x55, 0x08, 0x25, 0x76, 0x2a, 0x30, 0x17, 0x75, 0xd3, 0xbf, 0x25, 0x02, 0x4a,
  0xab, 0xb3, 0x91, 0xcd, 0x20, 0xd8, 0xf6, 0xd9, 0xbf, 0x3d, 0x3e, 0xde, 0x37, 0x81, 0x20, 0x24, 0xff, 0x60, 0x02, 0x43,
  0x2a, 0xdd, 0xd0, 0xde, 0x35, 0x1b, 0x4d, 0x7a, 0x21, 0x18, 0xce, 0x46, 0x52, 0xa2, 0x39, 0x8f, 0x70, 0x26, 0x40, 0xf8,
  0x0b, 0x46, 0x18, 0x35, 0x3f, 0x4a, 0xad, 0xf6, 0x7f, 0x29, 0xfc, 0xab, 0xa2, 0xf1, 0xff, 0xff, 0x04, 0x00, 0x00, 0x00,
  0x40, 0x00, 0x00, 0x00, 0x6e, 0xfd, 0xff, 0xff, 0x10, 0xfd, 0xff, 0xff, 0xd7, 0x06, 0x00, 0x00, 0x85, 0xfe, 0xff, 0xff,
  0x00, 0x00, 0x00, 0x00, 0xc4, 0x06, 0x00, 0x00, 0x8f, 0x04, 0x00, 0x00, 0x50, 0x05, 0x00, 0x00, 0x21, 0x02, 0x00, 0x00,
  0x41, 0x01, 0x00, 0x00, 0x15, 0x08, 0x00, 0x00, 0x76, 0xfe, 0xff, 0xff, 0x29, 0x02, 0x00, 0x00, 0xf7, 0xfc, 0xff, 0xff,
  0xa8, 0x09, 0x00, 0x00, 0x59, 0x03, 0x00, 0x00, 0xee, 0xf1, 0xff, 0xff, 0x04, 0x00, 0x00, 0x00, 0x00, 0x02, 0x00, 0x00,
  0x37, 0x59, 0xf2, 0x08, 0x35, 0x10, 0x27, 0x0f, 0x4d, 0x7f, 0x57, 0xf6, 0x0f, 0x16, 0x0d, 0x84, 0xd0, 0x17, 0x34, 0xaf,
  0xd7, 0x81, 0x87, 0xbf, 0x47, 0x63, 0x26, 0xa7, 0x48, 0xeb, 0xf1, 0x53, 0x36, 0xd5, 0x81, 0xcf, 0xb6, 0xd6, 0xd8, 0xe5,
  0xdb, 0x2a, 0xf0, 0x41, 0x26, 0xe6, 0xc8, 0x0b, 0x24, 0x5b, 0xec, 0x81, 0xee, 0xe8, 0xb7, 0x50, 0x2f, 0x00, 0xe3, 0xec,
  0xa3, 0xe6, 0x10, 0xc1, 0xcc, 0xb1, 0x7f, 0xd5, 0x15, 0x0a, 0xf5, 0xc9, 0x47, 0xa6, 0x12, 0x05, 0x22, 0xb3, 0xf7, 0x25,
  0x03, 0x72, 0x8a, 0xdb, 0xa7, 0x41, 0xc7, 0x00, 0xb8, 0x58, 0xcc, 0xfc, 0x25, 0x2d, 0x37, 0x7f, 0x43, 0xc2, 0xc8, 0xd7,
  0x1a, 0x3d, 0x81, 0x4c, 0xc5, 0xfa, 0x22, 0x43, 0x07, 0x2d, 0xa0, 0x1a, 0x20, 0x2d, 0x7f, 0xdc, 0x3d, 0xdd, 0xd7, 0xca,
  0x30, 0xe4, 0x7a, 0x68, 0x14, 0x2b, 0x14, 0x81, 0xc4, 0xfc, 0x7f, 0x8c, 0x1f, 0xed, 0x41, 0xc6, 0xe2, 0x4d, 0xc1, 0xfb,
  0x06, 0x1c, 0x0d, 0x68, 0xdb, 0xd5, 0x09, 0x51, 0xf1, 0xca, 0x81, 0x2d, 0xbd, 0x1f, 0xd8, 0x0c, 0x2b, 0x31, 0xa1, 0xa6,
  0x18, 0x78, 0x82, 0xd4, 0x1c, 0xe8, 0x81, 0x11, 0x31, 0x13, 0xd7, 0xef, 0x10, 0xbe, 0x9e, 0x59, 0x17, 0x19, 0xef, 0x03,
  0xf1, 0x0a, 0x02, 0x2a, 0x7f, 0x2f, 0x10, 0xd4, 0x08, 0xca, 0xe0, 0xea, 0xdb, 0xbe, 0xaa, 0xb3, 0xec, 0xfb, 0x3e, 0x7f,
  0xf8, 0xdc, 0xe0, 0xc2, 0x05, 0x75, 0x99, 0xe6, 0x22, 0x10, 0x0d, 0x23, 0xf4, 0xe5, 0xde, 0x3b, 0x56, 0xdb, 0x2d, 0x05,
  0x7f, 0xe8, 0xaa, 0xaa, 0xfd, 0x1c, 0x24, 0xe2, 0x43, 0x2e, 0x7f, 0xe5, 0xd3, 0x37, 0xcd, 0x19, 0x26, 0xd8, 0xf6, 0x16,
  0xc6, 0xe9, 0x8f, 0x81, 0x37, 0x83, 0xc5, 0x3b, 0x08, 0xdb, 0xa5, 0x96, 0x04, 0x48, 0x0e, 0xc9, 0xde, 0x2b, 0x23, 0x9b,
  0x16, 0x14, 0xbf, 0x11, 0xb9, 0x81, 0x11, 0xd2, 0x92, 0x1a, 0x06, 0x41, 0x97, 0xf6, 0xd4, 0xc5, 0x0d, 0x15, 0xbb, 0x1b,
  0x42, 0x81, 0xf3, 0x02, 0x32, 0x46, 0xaa, 0x32, 0xbe, 0xa2, 0x32, 0xdf, 0xe7, 0x41, 0x59, 0x8d, 0x7f, 0xda, 0x31, 0x3e,
  0x3a, 0xcd, 0xe7, 0xc9, 0xc4, 0xcb, 0x7f, 0xf1, 0x4b, 0xaf, 0xed, 0x21, 0xee, 0x0a, 0xb0, 0xc8, 0x30, 0xde, 0x0f, 0xf2,
  0xf3, 0x0b, 0xb2, 0xe2, 0xf9, 0xb7, 0xe3, 0x42, 0x0a, 0x81, 0x98, 0x18, 0xe4, 0x3b, 0x05, 0xef, 0x20, 0x0a, 0xb0, 0x1a,
  0xc8, 0x28, 0x34, 0x82, 0xcd, 0x90, 0x00, 0x15, 0xa4, 0x81, 0x34, 0x52, 0x7f, 0xc2, 0xf0, 0xf2, 0x27, 0x0e, 0x98, 0xdf,
  0x8c, 0xdf, 0xb7, 0x9b, 0xac, 0xd0, 0xe2, 0xbf, 0x05, 0xda, 0xda, 0xc0, 0xf7, 0xe5, 0x81, 0x1f, 0x35, 0x59, 0x05, 0x0e,
  0xd3, 0x3b, 0x18, 0xf9, 0xe8, 0x08, 0xa2, 0xc4, 0xd8, 0x8c, 0x1d, 0x7f, 0xeb, 0xf7, 0xf9, 0x84, 0x28, 0xc2, 0xc0, 0xb0,
  0x01, 0x3d, 0xac, 0x17, 0xb9, 0x0f, 0x03, 0xf4, 0xf5, 0xb0, 0x81, 0x26, 0xe9, 0xf3, 0xd9, 0x3a, 0xc2, 0xee, 0x32, 0xe6,
  0x4e, 0x02, 0x20, 0xb4, 0x26, 0xea, 0x7f, 0x12, 0xff, 0xcc, 0xf4, 0x2c, 0xf0, 0xd4, 0xed, 0xc5, 0xd1, 0xe6, 0xc1, 0x39,
  0x38, 0x81, 0xb1, 0x0c, 0xce, 0x1d, 0x89, 0xcc, 0xd1, 0x43, 0xc1, 0x44, 0x2d, 0x83, 0xdc, 0xa0, 0x81, 0xed, 0xcb, 0xd9,
  0xf2, 0xdf, 0x34, 0x25, 0xb1, 0x0a, 0xa5, 0xea, 0xd6, 0xf8, 0xee, 0x3f, 0xd8, 0xcb, 0x66, 0xff, 0xf0, 0x2d, 0x7f, 0x0a,
  0x1b, 0x1c, 0x7f, 0xc3, 0x2d, 0xa5, 0xf9, 0x1b, 0xf9, 0x9c, 0xc2, 0x39, 0xf1, 0xfe, 0x16, 0x09, 0xca, 0xa5, 0xd1, 0x03,
  0x03, 0xfe, 0x7a, 0xdf, 0xcd, 0x08, 0x38, 0xed, 0xd1, 0xcc, 0x7f, 0x03, 0xfa, 0xf3, 0xff, 0xff, 0x04, 0x00, 0x00, 0x00,
  0x80, 0x00, 0x00, 0x00, 0x84, 0xc0, 0x00, 0x00, 0x3e, 0x08, 0x01, 0x00, 0x37, 0x7f, 0x00, 0x00, 0xcd, 0xc7, 0x00, 0x00,
  0x2c, 0x86, 0x00, 0x00, 0x4b, 0x9f, 0x00, 0x00, 0x60, 0xa6, 0x00, 0x00, 0x57, 0xa1, 0x00, 0x00, 0xf4, 0xc2, 0x00, 0x00,
  0xb0, 0xa2, 0x00, 0x00, 0xd0, 0xec, 0x00, 0x00, 0x6d, 0xa9, 0x00, 0x00, 0xa5, 0xcc, 0x00, 0x00, 0xe1, 0xa1, 0x00, 0x00,
  0x2b, 0x8e, 0x00, 0x00, 0x65, 0xd1, 0x00, 0x00, 0x8a, 0xcd, 0x00, 0x00, 0xe2, 0xb0, 0x00, 0x00, 0x60, 0x96, 0x00, 0x00,
  0x60, 0x73, 0x00, 0x00, 0x35, 0x6a, 0x00, 0x00, 0xe7, 0xcb, 0x00, 0x00, 0x27, 0xc4, 0x00, 0x00, 0x7b, 0x7a, 0x00, 0x00,
  0x73, 0xd5, 0x00, 0x00, 0x1c, 0x71, 0x00, 0x00, 0xe6, 0x6c, 0x00, 0x00, 0x26, 0x9a, 0x00, 0x00, 0x62, 0xb8, 0x00, 0x00,
  0xc2, 0x79, 0x00, 0x00, 0x89, 0x99, 0x00, 0x00, 0xec, 0x98, 0x00, 0x00, 0x86, 0xf4, 0xff, 0xff, 0x04, 0x00, 0x00, 0x00,
  0x00, 0x05, 0x00, 0x00, 0xd8, 0xdd, 0xec, 0xdc, 0x31, 0xcf, 0xed, 0xd1, 0xb8, 0x2f, 0x4c, 0xe2, 0x46, 0x0c, 0x1d, 0xf9,
  0x90, 0x73, 0x51, 0x43, 0xfd, 0x7f, 0x2a, 0xfc, 0x54, 0xdf, 0x03, 0xb0, 0xef, 0xf4, 0x38, 0xb4, 0x25, 0xef, 0x94, 0xdd,
  0xab, 0x7d, 0x3b, 0x9c, 0xbc, 0xea, 0x7f, 0xd6, 0xd8, 0x3c, 0xf7, 0x29, 0xc3, 0x1b, 0xa8, 0x0e, 0x6d, 0xcd, 0x10, 0x09,
  0xf3, 0x43, 0xd1, 0xb9, 0x04, 0xd1, 0xcc, 0xca, 0x62, 0x50, 0x4b, 0x0b, 0xcc, 0xf8, 0x3a, 0x1f, 0x58, 0xac, 0x1d, 0xcc,
  0xd3, 0xc0, 0x08, 0xed, 0xe1, 0x00, 0x1b, 0xf4, 0x81, 0x0d, 0xdb, 0x3c, 0xdb, 0x0d, 0xfb, 0xc6, 0x13, 0xef, 0x10, 0xd3,
  0xfe, 0xc2, 0x7f, 0x1e, 0xce, 0xf0, 0xf9, 0xd2, 0x03, 0xcd, 0x47, 0x0e, 0x4b, 0x25, 0xdb, 0xed, 0x0c, 0xe5, 0x03, 0xca,
  0x2f, 0x45, 0xfb, 0x57, 0x17, 0x82, 0x8c, 0x98, 0x01, 0xcf, 0x1f, 0x0a, 0x52, 0xf7, 0xf4, 0x00, 0x1e, 0xd1, 0xb7, 0x0f,
  0xd2, 0xdd, 0x52, 0xed, 0x7a, 0x0f, 0xd7, 0x03, 0x22, 0x22, 0xbe, 0xef, 0x7f, 0x3c, 0xf9, 0xe7, 0xa7, 0x0a, 0xf1, 0x07,
  0xef, 0xe1, 0xff, 0xeb, 0x29, 0xbf, 0x0d, 0x2d, 0x00, 0xe8, 0x10, 0x10, 0x0a, 0xc8, 0x28, 0x1f, 0xfc, 0xac, 0xf6, 0xce,
  0x39, 0x06, 0xdc, 0xaf, 0x4b, 0x7f, 0xc1, 0x41, 0xa8, 0xca, 0xdf, 0xf4, 0x0d, 0x2d, 0x1c, 0xf4, 0xdf, 0x07, 0x03, 0xd5,
  0x81, 0x25, 0x10, 0xef, 0xb1, 0x23, 0xd5, 0xdb, 0xcc, 0xd6, 0xec, 0xcb, 0xe3, 0xe9, 0xe8, 0x11, 0x61, 0xe7, 0xe8, 0xd8,
  0xa6, 0x58, 0xe6, 0x26, 0xcf, 0x0f, 0xe8, 0x8b, 0x20, 0xd1, 0x08, 0x38, 0xf3, 0xf2, 0xe1, 0xbf, 0xd4, 0xba, 0x57, 0xe1,
  0x29, 0x23, 0xaf, 0x97, 0x31, 0xfd, 0xb4, 0xac, 0x7f, 0xc5, 0xfd, 0xc7, 0xfc, 0xc6, 0x15, 0xd0, 0xe2, 0x35, 0x28, 0x5d,
  0xde, 0x36, 0xce, 0x07, 0xee, 0xf0, 0xd0, 0x08, 0x06, 0x1b, 0x34, 0x21, 0x65, 0xa2, 0x0d, 0x78, 0x7f, 0xa9, 0x00, 0xb3,
  0xff, 0x7a, 0x2c, 0x55, 0xb9, 0x08, 0x95, 0x5c, 0xef, 0xb5, 0x32, 0xff, 0xec, 0xfb, 0xdf, 0xff, 0x63, 0xee, 0xf8, 0xe9,
  0x25, 0x12, 0x14, 0x0b, 0x2b, 0xf5, 0x0a, 0x00, 0x1d, 0x5d, 0x7f, 0x41, 0xf3, 0x44, 0x41, 0xd3, 0xfd, 0x12, 0x1f, 0xef,
  0xf5, 0xf8, 0x16, 0x08, 0x56, 0x0e, 0x31, 0x19, 0x0b, 0xc6, 0x00, 0xf9, 0x18, 0xfd, 0x12, 0xd5, 0x7f, 0xc8, 0xe5, 0xdf,
  0xef, 0x1a, 0x1d, 0xe6, 0x1b, 0x19, 0x14, 0x46, 0xb9, 0x27, 0x05, 0xe8, 0x28, 0x06, 0xe8, 0xe5, 0x46, 0xed, 0xf6, 0x7f,
  0x81, 0x01, 0x10, 0xbf, 0x3f, 0xbe, 0x36, 0xe3, 0xbe, 0xf1, 0xe1, 0xeb, 0x6a, 0xb4, 0xac, 0x96, 0x31, 0x10, 0x03, 0x6d,
  0xf0, 0xf1, 0xd0, 0x32, 0x0a, 0x7b, 0x1b, 0x73, 0x2d, 0xef, 0xbb, 0xd7, 0xdd, 0xe6, 0x10, 0x0a, 0xd1, 0x06, 0xf6, 0xf7,
  0xf1, 0x5a, 0x07, 0xfa, 0x81, 0xcd, 0x06, 0x35, 0xf8, 0x0f, 0xdc, 0xff, 0x98, 0xc1, 0x4a, 0x00, 0x45, 0x01, 0xb6, 0x40,
  0x74, 0xca, 0x2c, 0xfd, 0xed, 0x07, 0xdc, 0xe1, 0x3e, 0x42, 0xf3, 0xc8, 0x1f, 0x34, 0xe2, 0x0f, 0x02, 0xef, 0x2d, 0x0e,
  0xe4, 0x4d, 0x4d, 0x5c, 0x7f, 0xd2, 0xff, 0xcb, 0xc9, 0xb4, 0x78, 0x93, 0x92, 0x59, 0x3b, 0xd6, 0x55, 0xfe, 0x0d, 0xd4,
  0x2d, 0x75, 0x0f, 0xfd, 0x33, 0xfa, 0xcc, 0x1e, 0x02, 0xe4, 0x7f, 0x1f, 0xb7, 0x2e, 0x10, 0xcf, 0xdb, 0xcd, 0x20, 0x29,
  0x03, 0x0c, 0x1a, 0x10, 0xe0, 0x32, 0x01, 0xf7, 0x0c, 0x22, 0x09, 0xef, 0xd7, 0x7f, 0xd1, 0x32, 0x4a, 0xf0, 0x3c, 0x59,
  0xb8, 0x09, 0x20, 0x02, 0x5a, 0x61, 0xfc, 0xc6, 0x08, 0x58, 0x2b, 0x31, 0xe5, 0xe8, 0xe9, 0xfe, 0xcb, 0x1a, 0x25, 0xd8,
  0x51, 0xc6, 0x0b, 0xe9, 0x28, 0x30, 0x34, 0x6c, 0x0e, 0x02, 0xce, 0xe5, 0x22, 0x2c, 0x59, 0x50, 0xe2, 0x81, 0xf9, 0xec,
  0xba, 0x14, 0x3b, 0xef, 0xfb, 0x2a, 0x08, 0xe4, 0x64, 0x3e, 0xdc, 0x00, 0x25, 0xe8, 0x17, 0x24, 0x3f, 0x35, 0x20, 0xa5,
  0xf6, 0xeb, 0xde, 0xf0, 0x4d, 0x7f, 0x21, 0xf2, 0xe1, 0xeb, 0x08, 0xdd, 0xe7, 0xf2, 0x05, 0x03, 0xec, 0x05, 0x45, 0xf1,
  0x23, 0x29, 0x46, 0xe9, 0x5c, 0xcc, 0xbb, 0x18, 0x0b, 0xd8, 0x27, 0xfa, 0x5e, 0xe4, 0xbb, 0x19, 0x3e, 0xd8, 0x0f, 0xc7,
  0x7f, 0x20, 0xd7, 0x08, 0xee, 0x0f, 0xc6, 0xf3, 0xf9, 0x0b, 0x0b, 0xca, 0x7f, 0xf1, 0xe6, 0xf1, 0xb3, 0x2d, 0x3b, 0xe8,
  0xd8, 0xd1, 0xe0, 0x97, 0x9e, 0x08, 0x1d, 0xf0, 0xf2, 0xe6, 0xc5, 0x07, 0xef, 0x92, 0x09, 0xbf, 0xce, 0xe9, 0xac, 0x44,
  0x1e, 0xdc, 0xae, 0x18, 0x18, 0x06, 0x1c, 0x0c, 0xbc, 0x2f, 0x05, 0xc5, 0x7f, 0x12, 0x79, 0x34, 0xd3, 0x34, 0xe7, 0x1d,
  0x3a, 0xcc, 0xef, 0x09, 0xfa, 0xfa, 0x0c, 0x32, 0xfb, 0xeb, 0xcc, 0x18, 0xaf, 0xe1, 0x08, 0x3c, 0xe9, 0x35, 0xe1, 0x49,
  0xb3, 0xf5, 0xec, 0xcb, 0xcf, 0xf0, 0x29, 0xc8, 0x09, 0xdd, 0xae, 0xda, 0x25, 0xff, 0xdd, 0xb5, 0x1b, 0xe4, 0xf0, 0x28,
  0xf9, 0x01, 0xc7, 0x08, 0xfc, 0x7f, 0x1e, 0x43, 0x00, 0xd2, 0x81, 0xee, 0x13, 0xe9, 0xe1, 0x13, 0xfa, 0x15, 0xfe, 0xd7,
  0xb9, 0xd1, 0x67, 0xe0, 0x11, 0xa7, 0x4d, 0x4e, 0x21, 0x9d, 0xe8, 0x10, 0xad, 0x13, 0xea, 0x26, 0x1b, 0xa7, 0x03, 0x0c,
  0x76, 0xca, 0xe3, 0x2c, 0x28, 0x7f, 0x04, 0xf0, 0xf9, 0xe8, 0xfc, 0xf7, 0xff, 0xd7, 0x21, 0xe6, 0xc3, 0x1f, 0x33, 0xdc,
  0xa2, 0xef, 0x18, 0xad, 0xfb, 0x12, 0xf2, 0xfa, 0xf8, 0xde, 0xc7, 0xd9, 0xeb, 0x1d, 0x39, 0xb8, 0xee, 0x00, 0x0f, 0xf0,
  0x09, 0x5e, 0xf1, 0x23, 0x1a, 0xd2, 0xb1, 0x1b, 0xb8, 0x05, 0x81, 0x14, 0x44, 0x15, 0x2c, 0x93, 0xf1, 0xed, 0x51, 0x12,
  0xfc, 0xf6, 0xfe, 0xb9, 0x12, 0x2a, 0x32, 0x37, 0xe7, 0xe5, 0x1b, 0xef, 0xb7, 0xf1, 0x3f, 0x28, 0x7f, 0x0b, 0xdb, 0x13,
  0x49, 0x48, 0xbb, 0xfa, 0xe3, 0x86, 0x1b, 0x43, 0x51, 0x0b, 0x06, 0xe4, 0xfb, 0xfe, 0x04, 0x1f, 0x33, 0xd5, 0x25, 0x28,
  0x96, 0xe9, 0x11, 0xf6, 0xdb, 0xa2, 0x3c, 0xe9, 0x00, 0x17, 0xc4, 0x96, 0xe4, 0xe3, 0x81, 0xa6, 0xeb, 0x96, 0xfb, 0xfe,
  0x08, 0xbe, 0x1d, 0xa3, 0xf6, 0x57, 0x01, 0x28, 0x14, 0xab, 0x09, 0x14, 0xa0, 0xf6, 0x0f, 0xed, 0xd3, 0xd6, 0x0c, 0xf2,
  0xdc, 0xfb, 0xfd, 0xad, 0x1b, 0xf9, 0x81, 0xef, 0x10, 0xa9, 0xd7, 0x1a, 0x0a, 0xf4, 0xf8, 0x02, 0xf1, 0x20, 0x03, 0x27,
  0xe3, 0x19, 0xe9, 0x63, 0x99, 0x63, 0xdc, 0xf7, 0x0a, 0xce, 0xa8, 0xee, 0x8a, 0xe1, 0x0c, 0xd3, 0x13, 0x23, 0xca, 0xbc,
  0x0a, 0xb3, 0xdb, 0x29, 0x1f, 0xed, 0xab, 0x26, 0x26, 0x1f, 0x81, 0x30, 0x00, 0x36, 0xf5, 0xe9, 0xed, 0x0b, 0xe2, 0xd0,
  0x28, 0x81, 0x2c, 0xdf, 0xbf, 0xe3, 0xd5, 0xa9, 0xe1, 0x32, 0x04, 0xcf, 0xd0, 0x2e, 0xf5, 0xba, 0xfa, 0x38, 0x5c, 0xc7,
  0xe8, 0xe0, 0xe2, 0x35, 0xfa, 0xe6, 0x11, 0xe5, 0xc5, 0x7f, 0xef, 0x1d, 0xed, 0x1a, 0x45, 0xe4, 0xbd, 0xfe, 0x0c, 0xe8,
  0x0b, 0x01, 0xe1, 0xf8, 0x02, 0xc3, 0xe6, 0x8d, 0x17, 0x47, 0xc3, 0xd2, 0xe6, 0x0d, 0xbf, 0xdd, 0xe0, 0x22, 0x38, 0xde,
  0x44, 0xf1, 0xe1, 0xad, 0x26, 0xd2, 0xe3, 0x1d, 0x6b, 0xf4, 0xb4, 0x3a, 0xe7, 0x7f, 0x7a, 0x86, 0x27, 0xec, 0x28, 0x02,
  0x09, 0x1c, 0xc0, 0x16, 0xf8, 0xc5, 0x42, 0xc8, 0x70, 0xfa, 0xa1, 0x49, 0xf5, 0x45, 0x39, 0xe3, 0xd3, 0xb1, 0xbc, 0xbf,
  0xcb, 0xe8, 0xe9, 0xf0, 0xbc, 0xe5, 0xd2, 0xe0, 0x7f, 0xaf, 0x02, 0xd7, 0xda, 0xbf, 0x0a, 0x2a, 0x35, 0xc1, 0xa1, 0x3f,
  0xf4, 0x19, 0xb9, 0xfb, 0xd1, 0x7f, 0xbb, 0xdb, 0x20, 0xf5, 0x86, 0xe5, 0x01, 0xd7, 0x0d, 0xfe, 0x3f, 0x50, 0x18, 0xc0,
  0x97, 0xc1, 0xcb, 0x04, 0x35, 0xef, 0xe7, 0xe6, 0xef, 0x20, 0x02, 0xcd, 0xc8, 0x9e, 0xed, 0xf4, 0x81, 0x40, 0xee, 0xd7,
  0xdf, 0x0c, 0xc8, 0xbb, 0xa8, 0x2b, 0x02, 0x0b, 0xe3, 0xb7, 0x8f, 0x21, 0x4b, 0xda, 0xd2, 0xf8, 0xba, 0x1a, 0xa7, 0x23,
  0xe0, 0xc9, 0xa4, 0xfc, 0xd9, 0xcd, 0x92, 0x27, 0xf2, 0x3e, 0x15, 0xe8, 0x3d, 0x22, 0x98, 0x01, 0x04, 0xf7, 0x4d, 0x29,
  0xf4, 0xf8, 0x58, 0x5d, 0x4b, 0xbb, 0xd2, 0xa7, 0xe8, 0x78, 0xe4, 0x19, 0xb0, 0xec, 0x1f, 0x81, 0x43, 0x3a, 0x09, 0xbd,
  0x1b, 0xf1, 0x10, 0x1c, 0xc2, 0x21, 0xfe, 0xf1, 0xfb, 0x15, 0x2f, 0xe4, 0x91, 0xbf, 0x07, 0xfc, 0xee, 0xd3, 0x10, 0x7f,
  0x05, 0xc2, 0x20, 0xef, 0x30, 0xef, 0xc0, 0x38, 0xfc, 0x1d, 0xdc, 0x09, 0x44, 0x26, 0xd9, 0x23, 0x13, 0x41, 0x1b, 0xf9,
  0x1a, 0xf1, 0x24, 0x31, 0xf6, 0x1d, 0x7f, 0x08, 0xfe, 0x3c, 0xea, 0xcb, 0xfe, 0x19, 0xf9, 0xf7, 0x07, 0x01, 0x05, 0x2e,
  0x33, 0x18, 0xf1, 0x0c, 0xec, 0xfb, 0x31, 0x01, 0xd3, 0xa8, 0x1c, 0x81, 0x1d, 0xfd, 0x83, 0x1b, 0xf2, 0x19, 0xd1, 0xd9,
  0x20, 0xbc, 0xcc, 0x35, 0x42, 0xbc, 0xfa, 0xdf, 0x03, 0xcb, 0x3f, 0xea, 0x0b, 0xfe, 0xee, 0xe9, 0xf0, 0xb3, 0xff, 0xcd,
  0xfa, 0xed, 0x4d, 0xcb, 0xd6, 0x18, 0x81, 0x38, 0xf1, 0x08, 0x52, 0xaa, 0x00, 0x32, 0x21, 0xed, 0xf1, 0xd4, 0x35, 0xce,
  0x09, 0x02, 0x39, 0x12, 0x92, 0xf9, 0xff, 0xff, 0x04, 0x00, 0x00, 0x00, 0xa0, 0x00, 0x00, 0x00, 0xcc, 0x00, 0x00, 0x00,
  0x7e, 0xfb, 0xff, 0xff, 0x9f, 0xfc, 0xff, 0xff, 0xba, 0x03, 0x00, 0x00, 0xac, 0xfa, 0xff, 0xff, 0x54, 0xfc, 0xff, 0xff,
  0x33, 0x12, 0x00, 0x00, 0x7e, 0xfe, 0xff, 0xff, 0xe4, 0xec, 0xff, 0xff, 0xf5, 0xf0, 0xff, 0xff, 0x52, 0xf8, 0xff, 0xff,
  0x15, 0xef, 0xff, 0xff, 0x28, 0x0f, 0x00, 0x00, 0xcc, 0xf6, 0xff, 0xff, 0x8b, 0xfa, 0xff, 0xff, 0xfb, 0xef, 0xff, 0xff,
  0xcd, 0xfc, 0xff, 0xff, 0x2e, 0xf4, 0xff, 0xff, 0x34, 0xfb, 0xff, 0xff, 0x19, 0x19, 0x00, 0x00, 0x51, 0xeb, 0xff, 0xff,
  0x07, 0x01, 0x00, 0x00, 0x03, 0x12, 0x00, 0x00, 0x30, 0x03, 0x00, 0x00, 0x63, 0x0a, 0x00, 0x00, 0xb6, 0xee, 0xff, 0xff,
  0x11, 0x10, 0x00, 0x00, 0xd0, 0x0c, 0x00, 0x00, 0xe2, 0x10, 0x00, 0x00, 0xf6, 0x09, 0x00, 0x00, 0xd5, 0x00, 0x00, 0x00,
  0x89, 0xff, 0xff, 0xff, 0xef, 0x12, 0x00, 0x00, 0x6b, 0x07, 0x00, 0x00, 0x2a, 0x21, 0x00, 0x00, 0x51, 0x02, 0x00, 0x00,
  0xcd, 0x06, 0x00, 0x00, 0x3d, 0xee, 0xff, 0xff, 0xc7, 0x0f, 0x00, 0x00, 0x43, 0x0c, 0x00, 0x00, 0x3e, 0xfa, 0xff, 0xff,
  0x04, 0x00, 0x00, 0x00, 0x60, 0x04, 0x00, 0x00, 0x10, 0x16, 0xf4, 0x14, 0x4b, 0xed, 0x5e, 0xe0, 0x1c, 0x31, 0x1c, 0x5e,
  0xb9, 0x0e, 0x3a, 0x54, 0x10, 0x39, 0x18, 0x35, 0x06, 0x63, 0xdc, 0xb2, 0x01, 0xeb, 0xf4, 0xba, 0x38, 0xd9, 0x64, 0x6f,
  0xd7, 0xe1, 0x21, 0x5c, 0xc4, 0x12, 0xf8, 0xd8, 0xf4, 0x0f, 0x22, 0xfe, 0x0b, 0x28, 0x42, 0xf1, 0xfb, 0x16, 0x0d, 0x1c,
  0xc6, 0xf2, 0xbe, 0x15, 0xb0, 0x21, 0x58, 0x28, 0xff, 0x49, 0xf0, 0x2b, 0xe7, 0xec, 0xe5, 0x14, 0x09, 0x20, 0x2b, 0x38,
  0xc4, 0x1f, 0xca, 0x0b, 0xdd, 0x0c, 0xeb, 0x17, 0x56, 0xf9, 0x29, 0xe7, 0x1c, 0x78, 0x38, 0x61, 0x21, 0x05, 0x26, 0xd5,
  0x11, 0xd2, 0xc1, 0x0c, 0xc8, 0x11, 0xec, 0x03, 0x16, 0x37, 0xb5, 0xd7, 0x45, 0x35, 0x25, 0x20, 0x5e, 0xf7, 0xfe, 0x34,
  0x3b, 0xf6, 0x19, 0xf6, 0x9d, 0x17, 0x1c, 0x21, 0x03, 0x0d, 0x42, 0x0a, 0x4e, 0x67, 0x25, 0x22, 0x5e, 0x23, 0x2b, 0x1a,
  0xc9, 0x12, 0x27, 0x07, 0xee, 0xe7, 0xf3, 0x24, 0x12, 0x3e, 0xcb, 0xb8, 0x4a, 0x22, 0x1a, 0x0d, 0xdf, 0x00, 0x26, 0x1c,
  0xfd, 0x56, 0x42, 0x16, 0x99, 0x11, 0xd2, 0x26, 0xd8, 0xba, 0x0b, 0xcb, 0xf6, 0x3a, 0x41, 0x70, 0x4d, 0x4c, 0x12, 0x25,
  0xd2, 0xda, 0x27, 0xfa, 0xee, 0xca, 0x23, 0x44, 0x09, 0xff, 0xf2, 0x14, 0xf6, 0x39, 0xe1, 0x52, 0x43, 0x2b, 0x42, 0x2e,
  0xc3, 0x22, 0x26, 0xeb, 0x1c, 0xdb, 0x2c, 0x2e, 0xbb, 0x46, 0x3c, 0x31, 0x1d, 0x31, 0x18, 0xcc, 0x29, 0x27, 0xe6, 0x43,
  0xd2, 0xdf, 0x4e, 0xe2, 0xfa, 0xd6, 0x01, 0x0d, 0xde, 0x54, 0xa9, 0x34, 0xf0, 0x30, 0x7b, 0x01, 0x07, 0xdd, 0x04, 0x0a,
  0x30, 0x2e, 0x19, 0x1a, 0xed, 0x32, 0xf9, 0x10, 0x16, 0x14, 0xe4, 0xf1, 0x2f, 0xdf, 0x05, 0xfb, 0x50, 0x5e, 0xdc, 0x48,
  0xf5, 0xcb, 0x25, 0xc9, 0x3d, 0xe0, 0x19, 0x28, 0xdc, 0x04, 0xc5, 0x22, 0xf5, 0xf9, 0x7f, 0x32, 0xc6, 0x29, 0x0c, 0x0f,
  0x13, 0xf7, 0x51, 0x3b, 0xcf, 0x5f, 0x2c, 0xf5, 0xc7, 0x09, 0xe0, 0x85, 0xd2, 0xd6, 0x22, 0x01, 0xf7, 0xe4, 0xee, 0x13,
  0xe7, 0xbf, 0x0f, 0x11, 0xe4, 0xda, 0xb4, 0x1f, 0x12, 0x26, 0x1b, 0x05, 0x1c, 0xf7, 0xd2, 0x07, 0x0d, 0xd7, 0x1b, 0xcf,
  0xea, 0xf7, 0x06, 0x2d, 0x08, 0x07, 0xe6, 0xaa, 0xad, 0x15, 0xd8, 0x90, 0x05, 0xe2, 0x02, 0x08, 0xdf, 0xd3, 0x01, 0x14,
  0xdc, 0xd6, 0x00, 0xf3, 0xe3, 0xe3, 0xdb, 0x19, 0xe3, 0xf6, 0x23, 0x03, 0xfc, 0xde, 0xd0, 0x16, 0xf3, 0xf0, 0x24, 0xcc,
  0xf5, 0x05, 0xf6, 0x17, 0x17, 0xfc, 0xd0, 0xbe, 0xdb, 0x1a, 0xf4, 0x95, 0xdf, 0xee, 0xfd, 0xc2, 0xe9, 0xde, 0xd4, 0x04,
  0x05, 0xc9, 0x15, 0xfe, 0xe5, 0xf0, 0xdf, 0x13, 0xe2, 0xec, 0x0b, 0xf2, 0x0e, 0x0b, 0xea, 0xf9, 0x03, 0xda, 0x10, 0xf2,
  0x23, 0xf1, 0x27, 0x0c, 0xf8, 0xf0, 0xfc, 0xb9, 0xef, 0x25, 0xf4, 0x81, 0xdb, 0xc4, 0x03, 0x8e, 0xfe, 0xe6, 0xd7, 0x03,
  0xe3, 0xec, 0x1e, 0x0c, 0xde, 0xe8, 0xd3, 0x0b, 0xed, 0xce, 0x24, 0x0c, 0x00, 0xf8, 0xba, 0xed, 0xe9, 0xc6, 0x10, 0xf4,
  0x01, 0xf6, 0x2f, 0xfc, 0xfb, 0x26, 0xbf, 0x97, 0xee, 0xfe, 0xde, 0xa1, 0x00, 0xd8, 0x1b, 0xca, 0xf1, 0x09, 0xe3, 0xb9,
  0xec, 0xf1, 0x17, 0x0b, 0x03, 0xf4, 0xbd, 0x2d, 0xd4, 0xad, 0x1f, 0x03, 0xf5, 0x0a, 0xb1, 0x17, 0x09, 0xd6, 0xf9, 0x0d,
  0xf9, 0x07, 0x32, 0xf7, 0x1f, 0x13, 0xf2, 0xb4, 0xde, 0x22, 0x0a, 0xc1, 0xd6, 0xd2, 0x05, 0xe3, 0xef, 0x20, 0xed, 0xbd,
  0xf9, 0xe8, 0xfa, 0x0e, 0xef, 0xf7, 0xd5, 0x1f, 0xd5, 0xc9, 0x00, 0xef, 0x24, 0x0c, 0xb3, 0xf3, 0xf3, 0xbf, 0x0b, 0xee,
  0x2c, 0x18, 0x18, 0x06, 0x03, 0x05, 0xee, 0xa3, 0x07, 0x17, 0xfb, 0x9a, 0xe1, 0xc8, 0x05, 0xac, 0x11, 0x2e, 0xd5, 0xea,
  0xfe, 0xf4, 0xee, 0x18, 0x0a, 0x1d, 0xf3, 0x17, 0xcf, 0xc3, 0x14, 0xf9, 0x09, 0xf4, 0xc6, 0xec, 0xed, 0xd8, 0xf4, 0x01,
  0x13, 0xfd, 0x34, 0xfa, 0xf8, 0x18, 0xe7, 0xbe, 0x0c, 0xe4, 0xd5, 0xde, 0x0a, 0xde, 0x08, 0xff, 0x02, 0x1e, 0x2d, 0xa4,
  0x16, 0xfb, 0xf0, 0x0f, 0x17, 0x28, 0xed, 0xd9, 0xd1, 0xc2, 0x23, 0xf2, 0xfc, 0xf3, 0xaa, 0xe7, 0xe6, 0x0e, 0xfe, 0x37,
  0xea, 0x06, 0xfd, 0x32, 0xee, 0x24, 0x0c, 0x1c, 0x21, 0xd9, 0xcf, 0xfd, 0xed, 0xe5, 0x0c, 0x05, 0xe6, 0xf1, 0x2a, 0xea,
  0xfd, 0x16, 0x19, 0xe8, 0x0e, 0xef, 0xf5, 0xae, 0xf6, 0xec, 0x22, 0x00, 0x2b, 0x06, 0xe9, 0xbb, 0xd8, 0x06, 0xde, 0x05,
  0xbf, 0xf3, 0xe0, 0x36, 0xe6, 0xeb, 0xde, 0x29, 0x2c, 0xea, 0xc3, 0x08, 0x0c, 0xed, 0xf4, 0xe3, 0xf7, 0x16, 0x03, 0xdd,
  0x1e, 0xfa, 0xee, 0x04, 0x2d, 0xfa, 0xe7, 0xce, 0xf4, 0xfe, 0x0d, 0x07, 0x0a, 0xf0, 0x05, 0xa7, 0x9a, 0xfc, 0xf3, 0x28,
  0xd6, 0xeb, 0xc6, 0x0d, 0xf6, 0xf9, 0xed, 0x25, 0x1e, 0xe8, 0xbd, 0x30, 0xf8, 0xf1, 0xf4, 0xd0, 0x13, 0x2b, 0xd3, 0xf5,
  0x0d, 0xee, 0x26, 0x2b, 0x39, 0xf8, 0x0f, 0xb9, 0xe9, 0xfc, 0x07, 0xda, 0xff, 0xe7, 0xe3, 0xa9, 0x81, 0x04, 0xcf, 0x1c,
  0x92, 0xd6, 0xc2, 0x25, 0xf8, 0xde, 0xe0, 0x0d, 0x31, 0xd1, 0xa7, 0x18, 0x20, 0xf7, 0xe2, 0x04, 0x0d, 0x0b, 0xdd, 0x22,
  0x17, 0xfd, 0xfe, 0x11, 0x1c, 0xe3, 0x12, 0x9f, 0x08, 0xe1, 0x19, 0xcd, 0x2b, 0xcc, 0x0c, 0x98, 0x98, 0x09, 0xcd, 0xfb,
  0xbe, 0xea, 0xb2, 0x21, 0x24, 0xeb, 0xf2, 0xe6, 0x09, 0xd0, 0xd0, 0x24, 0x0f, 0x0e, 0xf4, 0xea, 0x10, 0x05, 0x00, 0xfa,
  0x17, 0x10, 0x06, 0xf4, 0xec, 0xef, 0x12, 0xaf, 0xe3, 0xfd, 0xe5, 0xc8, 0xfb, 0xd9, 0xf2, 0x95, 0xa2, 0x08, 0xc3, 0x02,
  0xbc, 0xeb, 0xb3, 0x0a, 0x20, 0x1b, 0xd1, 0xfe, 0x29, 0xc6, 0xd7, 0x1a, 0xff, 0xed, 0xc6, 0xf3, 0x0b, 0xfa, 0x1b, 0x13,
  0x18, 0x05, 0xf9, 0x00, 0x15, 0x10, 0x2d, 0xd3, 0xee, 0x1b, 0xed, 0xb9, 0x04, 0xd6, 0xe3, 0xb5, 0xaa, 0x0f, 0xdc, 0xfa,
  0xc2, 0xe6, 0xaa, 0x19, 0x10, 0x17, 0xda, 0x0e, 0xfd, 0xf1, 0x0f, 0x19, 0xef, 0xea, 0xc1, 0x01, 0x2b, 0xf2, 0xff, 0x06,
  0x08, 0x11, 0x14, 0xe3, 0x0c, 0x16, 0x10, 0xfc, 0x14, 0x19, 0xfa, 0xec, 0xdb, 0xff, 0x20, 0xfa, 0x10, 0xf9, 0x00, 0xfc,
  0x07, 0xd9, 0x10, 0xa3, 0x11, 0xe9, 0xf5, 0xfe, 0xec, 0xf1, 0x0b, 0x03, 0xf2, 0x16, 0xd5, 0x15, 0x07, 0x00, 0x06, 0x06,
  0x08, 0x0e, 0xe6, 0xb1, 0xfa, 0xf7, 0x03, 0xfa, 0x1c, 0x02, 0xed, 0x0d, 0xb9, 0xfe, 0xf9, 0x0b, 0xff, 0x18, 0xfb, 0xf1,
  0x0c, 0xcd, 0xf7, 0x84, 0x14, 0xf0, 0x0f, 0x06, 0x0e, 0xef, 0x16, 0x10, 0xf1, 0x15, 0xd9, 0x1a, 0x0a, 0xf2, 0xf9, 0xff,
  0x20, 0xfe, 0xed, 0xbe, 0x0a, 0x12, 0xee, 0x01, 0x08, 0x1e, 0xe8, 0xf7, 0xd2, 0x1b, 0x16, 0xf4, 0x23, 0x16, 0xea, 0xf3,
  0x25, 0xe0, 0x01, 0x81, 0xfd, 0xfb, 0x0f, 0x05, 0xf6, 0xfe, 0x0f, 0x1c, 0x11, 0xff, 0xde, 0xf8, 0x06, 0xef, 0xfa, 0x27,
  0x14, 0x0d, 0xd8, 0xaa, 0x1c, 0x05, 0x0a, 0x05, 0x12, 0x07, 0xef, 0xf6, 0xe7, 0x23, 0x0b, 0xfa, 0x16, 0x21, 0xf8, 0xdb,
  0x08, 0xf2, 0xf3, 0x8d, 0xfb, 0xed, 0x07, 0x08, 0xf8, 0xf7, 0xfc, 0x01, 0xf5, 0x11, 0xe2, 0x01, 0xf1, 0xf7, 0xf8, 0x1e,
  0x0d, 0x15, 0xc3, 0xda, 0x02, 0x02, 0xff, 0x1b, 0x0e, 0x1d, 0xf6, 0xf4, 0xcf, 0x11, 0xf3, 0x03, 0x16, 0x26, 0x18, 0x0d,
  0x07, 0xef, 0xf7, 0xd5, 0x16, 0xd2, 0xfb, 0xfd, 0xe4, 0x12, 0x01, 0x1f, 0x06, 0x0d, 0xf9, 0xeb, 0xcb, 0xca, 0x07, 0x21,
  0x06, 0x06, 0xf2, 0xd9, 0x16, 0x02, 0xe1, 0x0a, 0x0a, 0x1a, 0xe2, 0x14, 0xcd, 0x0b, 0x11, 0xf7, 0x1d, 0x02, 0xfa, 0xfd,
  0xfa, 0xff, 0xde, 0xd2, 0x1c, 0xd0, 0x09, 0x1a, 0x0c, 0x21, 0x10, 0xf9, 0x17, 0xf6, 0xdd, 0x10, 0xc4, 0xcd, 0xf9, 0xfd,
  0x22, 0x0b, 0xbd, 0xd3, 0x0d, 0xec, 0xf4, 0x0a, 0x13, 0x03, 0xe1, 0xef, 0xe5, 0x13, 0x18, 0x08, 0x06, 0x1d, 0xf3, 0xfe,
  0x0a, 0xed, 0xfd, 0xeb, 0xf9, 0x09, 0xfe, 0xf9, 0xaa, 0xfe, 0xff, 0xff, 0x04, 0x00, 0x00, 0x00, 0x10, 0x00, 0x00, 0x00,
  0x2d, 0x00, 0x00, 0x00, 0xae, 0xfd, 0xff, 0xff, 0xab, 0x02, 0x00, 0x00, 0x42, 0xff, 0xff, 0xff, 0xc6, 0xfe, 0xff, 0xff,
  0x04, 0x00, 0x00, 0x00, 0x0c, 0x00, 0x00, 0x00, 0x01, 0x00, 0x00, 0x00, 0x00, 0x01, 0x00, 0x00, 0x04, 0x00, 0x00, 0x00,
  0xde, 0xfe, 0xff, 0xff, 0x04, 0x00, 0x00, 0x00, 0x08, 0x00, 0x00, 0x00, 0x01, 0x00, 0x00, 0x00, 0x02, 0x00, 0x00, 0x00,
  0xf2, 0xfe, 0xff, 0xff, 0x04, 0x00, 0x00, 0x00, 0x10, 0x00, 0x00, 0x00, 0x01, 0x00, 0x00, 0x00, 0x01, 0x00, 0x00, 0x00,
  0x00, 0x01, 0x00, 0x00, 0x01, 0x00, 0x00, 0x00, 0x10, 0xb3, 0xff, 0xff, 0x14, 0xb3, 0xff, 0xff, 0x0f, 0x00, 0x00, 0x00,
  0x4d, 0x4c, 0x49, 0x52, 0x20, 0x43, 0x6f, 0x6e, 0x76, 0x65, 0x72, 0x74, 0x65, 0x64, 0x2e, 0x00, 0x01, 0x00, 0x00, 0x00,
  0x14, 0x00, 0x00, 0x00, 0x00, 0x00, 0x0e, 0x00, 0x18, 0x00, 0x14, 0x00, 0x10, 0x00, 0x0c, 0x00, 0x08, 0x00, 0x04, 0x00,
  0x0e, 0x00, 0x00, 0x00, 0x14, 0x00, 0x00, 0x00, 0x1c, 0x00, 0x00, 0x00, 0x7c, 0x07, 0x00, 0x00, 0x80, 0x07, 0x00, 0x00,
  0x84, 0x07, 0x00, 0x00, 0x04, 0x00, 0x00, 0x00, 0x6d, 0x61, 0x69, 0x6e, 0x00, 0x00, 0x00, 0x00, 0x1f, 0x00, 0x00, 0x00,
  0x40, 0x07, 0x00, 0x00, 0xe4, 0x06, 0x00, 0x00, 0x7c, 0x06, 0x00, 0x00, 0x2c, 0x06, 0x00, 0x00, 0xd0, 0x05, 0x00, 0x00,
  0x90, 0x05, 0x00, 0x00, 0x4c, 0x05, 0x00, 0x00, 0x0c, 0x05, 0x00, 0x00, 0xe4, 0x04, 0x00, 0x00, 0xb4, 0x04, 0x00, 0x00,
  0x80, 0x04, 0x00, 0x00, 0x3c, 0x04, 0x00, 0x00, 0xf0, 0x03, 0x00, 0x00, 0xb8, 0x03, 0x00, 0x00, 0x74, 0x03, 0x00, 0x00,
  0x34, 0x03, 0x00, 0x00, 0x0c, 0x03, 0x00, 0x00, 0xe8, 0x02, 0x00, 0x00, 0xb4, 0x02, 0x00, 0x00, 0x70, 0x02, 0x00, 0x00,
  0x24, 0x02, 0x00, 0x00, 0xec, 0x01, 0x00, 0x00, 0xa8, 0x01, 0x00, 0x00, 0x68, 0x01, 0x00, 0x00, 0x40, 0x01, 0x00, 0x00,
  0x1c, 0x01, 0x00, 0x00, 0xe8, 0x00, 0x00, 0x00, 0xa4, 0x00, 0x00, 0x00, 0x64, 0x00, 0x00, 0x00, 0x40, 0x00, 0x00, 0x00,
  0x04, 0x00, 0x00, 0x00, 0xa2, 0xf9, 0xff, 0xff, 0x1c, 0x00, 0x00, 0x00, 0x00, 0x00, 0x00, 0x09, 0x1c, 0x00, 0x00, 0x00,
  0x20, 0x00, 0x00, 0x00, 0x07, 0x00, 0x00, 0x00, 0x00, 0x00, 0x06, 0x00, 0x08, 0x00, 0x04, 0x00, 0x06, 0x00, 0x00, 0x00,
  0x00, 0x00, 0x80, 0x3f, 0x01, 0x00, 0x00, 0x00, 0x45, 0x00, 0x00, 0x00, 0x01, 0x00, 0x00, 0x00, 0x44, 0x00, 0x00, 0x00,
  0x7e, 0xf9, 0xff, 0xff, 0x08, 0x00, 0x00, 0x00, 0x0c, 0x00, 0x00, 0x00, 0x01, 0x00, 0x00, 0x00, 0x44, 0x00, 0x00, 0x00,
  0x02, 0x00, 0x00, 0x00, 0x43, 0x00, 0x00, 0x00, 0x03, 0x00, 0x00, 0x00, 0xfa, 0xf9, 0xff, 0xff, 0x14, 0x00, 0x00, 0x00,
  0x00, 0x00, 0x00, 0x01, 0x18, 0x00, 0x00, 0x00, 0x1c, 0x00, 0x00, 0x00, 0x02, 0x00, 0x00, 0x00, 0xb6, 0xf9, 0xff, 0xff,
  0x01, 0x00, 0x00, 0x00, 0x01, 0x00, 0x00, 0x00, 0x01, 0x00, 0x00, 0x00, 0x43, 0x00, 0x00, 0x00, 0x03, 0x00, 0x00, 0x00,
  0x42, 0x00, 0x00, 0x00, 0x05, 0x00, 0x00, 0x00, 0x04, 0x00, 0x00, 0x00, 0x36, 0xfa, 0xff, 0xff, 0x14, 0x00, 0x00, 0x00,
  0x00, 0x00, 0x00, 0x01, 0x1c, 0x00, 0x00, 0x00, 0x20, 0x00, 0x00, 0x00, 0x02, 0x00, 0x00, 0x00, 0xd8, 0xfa, 0xff, 0xff,
  0x00, 0x00, 0x00, 0x03, 0x01, 0x00, 0x00, 0x00, 0x01, 0x00, 0x00, 0x00, 0x01, 0x00, 0x00, 0x00, 0x42, 0x00, 0x00, 0x00,
  0x03, 0x00, 0x00, 0x00, 0x41, 0x00, 0x00, 0x00, 0x07, 0x00, 0x00, 0x00, 0x06, 0x00, 0x00, 0x00, 0x76, 0xfa, 0xff, 0xff,
  0x14, 0x00, 0x00, 0x00, 0x00, 0x00, 0x00, 0x15, 0x10, 0x00, 0x00, 0x00, 0x14, 0x00, 0x00, 0x00, 0x06, 0x00, 0x00, 0x00,
  0xd4, 0xb4, 0xff, 0xff, 0x01, 0x00, 0x00, 0x00, 0x41, 0x00, 0x00, 0x00, 0x02, 0x00, 0x00, 0x00, 0x3b, 0x00, 0x00, 0x00,
  0x40, 0x00, 0x00, 0x00, 0x86, 0xfc, 0xff, 0xff, 0x0c, 0x00, 0x00, 0x00, 0x10, 0x00, 0x00, 0x00, 0x05, 0x00, 0x00, 0x00,
  0x01, 0x00, 0x00, 0x00, 0x40, 0x00, 0x00, 0x00, 0x01, 0x00, 0x00, 0x00, 0x3f, 0x00, 0x00, 0x00, 0xa6, 0xfc, 0xff, 0xff,
  0x0c, 0x00, 0x00, 0x00, 0x10, 0x00, 0x00, 0x00, 0x04, 0x00, 0x00, 0x00, 0x01, 0x00, 0x00, 0x00, 0x3f, 0x00, 0x00, 0x00,
  0x02, 0x00, 0x00, 0x00, 0x3e, 0x00, 0x00, 0x00, 0x1a, 0x00, 0x00, 0x00, 0xea, 0xfa, 0xff, 0xff, 0x14, 0x00, 0x00, 0x00,
  0x00, 0x00, 0x00, 0x01, 0x18, 0x00, 0x00, 0x00, 0x1c, 0x00, 0x00, 0x00, 0x02, 0x00, 0x00, 0x00, 0xa6, 0xfa, 0xff, 0xff,
  0x01, 0x00, 0x00, 0x00, 0x01, 0x00, 0x00, 0x00, 0x01, 0x00, 0x00, 0x00, 0x3e, 0x00, 0x00, 0x00, 0x03, 0x00, 0x00, 0x00,
  0x3d, 0x00, 0x00, 0x00, 0x09, 0x00, 0x00, 0x00, 0x08, 0x00, 0x00, 0x00, 0x26, 0xfb, 0xff, 0xff, 0x14, 0x00, 0x00, 0x00,
  0x00, 0x00, 0x00, 0x01, 0x1c, 0x00, 0x00, 0x00, 0x20, 0x00, 0x00, 0x00, 0x02, 0x00, 0x00, 0x00, 0xc8, 0xfb, 0xff, 0xff,
  0x00, 0x00, 0x00, 0x03, 0x01, 0x00, 0x00, 0x00, 0x01, 0x00, 0x00, 0x00, 0x01, 0x00, 0x00, 0x00, 0x3d, 0x00, 0x00, 0x00,
  0x03, 0x00, 0x00, 0x00, 0x3c, 0x00, 0x00, 0x00, 0x0b, 0x00, 0x00, 0x00, 0x0a, 0x00, 0x00, 0x00, 0x66, 0xfb, 0xff, 0xff,
  0x14, 0x00, 0x00, 0x00, 0x00, 0x00, 0x00, 0x1b, 0x14, 0x00, 0x00, 0x00, 0x18, 0x00, 0x00, 0x00, 0x03, 0x00, 0x00, 0x00,
  0x9a, 0xfc, 0xff, 0xff, 0x00, 0x00, 0x00, 0x01, 0x01, 0x00, 0x00, 0x00, 0x3c, 0x00, 0x00, 0x00, 0x02, 0x00, 0x00, 0x00,
  0x3b, 0x00, 0x00, 0x00, 0x02, 0x00, 0x00, 0x00, 0x9a, 0xfb, 0xff, 0xff, 0x14, 0x00, 0x00, 0x00, 0x00, 0x00, 0x00, 0x02,
  0x24, 0x00, 0x00, 0x00, 0x28, 0x00, 0x00, 0x00, 0x01, 0x00, 0x00, 0x00, 0x94, 0xfc, 0xff, 0xff, 0x08, 0x00, 0x00, 0x00,
  0x00, 0x00, 0x00, 0x03, 0x01, 0x00, 0x00, 0x00, 0x01, 0x00, 0x00, 0x00, 0x01, 0x00, 0x00, 0x00, 0x01, 0x00, 0x00, 0x00,
  0x3b, 0x00, 0x00, 0x00, 0x03, 0x00, 0x00, 0x00, 0x3a, 0x00, 0x00, 0x00, 0x0d, 0x00, 0x00, 0x00, 0x0c, 0x00, 0x00, 0x00,
  0xe2, 0xfb, 0xff, 0xff, 0x14, 0x00, 0x00, 0x00, 0x00, 0x00, 0x00, 0x01, 0x1c, 0x00, 0x00, 0x00, 0x20, 0x00, 0x00, 0x00,
  0x02, 0x00, 0x00, 0x00, 0x84, 0xfc, 0xff, 0xff, 0x00, 0x00, 0x00, 0x03, 0x01, 0x00, 0x00, 0x00, 0x01, 0x00, 0x00, 0x00,
  0x01, 0x00, 0x00, 0x00, 0x3a, 0x00, 0x00, 0x00, 0x03, 0x00, 0x00, 0x00, 0x39, 0x00, 0x00, 0x00, 0x0f, 0x00, 0x00, 0x00,
  0x0e, 0x00, 0x00, 0x00, 0x22, 0xfc, 0xff, 0xff, 0x14, 0x00, 0x00, 0x00, 0x00, 0x00, 0x00, 0x15, 0x10, 0x00, 0x00, 0x00,
  0x14, 0x00, 0x00, 0x00, 0x06, 0x00, 0x00, 0x00, 0x80, 0xb6, 0xff, 0xff, 0x01, 0x00, 0x00, 0x00, 0x39, 0x00, 0x00, 0x00,
  0x02, 0x00, 0x00, 0x00, 0x33, 0x00, 0x00, 0x00, 0x38, 0x00, 0x00, 0x00, 0x32, 0xfe, 0xff, 0xff, 0x0c, 0x00, 0x00, 0x00,
  0x10, 0x00, 0x00, 0x00, 0x05, 0x00, 0x00, 0x00, 0x01, 0x00, 0x00, 0x00, 0x38, 0x00, 0x00, 0x00, 0x01, 0x00, 0x00, 0x00,
  0x37, 0x00, 0x00, 0x00, 0x52, 0xfe, 0xff, 0xff, 0x0c, 0x00, 0x00, 0x00, 0x10, 0x00, 0x00, 0x00, 0x04, 0x00, 0x00, 0x00,
  0x01, 0x00, 0x00, 0x00, 0x37, 0x00, 0x00, 0x00, 0x02, 0x00, 0x00, 0x00, 0x36, 0x00, 0x00, 0x00, 0x19, 0x00, 0x00, 0x00,
  0x96, 0xfc, 0xff, 0xff, 0x14, 0x00, 0x00, 0x00, 0x00, 0x00, 0x00, 0x01, 0x18, 0x00, 0x00, 0x00, 0x1c, 0x00, 0x00, 0x00,
  0x02, 0x00, 0x00, 0x00, 0x52, 0xfc, 0xff, 0xff, 0x01, 0x00, 0x00, 0x00, 0x01, 0x00, 0x00, 0x00, 0x01, 0x00, 0x00, 0x00,
  0x36, 0x00, 0x00, 0x00, 0x03, 0x00, 0x00, 0x00, 0x35, 0x00, 0x00, 0x00, 0x11, 0x00, 0x00, 0x00, 0x10, 0x00, 0x00, 0x00,
  0xd2, 0xfc, 0xff, 0xff, 0x14, 0x00, 0x00, 0x00, 0x00, 0x00, 0x00, 0x01, 0x1c, 0x00, 0x00, 0x00, 0x20, 0x00, 0x00, 0x00,
  0x02, 0x00, 0x00, 0x00, 0x74, 0xfd, 0xff, 0xff, 0x00, 0x00, 0x00, 0x03, 0x01, 0x00, 0x00, 0x00, 0x01, 0x00, 0x00, 0x00,
  0x01, 0x00, 0x00, 0x00, 0x35, 0x00, 0x00, 0x00, 0x03, 0x00, 0x00, 0x00, 0x34, 0x00, 0x00, 0x00, 0x13, 0x00, 0x00, 0x00,
  0x12, 0x00, 0x00, 0x00, 0x12, 0xfd, 0xff, 0xff, 0x14, 0x00, 0x00, 0x00, 0x00, 0x00, 0x00, 0x1b, 0x14, 0x00, 0x00, 0x00,
  0x18, 0x00, 0x00, 0x00, 0x03, 0x00, 0x00, 0x00, 0x46, 0xfe, 0xff, 0xff, 0x00, 0x00, 0x00, 0x01, 0x01, 0x00, 0x00, 0x00,
  0x34, 0x00, 0x00, 0x00, 0x02, 0x00, 0x00, 0x00, 0x33, 0x00, 0x00, 0x00, 0x02, 0x00, 0x00, 0x00, 0x46, 0xfd, 0xff, 0xff,
  0x14, 0x00, 0x00, 0x00, 0x00, 0x00, 0x00, 0x02, 0x24, 0x00, 0x00, 0x00, 0x28, 0x00, 0x00, 0x00, 0x01, 0x00, 0x00, 0x00,
  0x40, 0xfe, 0xff, 0xff, 0x04, 0x00, 0x00, 0x00, 0x00, 0x00, 0x00, 0x03, 0x01, 0x00, 0x00, 0x00, 0x01, 0x00, 0x00, 0x00,
  0x01, 0x00, 0x00, 0x00, 0x01, 0x00, 0x00, 0x00, 0x33, 0x00, 0x00, 0x00, 0x03, 0x00, 0x00, 0x00, 0x32, 0x00, 0x00, 0x00,
  0x15, 0x00, 0x00, 0x00, 0x14, 0x00, 0x00, 0x00, 0x8e, 0xfd, 0xff, 0xff, 0x14, 0x00, 0x00, 0x00, 0x00, 0x00, 0x00, 0x01,
  0x1c, 0x00, 0x00, 0x00, 0x20, 0x00, 0x00, 0x00, 0x02, 0x00, 0x00, 0x00, 0x30, 0xfe, 0xff, 0xff, 0x00, 0x00, 0x00, 0x03,
  0x01, 0x00, 0x00, 0x00, 0x01, 0x00, 0x00, 0x00, 0x01, 0x00, 0x00, 0x00, 0x32, 0x00, 0x00, 0x00, 0x03, 0x00, 0x00, 0x00,
  0x31, 0x00, 0x00, 0x00, 0x17, 0x00, 0x00, 0x00, 0x16, 0x00, 0x00, 0x00, 0xce, 0xfd, 0xff, 0xff, 0x14, 0x00, 0x00, 0x00,
  0x00, 0x00, 0x00, 0x15, 0x10, 0x00, 0x00, 0x00, 0x14, 0x00, 0x00, 0x00, 0x06, 0x00, 0x00, 0x00, 0x2c, 0xb8, 0xff, 0xff,
  0x01, 0x00, 0x00, 0x00, 0x31, 0x00, 0x00, 0x00, 0x02, 0x00, 0x00, 0x00, 0x2b, 0x00, 0x00, 0x00, 0x30, 0x00, 0x00, 0x00,
  0xde, 0xff, 0xff, 0xff, 0x0c, 0x00, 0x00, 0x00, 0x10, 0x00, 0x00, 0x00, 0x05, 0x00, 0x00, 0x00, 0x01, 0x00, 0x00, 0x00,
  0x30, 0x00, 0x00, 0x00, 0x01, 0x00, 0x00, 0x00, 0x2f, 0x00, 0x00, 0x00, 0x00, 0x00, 0x0a, 0x00, 0x10, 0x00, 0x0c, 0x00,
  0x08, 0x00, 0x04, 0x00, 0x0a, 0x00, 0x00, 0x00, 0x0c, 0x00, 0x00, 0x00, 0x10, 0x00, 0x00, 0x00, 0x04, 0x00, 0x00, 0x00,
  0x01, 0x00, 0x00, 0x00, 0x2f, 0x00, 0x00, 0x00, 0x02, 0x00, 0x00, 0x00, 0x2e, 0x00, 0x00, 0x00, 0x18, 0x00, 0x00, 0x00,
  0x4e, 0xfe, 0xff, 0xff, 0x14, 0x00, 0x00, 0x00, 0x00, 0x00, 0x00, 0x01, 0x18, 0x00, 0x00, 0x00, 0x1c, 0x00, 0x00, 0x00,
  0x02, 0x00, 0x00, 0x00, 0x0a, 0xfe, 0xff, 0xff, 0x01, 0x00, 0x00, 0x00, 0x01, 0x00, 0x00, 0x00, 0x01, 0x00, 0x00, 0x00,
  0x2e, 0x00, 0x00, 0x00, 0x03, 0x00, 0x00, 0x00, 0x2d, 0x00, 0x00, 0x00, 0x1c, 0x00, 0x00, 0x00, 0x1b, 0x00, 0x00, 0x00,
  0x8a, 0xfe, 0xff, 0xff, 0x14, 0x00, 0x00, 0x00, 0x00, 0x00, 0x00, 0x01, 0x1c, 0x00, 0x00, 0x00, 0x20, 0x00, 0x00, 0x00,
  0x02, 0x00, 0x00, 0x00, 0x2c, 0xff, 0xff, 0xff, 0x00, 0x00, 0x00, 0x03, 0x01, 0x00, 0x00, 0x00, 0x01, 0x00, 0x00, 0x00,
  0x01, 0x00, 0x00, 0x00, 0x2d, 0x00, 0x00, 0x00, 0x03, 0x00, 0x00, 0x00, 0x2c, 0x00, 0x00, 0x00, 0x1e, 0x00, 0x00, 0x00,
  0x1d, 0x00, 0x00, 0x00, 0xca, 0xfe, 0xff, 0xff, 0x1c, 0x00, 0x00, 0x00, 0x00, 0x00, 0x00, 0x1b, 0x1c, 0x00, 0x00, 0x00,
  0x20, 0x00, 0x00, 0x00, 0x03, 0x00, 0x00, 0x00, 0x00, 0x00, 0x06, 0x00, 0x08, 0x00, 0x07, 0x00, 0x06, 0x00, 0x00, 0x00,
  0x00, 0x00, 0x00, 0x01, 0x01, 0x00, 0x00, 0x00, 0x2c, 0x00, 0x00, 0x00, 0x02, 0x00, 0x00, 0x00, 0x2b, 0x00, 0x00, 0x00,
  0x02, 0x00, 0x00, 0x00, 0x06, 0xff, 0xff, 0xff, 0x24, 0x00, 0x00, 0x00, 0x00, 0x00, 0x00, 0x02, 0x34, 0x00, 0x00, 0x00,
  0x38, 0x00, 0x00, 0x00, 0x01, 0x00, 0x00, 0x00, 0x10, 0x00, 0x18, 0x00, 0x00, 0x00, 0x14, 0x00, 0x10, 0x00, 0x0c, 0x00,
  0x0b, 0x00, 0x04, 0x00, 0x10, 0x00, 0x00, 0x00, 0x02, 0x00, 0x00, 0x00, 0x00, 0x00, 0x00, 0x03, 0x01, 0x00, 0x00, 0x00,
  0x01, 0x00, 0x00, 0x00, 0x01, 0x00, 0x00, 0x00, 0x01, 0x00, 0x00, 0x00, 0x2b, 0x00, 0x00, 0x00, 0x03, 0x00, 0x00, 0x00,
  0x2a, 0x00, 0x00, 0x00, 0x20, 0x00, 0x00, 0x00, 0x1f, 0x00, 0x00, 0x00, 0x5e, 0xff, 0xff, 0xff, 0x20, 0x00, 0x00, 0x00,
  0x00, 0x00, 0x00, 0x01, 0x28, 0x00, 0x00, 0x00, 0x2c, 0x00, 0x00, 0x00, 0x02, 0x00, 0x00, 0x00, 0x0c, 0x00, 0x10, 0x00,
  0x00, 0x00, 0x0c, 0x00, 0x08, 0x00, 0x07, 0x00, 0x0c, 0x00, 0x00, 0x00, 0x00, 0x00, 0x00, 0x03, 0x01, 0x00, 0x00, 0x00,
  0x01, 0x00, 0x00, 0x00, 0x01, 0x00, 0x00, 0x00, 0x2a, 0x00, 0x00, 0x00, 0x03, 0x00, 0x00, 0x00, 0x29, 0x00, 0x00, 0x00,
  0x22, 0x00, 0x00, 0x00, 0x21, 0x00, 0x00, 0x00, 0xaa, 0xff, 0xff, 0xff, 0x24, 0x00, 0x00, 0x00, 0x00, 0x00, 0x00, 0x02,
  0x30, 0x00, 0x00, 0x00, 0x34, 0x00, 0x00, 0x00, 0x01, 0x00, 0x00, 0x00, 0x00, 0x00, 0x0e, 0x00, 0x14, 0x00, 0x00, 0x00,
  0x10, 0x00, 0x0c, 0x00, 0x08, 0x00, 0x07, 0x00, 0x0e, 0x00, 0x00, 0x00, 0x00, 0x00, 0x00, 0x03, 0x01, 0x00, 0x00, 0x00,
  0x01, 0x00, 0x00, 0x00, 0x01, 0x00, 0x00, 0x00, 0x01, 0x00, 0x00, 0x00, 0x29, 0x00, 0x00, 0x00, 0x03, 0x00, 0x00, 0x00,
  0x28, 0x00, 0x00, 0x00, 0x24, 0x00, 0x00, 0x00, 0x23, 0x00, 0x00, 0x00, 0x00, 0x00, 0x0e, 0x00, 0x18, 0x00, 0x14, 0x00,
  0x10, 0x00, 0x0c, 0x00, 0x0b, 0x00, 0x04, 0x00, 0x0e, 0x00, 0x00, 0x00, 0x20, 0x00, 0x00, 0x00, 0x00, 0x00, 0x00, 0x02,
  0x28, 0x00, 0x00, 0x00, 0x2c, 0x00, 0x00, 0x00, 0x01, 0x00, 0x00, 0x00, 0x0c, 0x00, 0x10, 0x00, 0x00, 0x00, 0x0c, 0x00,
  0x08, 0x00, 0x04, 0x00, 0x0c, 0x00, 0x00, 0x00, 0x01, 0x00, 0x00, 0x00, 0x01, 0x00, 0x00, 0x00, 0x01, 0x00, 0x00, 0x00,
  0x01, 0x00, 0x00, 0x00, 0x28, 0x00, 0x00, 0x00, 0x03, 0x00, 0x00, 0x00, 0x27, 0x00, 0x00, 0x00, 0x26, 0x00, 0x00, 0x00,
  0x25, 0x00, 0x00, 0x00, 0x00, 0x00, 0x0a, 0x00, 0x0c, 0x00, 0x00, 0x00, 0x08, 0x00, 0x04, 0x00, 0x0a, 0x00, 0x00, 0x00,
  0x08, 0x00, 0x00, 0x00, 0x0c, 0x00, 0x00, 0x00, 0x01, 0x00, 0x00, 0x00, 0x27, 0x00, 0x00, 0x00, 0x02, 0x00, 0x00, 0x00,
  0x00, 0x00, 0x00, 0x00, 0x01, 0x00, 0x00, 0x00, 0x01, 0x00, 0x00, 0x00, 0x45, 0x00, 0x00, 0x00, 0x01, 0x00, 0x00, 0x00,
  0x00, 0x00, 0x00, 0x00, 0x46, 0x00, 0x00, 0x00, 0x6c, 0x45, 0x00, 0x00, 0x00, 0x45, 0x00, 0x00, 0x94, 0x44, 0x00, 0x00,
  0x44, 0x44, 0x00, 0x00, 0xa8, 0x43, 0x00, 0x00, 0x0c, 0x43, 0x00, 0x00, 0xc0, 0x40, 0x00, 0x00, 0x74, 0x3e, 0x00, 0x00,
  0xe8, 0x3b, 0x00, 0x00, 0xfc, 0x39, 0x00, 0x00, 0xc8, 0x38, 0x00, 0x00, 0x9c, 0x37, 0x00, 0x00, 0xb0, 0x35, 0x00, 0x00,
  0x5c, 0x33, 0x00, 0x00, 0x70, 0x31, 0x00, 0x00, 0x84, 0x2f, 0x00, 0x00, 0x58, 0x2d, 0x00, 0x00, 0xcc, 0x2b, 0x00, 0x00,
  0xc8, 0x2a, 0x00, 0x00, 0xcc, 0x29, 0x00, 0x00, 0x40, 0x28, 0x00, 0x00, 0x60, 0x26, 0x00, 0x00, 0xd8, 0x24, 0x00, 0x00,
  0x4c, 0x23, 0x00, 0x00, 0xd0, 0x22, 0x00, 0x00, 0x54, 0x22, 0x00, 0x00, 0xd8, 0x21, 0x00, 0x00, 0x0c, 0x20, 0x00, 0x00,
  0xe0, 0x1e, 0x00, 0x00, 0x0c, 0x1e, 0x00, 0x00, 0x40, 0x1d, 0x00, 0x00, 0x14, 0x1c, 0x00, 0x00, 0x94, 0x1a, 0x00, 0x00,
  0x6c, 0x19, 0x00, 0x00, 0x40, 0x18, 0x00, 0x00, 0xcc, 0x17, 0x00, 0x00, 0x24, 0x17, 0x00, 0x00, 0xb4, 0x16, 0x00, 0x00,
  0xfc, 0x15, 0x00, 0x00, 0x8c, 0x15, 0x00, 0x00, 0xd8, 0x14, 0x00, 0x00, 0x1c, 0x14, 0x00, 0x00, 0x40, 0x13, 0x00, 0x00,
  0x64, 0x12, 0x00, 0x00, 0xf0, 0x11, 0x00, 0x00, 0x04, 0x11, 0x00, 0x00, 0xa0, 0x0f, 0x00, 0x00, 0x14, 0x0f, 0x00, 0x00,
  0x90, 0x0e, 0x00, 0x00, 0x1c, 0x0e, 0x00, 0x00, 0x40, 0x0d, 0x00, 0x00, 0x64, 0x0c, 0x00, 0x00, 0xf0, 0x0b, 0x00, 0x00,
  0x04, 0x0b, 0x00, 0x00, 0xc0, 0x09, 0x00, 0x00, 0x34, 0x09, 0x00, 0x00, 0xb0, 0x08, 0x00, 0x00, 0x3c, 0x08, 0x00, 0x00,
  0x60, 0x07, 0x00, 0x00, 0x84, 0x06, 0x00, 0x00, 0x10, 0x06, 0x00, 0x00, 0x24, 0x05, 0x00, 0x00, 0xe0, 0x03, 0x00, 0x00,
  0x54, 0x03, 0x00, 0x00, 0xd0, 0x02, 0x00, 0x00, 0x5c, 0x02, 0x00, 0x00, 0xa0, 0x01, 0x00, 0x00, 0xec, 0x00, 0x00, 0x00,
  0x78, 0x00, 0x00, 0x00, 0x04, 0x00, 0x00, 0x00, 0xc2, 0xbb, 0xff, 0xff, 0x00, 0x00, 0x00, 0x01, 0x14, 0x00, 0x00, 0x00,
  0x34, 0x00, 0x00, 0x00, 0x46, 0x00, 0x00, 0x00, 0x00, 0x00, 0x00, 0x09, 0x48, 0x00, 0x00, 0x00, 0xac, 0xbb, 0xff, 0xff,
  0x08, 0x00, 0x00, 0x00, 0x14, 0x00, 0x00, 0x00, 0x01, 0x00, 0x00, 0x00, 0x80, 0xff, 0xff, 0xff, 0xff, 0xff, 0xff, 0xff,
  0x00, 0x00, 0x00, 0x00, 0x01, 0x00, 0x00, 0x00, 0x00, 0x00, 0x80, 0x3b, 0x19, 0x00, 0x00, 0x00, 0x53, 0x74, 0x61, 0x74,
  0x65, 0x66, 0x75, 0x6c, 0x50, 0x61, 0x72, 0x74, 0x69, 0x74, 0x69, 0x6f, 0x6e, 0x65, 0x64, 0x43, 0x61, 0x6c, 0x6c, 0x3a,
  0x30, 0x00, 0x00, 0x00, 0x03, 0x00, 0x00, 0x00, 0x01, 0x00, 0x00, 0x00, 0x00, 0x01, 0x00, 0x00, 0x04, 0x00, 0x00, 0x00,
  0x32, 0xbc, 0xff, 0xff, 0x00, 0x00, 0x00, 0x01, 0x14, 0x00, 0x00, 0x00, 0x34, 0x00, 0x00, 0x00, 0x45, 0x00, 0x00, 0x00,
  0x00, 0x00, 0x00, 0x09, 0x48, 0x00, 0x00, 0x00, 0x1c, 0xbc, 0xff, 0xff, 0x08, 0x00, 0x00, 0x00, 0x14, 0x00, 0x00, 0x00,
  0x01, 0x00, 0x00, 0x00, 0x38, 0x00, 0x00, 0x00, 0x00, 0x00, 0x00, 0x00, 0x00, 0x00, 0x00, 0x00, 0x01, 0x00, 0x00, 0x00,
  0x25, 0xa7, 0xb7, 0x3d, 0x19, 0x00, 0x00, 0x00, 0x74, 0x63, 0x6e, 0x2f, 0x74, 0x63, 0x6e, 0x2f, 0x72, 0x65, 0x73, 0x68,
  0x61, 0x70, 0x65, 0x5f, 0x31, 0x2f, 0x52, 0x65, 0x73, 0x68, 0x61, 0x70, 0x65, 0x00, 0x00, 0x00, 0x03, 0x00, 0x00, 0x00,
  0x01, 0x00, 0x00, 0x00, 0x00, 0x01, 0x00, 0x00, 0x04, 0x00, 0x00, 0x00, 0xa2, 0xbc, 0xff, 0xff, 0x00, 0x00, 0x00, 0x01,
  0x14, 0x00, 0x00, 0x00, 0x30, 0x00, 0x00, 0x00, 0x44, 0x00, 0x00, 0x00, 0x00, 0x00, 0x00, 0x09, 0x84, 0x00, 0x00, 0x00,
  0x8c, 0xbc, 0xff, 0xff, 0x08, 0x00, 0x00, 0x00, 0x10, 0x00, 0x00, 0x00, 0x01, 0x00, 0x00, 0x00, 0x38, 0x00, 0x00, 0x00,
  0x00, 0x00, 0x00, 0x00, 0x01, 0x00, 0x00, 0x00, 0x25, 0xa7, 0xb7, 0x3d, 0x5b, 0x00, 0x00, 0x00, 0x74, 0x63, 0x6e, 0x2f,
  0x74, 0x63, 0x6e, 0x2f, 0x4e, 0x45, 0x43, 0x4b, 0x2e, 0x63, 0x6f, 0x6e, 0x76, 0x2f, 0x42, 0x69, 0x61, 0x73, 0x41, 0x64,
  0x64, 0x3b, 0x74, 0x63, 0x6e, 0x2f, 0x74, 0x63, 0x6e, 0x2f, 0x4e, 0x45, 0x43, 0x4b, 0x2e, 0x63, 0x6f, 0x6e, 0x76, 0x2f,
  0x43, 0x6f, 0x6e, 0x76, 0x32, 0x44, 0x3b, 0x74, 0x63, 0x6e, 0x2f, 0x74, 0x63, 0x6e, 0x2f, 0x4e, 0x45, 0x43, 0x4b, 0x2e,
  0x63, 0x6f, 0x6e, 0x76, 0x2f, 0x42, 0x69, 0x61, 0x73, 0x41, 0x64, 0x64, 0x2f, 0x52, 0x65, 0x61, 0x64, 0x56, 0x61, 0x72,
  0x69, 0x61, 0x62, 0x6c, 0x65, 0x4f, 0x70, 0x00, 0x04, 0x00, 0x00, 0x00, 0x01, 0x00, 0x00, 0x00, 0x01, 0x00, 0x00, 0x00,
  0x00, 0x01, 0x00, 0x00, 0x04, 0x00, 0x00, 0x00, 0x52, 0xbd, 0xff, 0xff, 0x00, 0x00, 0x00, 0x01, 0x14, 0x00, 0x00, 0x00,
  0x30, 0x00, 0x00, 0x00, 0x43, 0x00, 0x00, 0x00, 0x00, 0x00, 0x00, 0x09, 0x8c, 0x00, 0x00, 0x00, 0x3c, 0xbd, 0xff, 0xff,
  0x08, 0x00, 0x00, 0x00, 0x10, 0x00, 0x00, 0x00, 0x01, 0x00, 0x00, 0x00, 0x80, 0xff, 0xff, 0xff, 0xff, 0xff, 0xff, 0xff,
  0x01, 0x00, 0x00, 0x00, 0xf0, 0xf3, 0x65, 0x3c, 0x60, 0x00, 0x00, 0x00, 0x74, 0x63, 0x6e, 0x2f, 0x74, 0x63, 0x6e, 0x2f,
  0x42, 0x34, 0x2e, 0x44, 0x31, 0x2e, 0x50, 0x57, 0x2e, 0x41, 0x43, 0x54, 0x2f, 0x52, 0x65, 0x6c, 0x75, 0x36, 0x3b, 0x74,
  0x63, 0x6e, 0x2f, 0x74, 0x63, 0x6e, 0x2f, 0x42, 0x34, 0x2e, 0x44, 0x31, 0x2e, 0x50, 0x57, 0x2e, 0x42, 0x31, 0x2e, 0x42,
  0x4e, 0x2f, 0x46, 0x75, 0x73, 0x65, 0x64, 0x42, 0x61, 0x74, 0x63, 0x68, 0x4e, 0x6f, 0x72, 0x6d, 0x56, 0x33, 0x3b, 0x74,
  0x63, 0x6e, 0x2f, 0x74, 0x63, 0x6e, 0x2f, 0x42, 0x34, 0x2e, 0x44, 0x31, 0x2e, 0x50, 0x57, 0x2e, 0x42, 0x31, 0x2e, 0x43,
  0x4e, 0x2f, 0x43, 0x6f, 0x6e, 0x76, 0x32, 0x44, 0x00, 0x00, 0x00, 0x00, 0x04, 0x00, 0x00, 0x00, 0x01, 0x00, 0x00, 0x00,
  0x01, 0x00, 0x00, 0x00, 0x00, 0x01, 0x00, 0x00, 0x28, 0x00, 0x00, 0x00, 0x0a, 0xbe, 0xff, 0xff, 0x00, 0x00, 0x00, 0x01,
  0x14, 0x00, 0x00, 0x00, 0x34, 0x00, 0x00, 0x00, 0x42, 0x00, 0x00, 0x00, 0x00, 0x00, 0x00, 0x09, 0x44, 0x00, 0x00, 0x00,
  0xf4, 0xbd, 0xff, 0xff, 0x08, 0x00, 0x00, 0x00, 0x14, 0x00, 0x00, 0x00, 0x01, 0x00, 0x00, 0x00, 0x80, 0xff, 0xff, 0xff,
  0xff, 0xff, 0xff, 0xff, 0x00, 0x00, 0x00, 0x00, 0x01, 0x00, 0x00, 0x00, 0x41, 0x9f, 0x7a, 0x3c, 0x16, 0x00, 0x00, 0x00,
  0x74, 0x63, 0x6e, 0x2f, 0x74, 0x63, 0x6e, 0x2f, 0x6d, 0x75, 0x6c, 0x74, 0x69, 0x70, 0x6c, 0x79, 0x5f, 0x32, 0x2f, 0x6d,
  0x75, 0x6c, 0x00, 0x00, 0x04, 0x00, 0x00, 0x00, 0x01, 0x00, 0x00, 0x00, 0x01, 0x00, 0x00, 0x00, 0x00, 0x01, 0x00, 0x00,
  0x20, 0x00, 0x00, 0x00, 0x7a, 0xbe, 0xff, 0xff, 0x00, 0x00, 0x00, 0x01, 0x14, 0x00, 0x00, 0x00, 0x34, 0x00, 0x00, 0x00,
  0x41, 0x00, 0x00, 0x00, 0x00, 0x00, 0x00, 0x09, 0x54, 0x00, 0x00, 0x00, 0x64, 0xbe, 0xff, 0xff, 0x08, 0x00, 0x00, 0x00,
  0x14, 0x00, 0x00, 0x00, 0x01, 0x00, 0x00, 0x00, 0x80, 0xff, 0xff, 0xff, 0xff, 0xff, 0xff, 0xff, 0x00, 0x00, 0x00, 0x00,
  0x01, 0x00, 0x00, 0x00, 0x81, 0x80, 0x80, 0x3b, 0x25, 0x00, 0x00, 0x00, 0x74, 0x63, 0x6e, 0x2f, 0x74, 0x63, 0x6e, 0x2f,
  0x42, 0x34, 0x2e, 0x44, 0x31, 0x2e, 0x53, 0x45, 0x2e, 0x65, 0x78, 0x2e, 0x61, 0x63, 0x74, 0x2f, 0x63, 0x6c, 0x69, 0x70,
  0x5f, 0x62, 0x79, 0x5f, 0x76, 0x61, 0x6c, 0x75, 0x65, 0x00, 0x00, 0x00, 0x04, 0x00, 0x00, 0x00, 0x01, 0x00, 0x00, 0x00,
  0x01, 0x00, 0x00, 0x00, 0x01, 0x00, 0x00, 0x00, 0x20, 0x00, 0x00, 0x00, 0xfa, 0xbe, 0xff, 0xff, 0x00, 0x00, 0x00, 0x01,
  0x14, 0x00, 0x00, 0x00, 0x34, 0x00, 0x00, 0x00, 0x40, 0x00, 0x00, 0x00, 0x00, 0x00, 0x00, 0x09, 0x5c, 0x00, 0x00, 0x00,
  0xe4, 0xbe, 0xff, 0xff, 0x08, 0x00, 0x00, 0x00, 0x14, 0x00, 0x00, 0x00, 0x01, 0x00, 0x00, 0x00, 0xc9, 0xff, 0xff, 0xff,
  0xff, 0xff, 0xff, 0xff, 0x00, 0x00, 0x00, 0x00, 0x01, 0x00, 0x00, 0x00, 0xe4, 0x33, 0xb4, 0x3b, 0x2d, 0x00, 0x00, 0x00,
  0x74, 0x63, 0x6e, 0x2f, 0x74, 0x63, 0x6e, 0x2f, 0x42, 0x34, 0x2e, 0x44, 0x31, 0x2e, 0x53, 0x45, 0x2e, 0x65, 0x78, 0x2e,
  0x61, 0x63, 0x74, 0x2f, 0x63, 0x6c, 0x69, 0x70, 0x5f, 0x62, 0x79, 0x5f, 0x76, 0x61, 0x6c, 0x75, 0x65, 0x2f, 0x4d, 0x69,
  0x6e, 0x69, 0x6d, 0x75, 0x6d, 0x00, 0x00, 0x00, 0x04, 0x00, 0x00, 0x00, 0x01, 0x00, 0x00, 0x00, 0x01, 0x00, 0x00, 0x00,
  0x01, 0x00, 0x00, 0x00, 0x20, 0x00, 0x00, 0x00, 0x82, 0xbf, 0xff, 0xff, 0x00, 0x00, 0x00, 0x01, 0x14, 0x00, 0x00, 0x00,
  0x34, 0x00, 0x00, 0x00, 0x3f, 0x00, 0x00, 0x00, 0x00, 0x00, 0x00, 0x09, 0x14, 0x01, 0x00, 0x00, 0x6c, 0xbf, 0xff, 0xff,
  0x08, 0x00, 0x00, 0x00, 0x14, 0x00, 0x00, 0x00, 0x01, 0x00, 0x00, 0x00, 0xc9, 0xff, 0xff, 0xff, 0xff, 0xff, 0xff, 0xff,
  0x00, 0x00, 0x00, 0x00, 0x01, 0x00, 0x00, 0x00, 0xe4, 0x33, 0xb4, 0x3b, 0xe6, 0x00, 0x00, 0x00, 0x74, 0x63, 0x6e, 0x2f,
  0x74, 0x63, 0x6e, 0x2f, 0x42, 0x34, 0x2e, 0x44, 0x31, 0x2e, 0x53, 0x45, 0x2e, 0x65, 0x78, 0x2e, 0x61, 0x63, 0x74, 0x2f,
  0x41, 0x64, 0x64, 0x3b, 0x74, 0x63, 0x6e, 0x2f, 0x74, 0x63, 0x6e, 0x2f, 0x42, 0x34, 0x2e, 0x44, 0x31, 0x2e, 0x53, 0x45,
  0x2e, 0x65, 0x78, 0x2e, 0x61, 0x63, 0x74, 0x2f, 0x4d, 0x75, 0x6c, 0x3b, 0x74, 0x63, 0x6e, 0x2f, 0x74, 0x63, 0x6e, 0x2f,
  0x42, 0x34, 0x2e, 0x44, 0x31, 0x2e, 0x53, 0x45, 0x2e, 0x65, 0x78, 0x2e, 0x63, 0x6f, 0x6e, 0x76, 0x2f, 0x42, 0x69, 0x61,
  0x73, 0x41, 0x64, 0x64, 0x2f, 0x52, 0x65, 0x61, 0x64, 0x56, 0x61, 0x72, 0x69, 0x61, 0x62, 0x6c, 0x65, 0x4f, 0x70, 0x3b,
  0x74, 0x63, 0x6e, 0x2f, 0x74, 0x63, 0x6e, 0x2f, 0x42, 0x34, 0x2e, 0x44, 0x31, 0x2e, 0x53, 0x45, 0x2e, 0x65, 0x78, 0x2e,
  0x63, 0x6f, 0x6e, 0x76, 0x2f, 0x42, 0x69, 0x61, 0x73, 0x41, 0x64, 0x64, 0x3b, 0x74, 0x63, 0x6e, 0x2f, 0x74, 0x63, 0x6e,
  0x2f, 0x42, 0x32, 0x2e, 0x44, 0x31, 0x2e, 0x53, 0x45, 0x2e, 0x65, 0x78, 0x2e, 0x61, 0x63, 0x74, 0x2f, 0x43, 0x6f, 0x6e,
  0x73, 0x74, 0x3b, 0x74, 0x63, 0x6e, 0x2f, 0x74, 0x63, 0x6e, 0x2f, 0x42, 0x32, 0x2e, 0x44, 0x31, 0x2e, 0x53, 0x45, 0x2e,
  0x65, 0x78, 0x2e, 0x61, 0x63, 0x74, 0x2f, 0x43, 0x6f, 0x6e, 0x73, 0x74, 0x5f, 0x31, 0x3b, 0x74, 0x63, 0x6e, 0x2f, 0x74,
  0x63, 0x6e, 0x2f, 0x42, 0x34, 0x2e, 0x44, 0x31, 0x2e, 0x53, 0x45, 0x2e, 0x65, 0x78, 0x2e, 0x63, 0x6f, 0x6e, 0x76, 0x2f,
  0x43, 0x6f, 0x6e, 0x76, 0x32, 0x44, 0x00, 0x00, 0x04, 0x00, 0x00, 0x00, 0x01, 0x00, 0x00, 0x00, 0x01, 0x00, 0x00, 0x00,
  0x01, 0x00, 0x00, 0x00, 0x20, 0x00, 0x00, 0x00, 0xc2, 0xc0, 0xff, 0xff, 0x00, 0x00, 0x00, 0x01, 0x14, 0x00, 0x00, 0x00,
  0x34, 0x00, 0x00, 0x00, 0x3e, 0x00, 0x00, 0x00, 0x00, 0x00, 0x00, 0x09, 0xbc, 0x00, 0x00, 0x00, 0xac, 0xc0, 0xff, 0xff,
  0x08, 0x00, 0x00, 0x00, 0x14, 0x00, 0x00, 0x00, 0x01, 0x00, 0x00, 0x00, 0x80, 0xff, 0xff, 0xff, 0xff, 0xff, 0xff, 0xff,
  0x00, 0x00, 0x00, 0x00, 0x01, 0x00, 0x00, 0x00, 0xec, 0x33, 0x14, 0x3c, 0x8e, 0x00, 0x00, 0x00, 0x74, 0x63, 0x6e, 0x2f,
  0x74, 0x63, 0x6e, 0x2f, 0x42, 0x34, 0x2e, 0x44, 0x31, 0x2e, 0x53, 0x45, 0x2e, 0x73, 0x71, 0x2e, 0x61, 0x63, 0x74, 0x2f,
  0x52, 0x65, 0x6c, 0x75, 0x36, 0x3b, 0x74, 0x63, 0x6e, 0x2f, 0x74, 0x63, 0x6e, 0x2f, 0x42, 0x34, 0x2e, 0x44, 0x31, 0x2e,
  0x53, 0x45, 0x2e, 0x73, 0x71, 0x2e, 0x63, 0x6f, 0x6e, 0x76, 0x2f, 0x42, 0x69, 0x61, 0x73, 0x41, 0x64, 0x64, 0x3b, 0x74,
  0x63, 0x6e, 0x2f, 0x74, 0x63, 0x6e, 0x2f, 0x42, 0x34, 0x2e, 0x44, 0x31, 0x2e, 0x53, 0x45, 0x2e, 0x73, 0x71, 0x2e, 0x63,
  0x6f, 0x6e, 0x76, 0x2f, 0x43, 0x6f, 0x6e, 0x76, 0x32, 0x44, 0x3b, 0x74, 0x63, 0x6e, 0x2f, 0x74, 0x63, 0x6e, 0x2f, 0x42,
  0x34, 0x2e, 0x44, 0x31, 0x2e, 0x53, 0x45, 0x2e, 0x73, 0x71, 0x2e, 0x63, 0x6f, 0x6e, 0x76, 0x2f, 0x42, 0x69, 0x61, 0x73,
  0x41, 0x64, 0x64, 0x2f, 0x52, 0x65, 0x61, 0x64, 0x56, 0x61, 0x72, 0x69, 0x61, 0x62, 0x6c, 0x65, 0x4f, 0x70, 0x00, 0x00,
  0x04, 0x00, 0x00, 0x00, 0x01, 0x00, 0x00, 0x00, 0x01, 0x00, 0x00, 0x00, 0x01, 0x00, 0x00, 0x00, 0x10, 0x00, 0x00, 0x00,
  0xaa, 0xc1, 0xff, 0xff, 0x00, 0x00, 0x00, 0x01, 0x14, 0x00, 0x00, 0x00, 0x30, 0x00, 0x00, 0x00, 0x3d, 0x00, 0x00, 0x00,
  0x00, 0x00, 0x00, 0x09, 0x44, 0x00, 0x00, 0x00, 0x94, 0xc1, 0xff, 0xff, 0x08, 0x00, 0x00, 0x00, 0x10, 0x00, 0x00, 0x00,
  0x01, 0x00, 0x00, 0x00, 0x80, 0xff, 0xff, 0xff, 0xff, 0xff, 0xff, 0xff, 0x01, 0x00, 0x00, 0x00, 0x69, 0xa3, 0xf0, 0x3b,
  0x1a, 0x00, 0x00, 0x00, 0x74, 0x63, 0x6e, 0x2f, 0x74, 0x63, 0x6e, 0x2f, 0x42, 0x34, 0x2e, 0x44, 0x31, 0x2e, 0x53, 0x45,
  0x2e, 0x70, 0x6f, 0x6f, 0x6c, 0x2f, 0x4d, 0x65, 0x61, 0x6e, 0x00, 0x00, 0x04, 0x00, 0x00, 0x00, 0x01, 0x00, 0x00, 0x00,
  0x01, 0x00, 0x00, 0x00, 0x01, 0x00, 0x00, 0x00, 0x20, 0x00, 0x00, 0x00, 0x1a, 0xc2, 0xff, 0xff, 0x00, 0x00, 0x00, 0x01,
  0x14, 0x00, 0x00, 0x00, 0x30, 0x00, 0x00, 0x00, 0x3c, 0x00, 0x00, 0x00, 0x00, 0x00, 0x00, 0x09, 0xac, 0x00, 0x00, 0x00,
  0x04, 0xc2, 0xff, 0xff, 0x08, 0x00, 0x00, 0x00, 0x10, 0x00, 0x00, 0x00, 0x01, 0x00, 0x00, 0x00, 0x80, 0xff, 0xff, 0xff,
  0xff, 0xff, 0xff, 0xff, 0x01, 0x00, 0x00, 0x00, 0xc1, 0xc0, 0xc0, 0x3c, 0x83, 0x00, 0x00, 0x00, 0x74, 0x63, 0x6e, 0x2f,
  0x74, 0x63, 0x6e, 0x2f, 0x42, 0x34, 0x2e, 0x44, 0x31, 0x2e, 0x44, 0x57, 0x2e, 0x41, 0x43, 0x54, 0x2f, 0x52, 0x65, 0x6c,
  0x75, 0x36, 0x3b, 0x74, 0x63, 0x6e, 0x2f, 0x74, 0x63, 0x6e, 0x2f, 0x42, 0x34, 0x2e, 0x44, 0x31, 0x2e, 0x44, 0x57, 0x2e,
  0x42, 0x31, 0x2e, 0x42, 0x4e, 0x2f, 0x46, 0x75, 0x73, 0x65, 0x64, 0x42, 0x61, 0x74, 0x63, 0x68, 0x4e, 0x6f, 0x72, 0x6d,
  0x56, 0x33, 0x3b, 0x74, 0x63, 0x6e, 0x2f, 0x74, 0x63, 0x6e, 0x2f, 0x42, 0x34, 0x2e, 0x44, 0x31, 0x2e, 0x53, 0x45, 0x2e,
  0x65, 0x78, 0x2e, 0x63, 0x6f, 0x6e, 0x76, 0x2f, 0x43, 0x6f, 0x6e, 0x76, 0x32, 0x44, 0x3b, 0x74, 0x63, 0x6e, 0x2f, 0x74,
  0x63, 0x6e, 0x2f, 0x42, 0x34, 0x2e, 0x44, 0x31, 0x2e, 0x44, 0x57, 0x2e, 0x42, 0x31, 0x2e, 0x43, 0x4e, 0x2f, 0x64, 0x65,
  0x70, 0x74, 0x68, 0x77, 0x69, 0x73, 0x65, 0x00, 0x04, 0x00, 0x00, 0x00, 0x01, 0x00, 0x00, 0x00, 0x01, 0x00, 0x00, 0x00,
  0x00, 0x01, 0x00, 0x00, 0x20, 0x00, 0x00, 0x00, 0xf2, 0xc2, 0xff, 0xff, 0x00, 0x00, 0x00, 0x01, 0x14, 0x00, 0x00, 0x00,
  0x30, 0x00, 0x00, 0x00, 0x3b, 0x00, 0x00, 0x00, 0x00, 0x00, 0x00, 0x09, 0xac, 0x00, 0x00, 0x00, 0xdc, 0xc2, 0xff, 0xff,
  0x08, 0x00, 0x00, 0x00, 0x10, 0x00, 0x00, 0x00, 0x01, 0x00, 0x00, 0x00, 0x80, 0xff, 0xff, 0xff, 0xff, 0xff, 0xff, 0xff,
  0x01, 0x00, 0x00, 0x00, 0xc1, 0xc0, 0xc0, 0x3c, 0x80, 0x00, 0x00, 0x00, 0x74, 0x63, 0x6e, 0x2f, 0x74, 0x63, 0x6e, 0x2f,
  0x42, 0x33, 0x2e, 0x44, 0x31, 0x2e, 0x50, 0x57, 0x2e, 0x41, 0x43, 0x54, 0x2f, 0x52, 0x65, 0x6c, 0x75, 0x36, 0x3b, 0x74,
  0x63, 0x6e, 0x2f, 0x74, 0x63, 0x6e, 0x2f, 0x42, 0x33, 0x2e, 0x44, 0x31, 0x2e, 0x50, 0x57, 0x2e, 0x42, 0x31, 0x2e, 0x42,
  0x4e, 0x2f, 0x46, 0x75, 0x73, 0x65, 0x64, 0x42, 0x61, 0x74, 0x63, 0x68, 0x4e, 0x6f, 0x72, 0x6d, 0x56, 0x33, 0x3b, 0x74,
  0x63, 0x6e, 0x2f, 0x74, 0x63, 0x6e, 0x2f, 0x42, 0x34, 0x2e, 0x44, 0x31, 0x2e, 0x53, 0x45, 0x2e, 0x65, 0x78, 0x2e, 0x63,
  0x6f, 0x6e, 0x76, 0x2f, 0x43, 0x6f, 0x6e, 0x76, 0x32, 0x44, 0x3b, 0x74, 0x63, 0x6e, 0x2f, 0x74, 0x63, 0x6e, 0x2f, 0x42,
  0x33, 0x2e, 0x44, 0x31, 0x2e, 0x50, 0x57, 0x2e, 0x42, 0x31, 0x2e, 0x43, 0x4e, 0x2f, 0x43, 0x6f, 0x6e, 0x76, 0x32, 0x44,
  0x00, 0x00, 0x00, 0x00, 0x04, 0x00, 0x00, 0x00, 0x01, 0x00, 0x00, 0x00, 0x01, 0x00, 0x00, 0x00, 0x00, 0x01, 0x00, 0x00,
  0x20, 0x00, 0x00, 0x00, 0xca, 0xc3, 0xff, 0xff, 0x00, 0x00, 0x00, 0x01, 0x14, 0x00, 0x00, 0x00, 0x34, 0x00, 0x00, 0x00,
  0x3a, 0x00, 0x00, 0x00, 0x00, 0x00, 0x00, 0x09, 0x44, 0x00, 0x00, 0x00, 0xb4, 0xc3, 0xff, 0xff, 0x08, 0x00, 0x00, 0x00,
  0x14, 0x00, 0x00, 0x00, 0x01, 0x00, 0x00, 0x00, 0x80, 0xff, 0xff, 0xff, 0xff, 0xff, 0xff, 0xff, 0x00, 0x00, 0x00, 0x00,
  0x01, 0x00, 0x00, 0x00, 0xbc, 0x17, 0x57, 0x3c, 0x16, 0x00, 0x00, 0x00, 0x74, 0x63, 0x6e, 0x2f, 0x74, 0x63, 0x6e, 0x2f,
  0x6d, 0x75, 0x6c, 0x74, 0x69, 0x70, 0x6c, 0x79, 0x5f, 0x31, 0x2f, 0x6d, 0x75, 0x6c, 0x00, 0x00, 0x04, 0x00, 0x00, 0x00,
  0x01, 0x00, 0x00, 0x00, 0x01, 0x00, 0x00, 0x00, 0x00, 0x01, 0x00, 0x00, 0x18, 0x00, 0x00, 0x00, 0x3a, 0xc4, 0xff, 0xff,
  0x00, 0x00, 0x00, 0x01, 0x14, 0x00, 0x00, 0x00, 0x34, 0x00, 0x00, 0x00, 0x39, 0x00, 0x00, 0x00, 0x00, 0x00, 0x00, 0x09,
  0x54, 0x00, 0x00, 0x00, 0x24, 0xc4, 0xff, 0xff, 0x08, 0x00, 0x00, 0x00, 0x14, 0x00, 0x00, 0x00, 0x01, 0x00, 0x00, 0x00,
  0x80, 0xff, 0xff, 0xff, 0xff, 0xff, 0xff, 0xff, 0x00, 0x00, 0x00, 0x00, 0x01, 0x00, 0x00, 0x00, 0xf0, 0x3c, 0x4e, 0x3b,
  0x25, 0x00, 0x00, 0x00, 0x74, 0x63, 0x6e, 0x2f, 0x74, 0x63, 0x6e, 0x2f, 0x42, 0x33, 0x2e, 0x44, 0x31, 0x2e, 0x53, 0x45,
  0x2e, 0x65, 0x78, 0x2e, 0x61, 0x63, 0x74, 0x2f, 0x63, 0x6c, 0x69, 0x70, 0x5f, 0x62, 0x79, 0x5f, 0x76, 0x61, 0x6c, 0x75,
  0x65, 0x00, 0x00, 0x00, 0x04, 0x00, 0x00, 0x00, 0x01, 0x00, 0x00, 0x00, 0x01, 0x00, 0x00, 0x00, 0x01, 0x00, 0x00, 0x00,
  0x18, 0x00, 0x00, 0x00, 0xba, 0xc4, 0xff, 0xff, 0x00, 0x00, 0x00, 0x01, 0x14, 0x00, 0x00, 0x00, 0x34, 0x00, 0x00, 0x00,
  0x38, 0x00, 0x00, 0x00, 0x00, 0x00, 0x00, 0x09, 0x5c, 0x00, 0x00, 0x00, 0xa4, 0xc4, 0xff, 0xff, 0x08, 0x00, 0x00, 0x00,
  0x14, 0x00, 0x00, 0x00, 0x01, 0x00, 0x00, 0x00, 0xb3, 0xff, 0xff, 0xff, 0xff, 0xff, 0xff, 0xff, 0x00, 0x00, 0x00, 0x00,
  0x01, 0x00, 0x00, 0x00, 0x57, 0x22, 0x81, 0x3b, 0x2d, 0x00, 0x00, 0x00, 0x74, 0x63, 0x6e, 0x2f, 0x74, 0x63, 0x6e, 0x2f,
  0x42, 0x33, 0x2e, 0x44, 0x31, 0x2e, 0x53, 0x45, 0x2e, 0x65, 0x78, 0x2e, 0x61, 0x63, 0x74, 0x2f, 0x63, 0x6c, 0x69, 0x70,
  0x5f, 0x62, 0x79, 0x5f, 0x76, 0x61, 0x6c, 0x75, 0x65, 0x2f, 0x4d, 0x69, 0x6e, 0x69, 0x6d, 0x75, 0x6d, 0x00, 0x00, 0x00,
  0x04, 0x00, 0x00, 0x00, 0x01, 0x00, 0x00, 0x00, 0x01, 0x00, 0x00, 0x00, 0x01, 0x00, 0x00, 0x00, 0x18, 0x00, 0x00, 0x00,
  0x42, 0xc5, 0xff, 0xff, 0x00, 0x00, 0x00, 0x01, 0x14, 0x00, 0x00, 0x00, 0x34, 0x00, 0x00, 0x00, 0x37, 0x00, 0x00, 0x00,
  0x00, 0x00, 0x00, 0x09, 0x14, 0x01, 0x00, 0x00, 0x2c, 0xc5, 0xff, 0xff, 0x08, 0x00, 0x00, 0x00, 0x14, 0x00, 0x00, 0x00,
  0x01, 0x00, 0x00, 0x00, 0xb3, 0xff, 0xff, 0xff, 0xff, 0xff, 0xff, 0xff, 0x00, 0x00, 0x00, 0x00, 0x01, 0x00, 0x00, 0x00,
  0x57, 0x22, 0x81, 0x3b, 0xe6, 0x00, 0x00, 0x00, 0x74, 0x63, 0x6e, 0x2f, 0x74, 0x63, 0x6e, 0x2f, 0x42, 0x33, 0x2e, 0x44,
  0x31, 0x2e, 0x53, 0x45, 0x2e, 0x65, 0x78, 0x2e, 0x61, 0x63, 0x74, 0x2f, 0x41, 0x64, 0x64, 0x3b, 0x74, 0x63, 0x6e, 0x2f,
  0x74, 0x63, 0x6e, 0x2f, 0x42, 0x33, 0x2e, 0x44, 0x31, 0x2e, 0x53, 0x45, 0x2e, 0x65, 0x78, 0x2e, 0x61, 0x63, 0x74, 0x2f,
  0x4d, 0x75, 0x6c, 0x3b, 0x74, 0x63, 0x6e, 0x2f, 0x74, 0x63, 0x6e, 0x2f, 0x42, 0x33, 0x2e, 0x44, 0x31, 0x2e, 0x53, 0x45,
  0x2e, 0x65, 0x78, 0x2e, 0x63, 0x6f, 0x6e, 0x76, 0x2f, 0x42, 0x69, 0x61, 0x73, 0x41, 0x64, 0x64, 0x2f, 0x52, 0x65, 0x61,
  0x64, 0x56, 0x61, 0x72, 0x69, 0x61, 0x62, 0x6c, 0x65, 0x4f, 0x70, 0x3b, 0x74, 0x63, 0x6e, 0x2f, 0x74, 0x63, 0x6e, 0x2f,
  0x42, 0x33, 0x2e, 0x44, 0x31, 0x2e, 0x53, 0x45, 0x2e, 0x65, 0x78, 0x2e, 0x63, 0x6f, 0x6e, 0x76, 0x2f, 0x42, 0x69, 0x61,
  0x73, 0x41, 0x64, 0x64, 0x3b, 0x74, 0x63, 0x6e, 0x2f, 0x74, 0x63, 0x6e, 0x2f, 0x42, 0x32, 0x2e, 0x44, 0x31, 0x2e, 0x53,
  0x45, 0x2e, 0x65, 0x78, 0x2e, 0x61, 0x63, 0x74, 0x2f, 0x43, 0x6f, 0x6e, 0x73, 0x74, 0x3b, 0x74, 0x63, 0x6e, 0x2f, 0x74,
  0x63, 0x6e, 0x2f, 0x42, 0x32, 0x2e, 0x44, 0x31, 0x2e, 0x53, 0x45, 0x2e, 0x65, 0x78, 0x2e, 0x61, 0x63, 0x74, 0x2f, 0x43,
  0x6f, 0x6e, 0x73, 0x74, 0x5f, 0x31, 0x3b, 0x74, 0x63, 0x6e, 0x2f, 0x74, 0x63, 0x6e, 0x2f, 0x42, 0x33, 0x2e, 0x44, 0x31,
  0x2e, 0x53, 0x45, 0x2e, 0x65, 0x78, 0x2e, 0x63, 0x6f, 0x6e, 0x76, 0x2f, 0x43, 0x6f, 0x6e, 0x76, 0x32, 0x44, 0x00, 0x00,
  0x04, 0x00, 0x00, 0x00, 0x01, 0x00, 0x00, 0x00, 0x01, 0x00, 0x00, 0x00, 0x01, 0x00, 0x00, 0x00, 0x18, 0x00, 0x00, 0x00,
  0x82, 0xc6, 0xff, 0xff, 0x00, 0x00, 0x00, 0x01, 0x14, 0x00, 0x00, 0x00, 0x34, 0x00, 0x00, 0x00, 0x36, 0x00, 0x00, 0x00,
  0x00, 0x00, 0x00, 0x09, 0xbc, 0x00, 0x00, 0x00, 0x6c, 0xc6, 0xff, 0xff, 0x08, 0x00, 0x00, 0x00, 0x14, 0x00, 0x00, 0x00,
  0x01, 0x00, 0x00, 0x00, 0x80, 0xff, 0xff, 0xff, 0xff, 0xff, 0xff, 0xff, 0x00, 0x00, 0x00, 0x00, 0x01, 0x00, 0x00, 0x00,
  0x08, 0xa0, 0x1a, 0x3c, 0x8e, 0x00, 0x00, 0x00, 0x74, 0x63, 0x6e, 0x2f, 0x74, 0x63, 0x6e, 0x2f, 0x42, 0x33, 0x2e, 0x44,
  0x31, 0x2e, 0x53, 0x45, 0x2e, 0x73, 0x71, 0x2e, 0x61, 0x63, 0x74, 0x2f, 0x52, 0x65, 0x6c, 0x75, 0x36, 0x3b, 0x74, 0x63,
  0x6e, 0x2f, 0x74, 0x63, 0x6e, 0x2f, 0x42, 0x33, 0x2e, 0x44, 0x31, 0x2e, 0x53, 0x45, 0x2e, 0x73, 0x71, 0x2e, 0x63, 0x6f,
  0x6e, 0x76, 0x2f, 0x42, 0x69, 0x61, 0x73, 0x41, 0x64, 0x64, 0x3b, 0x74, 0x63, 0x6e, 0x2f, 0x74, 0x63, 0x6e, 0x2f, 0x42,
  0x33, 0x2e, 0x44, 0x31, 0x2e, 0x53, 0x45, 0x2e, 0x73, 0x71, 0x2e, 0x63, 0x6f, 0x6e, 0x76, 0x2f, 0x43, 0x6f, 0x6e, 0x76,
  0x32, 0x44, 0x3b, 0x74, 0x63, 0x6e, 0x2f, 0x74, 0x63, 0x6e, 0x2f, 0x42, 0x33, 0x2e, 0x44, 0x31, 0x2e, 0x53, 0x45, 0x2e,
  0x73, 0x71, 0x2e, 0x63, 0x6f, 0x6e, 0x76, 0x2f, 0x42, 0x69, 0x61, 0x73, 0x41, 0x64, 0x64, 0x2f, 0x52, 0x65, 0x61, 0x64,
  0x56, 0x61, 0x72, 0x69, 0x61, 0x62, 0x6c, 0x65, 0x4f, 0x70, 0x00, 0x00, 0x04, 0x00, 0x00, 0x00, 0x01, 0x00, 0x00, 0x00,
  0x01, 0x00, 0x00, 0x00, 0x01, 0x00, 0x00, 0x00, 0x0c, 0x00, 0x00, 0x00, 0x6a, 0xc7, 0xff, 0xff, 0x00, 0x00, 0x00, 0x01,
  0x14, 0x00, 0x00, 0x00, 0x30, 0x00, 0x00, 0x00, 0x35, 0x00, 0x00, 0x00, 0x00, 0x00, 0x00, 0x09, 0x44, 0x00, 0x00, 0x00,
  0x54, 0xc7, 0xff, 0xff, 0x08, 0x00, 0x00, 0x00, 0x10, 0x00, 0x00, 0x00, 0x01, 0x00, 0x00, 0x00, 0x80, 0xff, 0xff, 0xff,
  0xff, 0xff, 0xff, 0xff, 0x01, 0x00, 0x00, 0x00, 0xfb, 0x70, 0xc0, 0x3b, 0x1a, 0x00, 0x00, 0x00, 0x74, 0x63, 0x6e, 0x2f,
  0x74, 0x63, 0x6e, 0x2f, 0x42, 0x33, 0x2e, 0x44, 0x31, 0x2e, 0x53, 0x45, 0x2e, 0x70, 0x6f, 0x6f, 0x6c, 0x2f, 0x4d, 0x65,
  0x61, 0x6e, 0x00, 0x00, 0x04, 0x00, 0x00, 0x00, 0x01, 0x00, 0x00, 0x00, 0x01, 0x00, 0x00, 0x00, 0x01, 0x00, 0x00, 0x00,
  0x18, 0x00, 0x00, 0x00, 0xda, 0xc7, 0xff, 0xff, 0x00, 0x00, 0x00, 0x01, 0x14, 0x00, 0x00, 0x00, 0x30, 0x00, 0x00, 0x00,
  0x34, 0x00, 0x00, 0x00, 0x00, 0x00, 0x00, 0x09, 0xac, 0x00, 0x00, 0x00, 0xc4, 0xc7, 0xff, 0xff, 0x08, 0x00, 0x00, 0x00,
  0x10, 0x00, 0x00, 0x00, 0x01, 0x00, 0x00, 0x00, 0x80, 0xff, 0xff, 0xff, 0xff, 0xff, 0xff, 0xff, 0x01, 0x00, 0x00, 0x00,
  0xc1, 0xc0, 0xc0, 0x3c, 0x83, 0x00, 0x00, 0x00, 0x74, 0x63, 0x6e, 0x2f, 0x74, 0x63, 0x6e, 0x2f, 0x42, 0x33, 0x2e, 0x44,
  0x31, 0x2e, 0x44, 0x57, 0x2e, 0x41, 0x43, 0x54, 0x2f, 0x52, 0x65, 0x6c, 0x75, 0x36, 0x3b, 0x74, 0x63, 0x6e, 0x2f, 0x74,
  0x63, 0x6e, 0x2f, 0x42, 0x33, 0x2e, 0x44, 0x31, 0x2e, 0x44, 0x57, 0x2e, 0x42, 0x31, 0x2e, 0x42, 0x4e, 0x2f, 0x46, 0x75,
  0x73, 0x65, 0x64, 0x42, 0x61, 0x74, 0x63, 0x68, 0x4e, 0x6f, 0x72, 0x6d, 0x56, 0x33, 0x3b, 0x74, 0x63, 0x6e, 0x2f, 0x74,
  0x63, 0x6e, 0x2f, 0x42, 0x33, 0x2e, 0x44, 0x31, 0x2e, 0x53, 0x45, 0x2e, 0x65, 0x78, 0x2e, 0x63, 0x6f, 0x6e, 0x76, 0x2f,
  0x43, 0x6f, 0x6e, 0x76, 0x32, 0x44, 0x3b, 0x74, 0x63, 0x6e, 0x2f, 0x74, 0x63, 0x6e, 0x2f, 0x42, 0x33, 0x2e, 0x44, 0x31,
  0x2e, 0x44, 0x57, 0x2e, 0x42, 0x31, 0x2e, 0x43, 0x4e, 0x2f, 0x64, 0x65, 0x70, 0x74, 0x68, 0x77, 0x69, 0x73, 0x65, 0x00,
  0x04, 0x00, 0x00, 0x00, 0x01, 0x00, 0x00, 0x00, 0x01, 0x00, 0x00, 0x00, 0x00, 0x01, 0x00, 0x00, 0x18, 0x00, 0x00, 0x00,
  0xb2, 0xc8, 0xff, 0xff, 0x00, 0x00, 0x00, 0x01, 0x14, 0x00, 0x00, 0x00, 0x30, 0x00, 0x00, 0x00, 0x33, 0x00, 0x00, 0x00,
  0x00, 0x00, 0x00, 0x09, 0xac, 0x00, 0x00, 0x00, 0x9c, 0xc8, 0xff, 0xff, 0x08, 0x00, 0x00, 0x00, 0x10, 0x00, 0x00, 0x00,
  0x01, 0x00, 0x00, 0x00, 0x80, 0xff, 0xff, 0xff, 0xff, 0xff, 0xff, 0xff, 0x01, 0x00, 0x00, 0x00, 0x25, 0x42, 0xa9, 0x3c,
  0x80, 0x00, 0x00, 0x00, 0x74, 0x63, 0x6e, 0x2f, 0x74, 0x63, 0x6e, 0x2f, 0x42, 0x32, 0x2e, 0x44, 0x31, 0x2e, 0x50, 0x57,
  0x2e, 0x41, 0x43, 0x54, 0x2f, 0x52, 0x65, 0x6c, 0x75, 0x36, 0x3b, 0x74, 0x63, 0x6e, 0x2f, 0x74, 0x63, 0x6e, 0x2f, 0x42,
  0x32, 0x2e, 0x44, 0x31, 0x2e, 0x50, 0x57, 0x2e, 0x42, 0x31, 0x2e, 0x42, 0x4e, 0x2f, 0x46, 0x75, 0x73, 0x65, 0x64, 0x42,
  0x61, 0x74, 0x63, 0x68, 0x4e, 0x6f, 0x72, 0x6d, 0x56, 0x33, 0x3b, 0x74, 0x63, 0x6e, 0x2f, 0x74, 0x63, 0x6e, 0x2f, 0x42,
  0x33, 0x2e, 0x44, 0x31, 0x2e, 0x53, 0x45, 0x2e, 0x65, 0x78, 0x2e, 0x63, 0x6f, 0x6e, 0x76, 0x2f, 0x43, 0x6f, 0x6e, 0x76,
  0x32, 0x44, 0x3b, 0x74, 0x63, 0x6e, 0x2f, 0x74, 0x63, 0x6e, 0x2f, 0x42, 0x32, 0x2e, 0x44, 0x31, 0x2e, 0x50, 0x57, 0x2e,
  0x42, 0x31, 0x2e, 0x43, 0x4e, 0x2f, 0x43, 0x6f, 0x6e, 0x76, 0x32, 0x44, 0x00, 0x00, 0x00, 0x00, 0x04, 0x00, 0x00, 0x00,
  0x01, 0x00, 0x00, 0x00, 0x01, 0x00, 0x00, 0x00, 0x00, 0x01, 0x00, 0x00, 0x18, 0x00, 0x00, 0x00, 0x8a, 0xc9, 0xff, 0xff,
  0x00, 0x00, 0x00, 0x01, 0x14, 0x00, 0x00, 0x00, 0x34, 0x00, 0x00, 0x00, 0x32, 0x00, 0x00, 0x00, 0x00, 0x00, 0x00, 0x09,
  0x44, 0x00, 0x00, 0x00, 0x74, 0xc9, 0xff, 0xff, 0x08, 0x00, 0x00, 0x00, 0x14, 0x00, 0x00, 0x00, 0x01, 0x00, 0x00, 0x00,
  0x80, 0xff, 0xff, 0xff, 0xff, 0xff, 0xff, 0xff, 0x00, 0x00, 0x00, 0x00, 0x01, 0x00, 0x00, 0x00, 0xe4, 0x86, 0x87, 0x3c,
  0x14, 0x00, 0x00, 0x00, 0x74, 0x63, 0x6e, 0x2f, 0x74, 0x63, 0x6e, 0x2f, 0x6d, 0x75, 0x6c, 0x74, 0x69, 0x70, 0x6c, 0x79,
  0x2f, 0x6d, 0x75, 0x6c, 0x00, 0x00, 0x00, 0x00, 0x04, 0x00, 0x00, 0x00, 0x01, 0x00, 0x00, 0x00, 0x01, 0x00, 0x00, 0x00,
  0x00, 0x01, 0x00, 0x00, 0x10, 0x00, 0x00, 0x00, 0xfa, 0xc9, 0xff, 0xff, 0x00, 0x00, 0x00, 0x01, 0x14, 0x00, 0x00, 0x00,
  0x34, 0x00, 0x00, 0x00, 0x31, 0x00, 0x00, 0x00, 0x00, 0x00, 0x00, 0x09, 0x54, 0x00, 0x00, 0x00, 0xe4, 0xc9, 0xff, 0xff,
  0x08, 0x00, 0x00, 0x00, 0x14, 0x00, 0x00, 0x00, 0x01, 0x00, 0x00, 0x00, 0x80, 0xff, 0xff, 0xff, 0xff, 0xff, 0xff, 0xff,
  0x00, 0x00, 0x00, 0x00, 0x01, 0x00, 0x00, 0x00, 0xf0, 0xc6, 0x50, 0x3b, 0x25, 0x00, 0x00, 0x00, 0x74, 0x63, 0x6e, 0x2f,
  0x74, 0x63, 0x6e, 0x2f, 0x42, 0x32, 0x2e, 0x44, 0x31, 0x2e, 0x53, 0x45, 0x2e, 0x65, 0x78, 0x2e, 0x61, 0x63, 0x74, 0x2f,
  0x63, 0x6c, 0x69, 0x70, 0x5f, 0x62, 0x79, 0x5f, 0x76, 0x61, 0x6c, 0x75, 0x65, 0x00, 0x00, 0x00, 0x04, 0x00, 0x00, 0x00,
  0x01, 0x00, 0x00, 0x00, 0x01, 0x00, 0x00, 0x00, 0x01, 0x00, 0x00, 0x00, 0x10, 0x00, 0x00, 0x00, 0x7a, 0xca, 0xff, 0xff,
  0x00, 0x00, 0x00, 0x01, 0x14, 0x00, 0x00, 0x00, 0x34, 0x00, 0x00, 0x00, 0x30, 0x00, 0x00, 0x00, 0x00, 0x00, 0x00, 0x09,
  0x5c, 0x00, 0x00, 0x00, 0x64, 0xca, 0xff, 0xff, 0x08, 0x00, 0x00, 0x00, 0x14, 0x00, 0x00, 0x00, 0x01, 0x00, 0x00, 0x00,
  0x80, 0xff, 0xff, 0xff, 0xff, 0xff, 0xff, 0xff, 0x00, 0x00, 0x00, 0x00, 0x01, 0x00, 0x00, 0x00, 0xf0, 0xc6, 0x50, 0x3b,
  0x2d, 0x00, 0x00, 0x00, 0x74, 0x63, 0x6e, 0x2f, 0x74, 0x63, 0x6e, 0x2f, 0x42, 0x32, 0x2e, 0x44, 0x31, 0x2e, 0x53, 0x45,
  0x2e, 0x65, 0x78, 0x2e, 0x61, 0x63, 0x74, 0x2f, 0x63, 0x6c, 0x69, 0x70, 0x5f, 0x62, 0x79, 0x5f, 0x76, 0x61, 0x6c, 0x75,
  0x65, 0x2f, 0x4d, 0x69, 0x6e, 0x69, 0x6d, 0x75, 0x6d, 0x00, 0x00, 0x00, 0x04, 0x00, 0x00, 0x00, 0x01, 0x00, 0x00, 0x00,
  0x01, 0x00, 0x00, 0x00, 0x01, 0x00, 0x00, 0x00, 0x10, 0x00, 0x00, 0x00, 0x02, 0xcb, 0xff, 0xff, 0x00, 0x00, 0x00, 0x01,
  0x14, 0x00, 0x00, 0x00, 0x34, 0x00, 0x00, 0x00, 0x2f, 0x00, 0x00, 0x00, 0x00, 0x00, 0x00, 0x09, 0x34, 0x01, 0x00, 0x00,
  0xec, 0xca, 0xff, 0xff, 0x08, 0x00, 0x00, 0x00, 0x14, 0x00, 0x00, 0x00, 0x01, 0x00, 0x00, 0x00, 0x80, 0xff, 0xff, 0xff,
  0xff, 0xff, 0xff, 0xff, 0x00, 0x00, 0x00, 0x00, 0x01, 0x00, 0x00, 0x00, 0xf0, 0xc6, 0x50, 0x3b, 0x06, 0x01, 0x00, 0x00,
  0x74, 0x63, 0x6e, 0x2f, 0x74, 0x63, 0x6e, 0x2f, 0x42, 0x32, 0x2e, 0x44, 0x31, 0x2e, 0x53, 0x45, 0x2e, 0x65, 0x78, 0x2e,
  0x61, 0x63, 0x74, 0x2f, 0x41, 0x64, 0x64, 0x3b, 0x74, 0x63, 0x6e, 0x2f, 0x74, 0x63, 0x6e, 0x2f, 0x42, 0x32, 0x2e, 0x44,
  0x31, 0x2e, 0x53, 0x45, 0x2e, 0x65, 0x78, 0x2e, 0x61, 0x63, 0x74, 0x2f, 0x4d, 0x75, 0x6c, 0x3b, 0x74, 0x63, 0x6e, 0x2f,
  0x74, 0x63, 0x6e, 0x2f, 0x42, 0x32, 0x2e, 0x44, 0x31, 0x2e, 0x53, 0x45, 0x2e, 0x65, 0x78, 0x2e, 0x63, 0x6f, 0x6e, 0x76,
  0x2f, 0x42, 0x69, 0x61, 0x73, 0x41, 0x64, 0x64, 0x2f, 0x52, 0x65, 0x61, 0x64, 0x56, 0x61, 0x72, 0x69, 0x61, 0x62, 0x6c,
  0x65, 0x4f, 0x70, 0x3b, 0x74, 0x63, 0x6e, 0x2f, 0x74, 0x63, 0x6e, 0x2f, 0x42, 0x32, 0x2e, 0x44, 0x31, 0x2e, 0x53, 0x45,
  0x2e, 0x65, 0x78, 0x2e, 0x63, 0x6f, 0x6e, 0x76, 0x2f, 0x42, 0x69, 0x61, 0x73, 0x41, 0x64, 0x64, 0x3b, 0x74, 0x63, 0x6e,
  0x2f, 0x74, 0x63, 0x6e, 0x2f, 0x42, 0x32, 0x2e, 0x44, 0x31, 0x2e, 0x53, 0x45, 0x2e, 0x65, 0x78, 0x2e, 0x61, 0x63, 0x74,
  0x2f, 0x43, 0x6f, 0x6e, 0x73, 0x74, 0x3b, 0x74, 0x63, 0x6e, 0x2f, 0x74, 0x63, 0x6e, 0x2f, 0x42, 0x32, 0x2e, 0x44, 0x31,
  0x2e, 0x53, 0x45, 0x2e, 0x65, 0x78, 0x2e, 0x61, 0x63, 0x74, 0x2f, 0x43, 0x6f, 0x6e, 0x73, 0x74, 0x5f, 0x31, 0x3b, 0x74,
  0x63, 0x6e, 0x2f, 0x74, 0x63, 0x6e, 0x2f, 0x42, 0x34, 0x2e, 0x44, 0x31, 0x2e, 0x53, 0x45, 0x2e, 0x73, 0x71, 0x2e, 0x63,
  0x6f, 0x6e, 0x76, 0x2f, 0x43, 0x6f, 0x6e, 0x76, 0x32, 0x44, 0x3b, 0x74, 0x63, 0x6e, 0x2f, 0x74, 0x63, 0x6e, 0x2f, 0x42,
  0x32, 0x2e, 0x44, 0x31, 0x2e, 0x53, 0x45, 0x2e, 0x65, 0x78, 0x2e, 0x63, 0x6f, 0x6e, 0x76, 0x2f, 0x43, 0x6f, 0x6e, 0x76,
  0x32, 0x44, 0x00, 0x00, 0x04, 0x00, 0x00, 0x00, 0x01, 0x00, 0x00, 0x00, 0x01, 0x00, 0x00, 0x00, 0x01, 0x00, 0x00, 0x00,
  0x10, 0x00, 0x00, 0x00, 0x62, 0xcc, 0xff, 0xff, 0x00, 0x00, 0x00, 0x01, 0x14, 0x00, 0x00, 0x00, 0x34, 0x00, 0x00, 0x00,
  0x2e, 0x00, 0x00, 0x00, 0x00, 0x00, 0x00, 0x09, 0xbc, 0x00, 0x00, 0x00, 0x4c, 0xcc, 0xff, 0xff, 0x08, 0x00, 0x00, 0x00,
  0x14, 0x00, 0x00, 0x00, 0x01, 0x00, 0x00, 0x00, 0x80, 0xff, 0xff, 0xff, 0xff, 0xff, 0xff, 0xff, 0x00, 0x00, 0x00, 0x00,
  0x01, 0x00, 0x00, 0x00, 0x5d, 0x26, 0x97, 0x3b, 0x8e, 0x00, 0x00, 0x00, 0x74, 0x63, 0x6e, 0x2f, 0x74, 0x63, 0x6e, 0x2f,
  0x42, 0x32, 0x2e, 0x44, 0x31, 0x2e, 0x53, 0x45, 0x2e, 0x73, 0x71, 0x2e, 0x61, 0x63, 0x74, 0x2f, 0x52, 0x65, 0x6c, 0x75,
  0x36, 0x3b, 0x74, 0x63, 0x6e, 0x2f, 0x74, 0x63, 0x6e, 0x2f, 0x42, 0x32, 0x2e, 0x44, 0x31, 0x2e, 0x53, 0x45, 0x2e, 0x73,
  0x71, 0x2e, 0x63, 0x6f, 0x6e, 0x76, 0x2f, 0x42, 0x69, 0x61, 0x73, 0x41, 0x64, 0x64, 0x3b, 0x74, 0x63, 0x6e, 0x2f, 0x74,
  0x63, 0x6e, 0x2f, 0x42, 0x32, 0x2e, 0x44, 0x31, 0x2e, 0x53, 0x45, 0x2e, 0x73, 0x71, 0x2e, 0x63, 0x6f, 0x6e, 0x76, 0x2f,
  0x43, 0x6f, 0x6e, 0x76, 0x32, 0x44, 0x3b, 0x74, 0x63, 0x6e, 0x2f, 0x74, 0x63, 0x6e, 0x2f, 0x42, 0x32, 0x2e, 0x44, 0x31,
  0x2e, 0x53, 0x45, 0x2e, 0x73, 0x71, 0x2e, 0x63, 0x6f, 0x6e, 0x76, 0x2f, 0x42, 0x69, 0x61, 0x73, 0x41, 0x64, 0x64, 0x2f,
  0x52, 0x65, 0x61, 0x64, 0x56, 0x61, 0x72, 0x69, 0x61, 0x62, 0x6c, 0x65, 0x4f, 0x70, 0x00, 0x00, 0x04, 0x00, 0x00, 0x00,
  0x01, 0x00, 0x00, 0x00, 0x01, 0x00, 0x00, 0x00, 0x01, 0x00, 0x00, 0x00, 0x08, 0x00, 0x00, 0x00, 0x4a, 0xcd, 0xff, 0xff,
  0x00, 0x00, 0x00, 0x01, 0x14, 0x00, 0x00, 0x00, 0x30, 0x00, 0x00, 0x00, 0x2d, 0x00, 0x00, 0x00, 0x00, 0x00, 0x00, 0x09,
  0x44, 0x00, 0x00, 0x00, 0x34, 0xcd, 0xff, 0xff, 0x08, 0x00, 0x00, 0x00, 0x10, 0x00, 0x00, 0x00, 0x01, 0x00, 0x00, 0x00,
  0x80, 0xff, 0xff, 0xff, 0xff, 0xff, 0xff, 0xff, 0x01, 0x00, 0x00, 0x00, 0x1a, 0xdf, 0x2e, 0x3b, 0x1a, 0x00, 0x00, 0x00,
  0x74, 0x63, 0x6e, 0x2f, 0x74, 0x63, 0x6e, 0x2f, 0x42, 0x32, 0x2e, 0x44, 0x31, 0x2e, 0x53, 0x45, 0x2e, 0x70, 0x6f, 0x6f,
  0x6c, 0x2f, 0x4d, 0x65, 0x61, 0x6e, 0x00, 0x00, 0x04, 0x00, 0x00, 0x00, 0x01, 0x00, 0x00, 0x00, 0x01, 0x00, 0x00, 0x00,
  0x01, 0x00, 0x00, 0x00, 0x10, 0x00, 0x00, 0x00, 0xba, 0xcd, 0xff, 0xff, 0x00, 0x00, 0x00, 0x01, 0x14, 0x00, 0x00, 0x00,
  0x30, 0x00, 0x00, 0x00, 0x2c, 0x00, 0x00, 0x00, 0x00, 0x00, 0x00, 0x09, 0xac, 0x00, 0x00, 0x00, 0xa4, 0xcd, 0xff, 0xff,
  0x08, 0x00, 0x00, 0x00, 0x10, 0x00, 0x00, 0x00, 0x01, 0x00, 0x00, 0x00, 0x80, 0xff, 0xff, 0xff, 0xff, 0xff, 0xff, 0xff,
  0x01, 0x00, 0x00, 0x00, 0xc1, 0xc0, 0xc0, 0x3c, 0x83, 0x00, 0x00, 0x00, 0x74, 0x63, 0x6e, 0x2f, 0x74, 0x63, 0x6e, 0x2f,
  0x42, 0x32, 0x2e, 0x44, 0x31, 0x2e, 0x44, 0x57, 0x2e, 0x41, 0x43, 0x54, 0x2f, 0x52, 0x65, 0x6c, 0x75, 0x36, 0x3b, 0x74,
  0x63, 0x6e, 0x2f, 0x74, 0x63, 0x6e, 0x2f, 0x42, 0x32, 0x2e, 0x44, 0x31, 0x2e, 0x44, 0x57, 0x2e, 0x42, 0x31, 0x2e, 0x42,
  0x4e, 0x2f, 0x46, 0x75, 0x73, 0x65, 0x64, 0x42, 0x61, 0x74, 0x63, 0x68, 0x4e, 0x6f, 0x72, 0x6d, 0x56, 0x33, 0x3b, 0x74,
  0x63, 0x6e, 0x2f, 0x74, 0x63, 0x6e, 0x2f, 0x42, 0x34, 0x2e, 0x44, 0x31, 0x2e, 0x53, 0x45, 0x2e, 0x73, 0x71, 0x2e, 0x63,
  0x6f, 0x6e, 0x76, 0x2f, 0x43, 0x6f, 0x6e, 0x76, 0x32, 0x44, 0x3b, 0x74, 0x63, 0x6e, 0x2f, 0x74, 0x63, 0x6e, 0x2f, 0x42,
  0x32, 0x2e, 0x44, 0x31, 0x2e, 0x44, 0x57, 0x2e, 0x42, 0x31, 0x2e, 0x43, 0x4e, 0x2f, 0x64, 0x65, 0x70, 0x74, 0x68, 0x77,
  0x69, 0x73, 0x65, 0x00, 0x04, 0x00, 0x00, 0x00, 0x01, 0x00, 0x00, 0x00, 0x01, 0x00, 0x00, 0x00, 0x00, 0x01, 0x00, 0x00,
  0x10, 0x00, 0x00, 0x00, 0x92, 0xce, 0xff, 0xff, 0x00, 0x00, 0x00, 0x01, 0x14, 0x00, 0x00, 0x00, 0x30, 0x00, 0x00, 0x00,
  0x2b, 0x00, 0x00, 0x00, 0x00, 0x00, 0x00, 0x09, 0xac, 0x00, 0x00, 0x00, 0x7c, 0xce, 0xff, 0xff, 0x08, 0x00, 0x00, 0x00,
  0x10, 0x00, 0x00, 0x00, 0x01, 0x00, 0x00, 0x00, 0x80, 0xff, 0xff, 0xff, 0xff, 0xff, 0xff, 0xff, 0x01, 0x00, 0x00, 0x00,
  0xc1, 0xc0, 0xc0, 0x3c, 0x80, 0x00, 0x00, 0x00, 0x74, 0x63, 0x6e, 0x2f, 0x74, 0x63, 0x6e, 0x2f, 0x42, 0x31, 0x2e, 0x44,
  0x31, 0x2e, 0x50, 0x57, 0x2e, 0x41, 0x43, 0x54, 0x2f, 0x52, 0x65, 0x6c, 0x75, 0x36, 0x3b, 0x74, 0x63, 0x6e, 0x2f, 0x74,
  0x63, 0x6e, 0x2f, 0x42, 0x31, 0x2e, 0x44, 0x31, 0x2e, 0x50, 0x57, 0x2e, 0x42, 0x31, 0x2e, 0x42, 0x4e, 0x2f, 0x46, 0x75,
  0x73, 0x65, 0x64, 0x42, 0x61, 0x74, 0x63, 0x68, 0x4e, 0x6f, 0x72, 0x6d, 0x56, 0x33, 0x3b, 0x74, 0x63, 0x6e, 0x2f, 0x74,
  0x63, 0x6e, 0x2f, 0x42, 0x34, 0x2e, 0x44, 0x31, 0x2e, 0x53, 0x45, 0x2e, 0x73, 0x71, 0x2e, 0x63, 0x6f, 0x6e, 0x76, 0x2f,
  0x43, 0x6f, 0x6e, 0x76, 0x32, 0x44, 0x3b, 0x74, 0x63, 0x6e, 0x2f, 0x74, 0x63, 0x6e, 0x2f, 0x42, 0x31, 0x2e, 0x44, 0x31,
  0x2e, 0x50, 0x57, 0x2e, 0x42, 0x31, 0x2e, 0x43, 0x4e, 0x2f, 0x43, 0x6f, 0x6e, 0x76, 0x32, 0x44, 0x00, 0x00, 0x00, 0x00,
  0x04, 0x00, 0x00, 0x00, 0x01, 0x00, 0x00, 0x00, 0x01, 0x00, 0x00, 0x00, 0x00, 0x01, 0x00, 0x00, 0x10, 0x00, 0x00, 0x00,
  0x6a, 0xcf, 0xff, 0xff, 0x00, 0x00, 0x00, 0x01, 0x14, 0x00, 0x00, 0x00, 0x30, 0x00, 0x00, 0x00, 0x2a, 0x00, 0x00, 0x00,
  0x00, 0x00, 0x00, 0x09, 0x8c, 0x00, 0x00, 0x00, 0x54, 0xcf, 0xff, 0xff, 0x08, 0x00, 0x00, 0x00, 0x10, 0x00, 0x00, 0x00,
  0x01, 0x00, 0x00, 0x00, 0x80, 0xff, 0xff, 0xff, 0xff, 0xff, 0xff, 0xff, 0x01, 0x00, 0x00, 0x00, 0x7c, 0xda, 0x72, 0x3c,
  0x63, 0x00, 0x00, 0x00, 0x74, 0x63, 0x6e, 0x2f, 0x74, 0x63, 0x6e, 0x2f, 0x42, 0x31, 0x2e, 0x44, 0x31, 0x2e, 0x44, 0x57,
  0x2e, 0x41, 0x43, 0x54, 0x2f, 0x52, 0x65, 0x6c, 0x75, 0x36, 0x3b, 0x74, 0x63, 0x6e, 0x2f, 0x74, 0x63, 0x6e, 0x2f, 0x42,
  0x31, 0x2e, 0x44, 0x31, 0x2e, 0x44, 0x57, 0x2e, 0x42, 0x31, 0x2e, 0x42, 0x4e, 0x2f, 0x46, 0x75, 0x73, 0x65, 0x64, 0x42,
  0x61, 0x74, 0x63, 0x68, 0x4e, 0x6f, 0x72, 0x6d, 0x56, 0x33, 0x3b, 0x74, 0x63, 0x6e, 0x2f, 0x74, 0x63, 0x6e, 0x2f, 0x42,
  0x31, 0x2e, 0x44, 0x31, 0x2e, 0x44, 0x57, 0x2e, 0x42, 0x31, 0x2e, 0x43, 0x4e, 0x2f, 0x64, 0x65, 0x70, 0x74, 0x68, 0x77,
  0x69, 0x73, 0x65, 0x00, 0x04, 0x00, 0x00, 0x00, 0x01, 0x00, 0x00, 0x00, 0x01, 0x00, 0x00, 0x00, 0x00, 0x01, 0x00, 0x00,
  0x01, 0x00, 0x00, 0x00, 0x22, 0xd0, 0xff, 0xff, 0x00, 0x00, 0x00, 0x01, 0x14, 0x00, 0x00, 0x00, 0x30, 0x00, 0x00, 0x00,
  0x29, 0x00, 0x00, 0x00, 0x00, 0x00, 0x00, 0x09, 0x84, 0x00, 0x00, 0x00, 0x0c, 0xd0, 0xff, 0xff, 0x08, 0x00, 0x00, 0x00,
  0x10, 0x00, 0x00, 0x00, 0x01, 0x00, 0x00, 0x00, 0x03, 0x00, 0x00, 0x00, 0x00, 0x00, 0x00, 0x00, 0x01, 0x00, 0x00, 0x00,
  0x58, 0x04, 0x93, 0x3d, 0x59, 0x00, 0x00, 0x00, 0x74, 0x63, 0x6e, 0x2f, 0x74, 0x63, 0x6e, 0x2f, 0x45, 0x4e, 0x43, 0x2e,
  0x42, 0x4e, 0x2f, 0x46, 0x75, 0x73, 0x65, 0x64, 0x42, 0x61, 0x74, 0x63, 0x68, 0x4e, 0x6f, 0x72, 0x6d, 0x56, 0x33, 0x3b,
  0x74, 0x63, 0x6e, 0x2f, 0x74, 0x63, 0x6e, 0x2f, 0x42, 0x31, 0x2e, 0x44, 0x31, 0x2e, 0x44, 0x57, 0x2e, 0x42, 0x31, 0x2e,
  0x43, 0x4e, 0x2f, 0x64, 0x65, 0x70, 0x74, 0x68, 0x77, 0x69, 0x73, 0x65, 0x3b, 0x74, 0x63, 0x6e, 0x2f, 0x74, 0x63, 0x6e,
  0x2f, 0x45, 0x4e, 0x43, 0x2e, 0x43, 0x4e, 0x2f, 0x64, 0x65, 0x70, 0x74, 0x68, 0x77, 0x69, 0x73, 0x65, 0x00, 0x00, 0x00,
  0x04, 0x00, 0x00, 0x00, 0x01, 0x00, 0x00, 0x00, 0x01, 0x00, 0x00, 0x00, 0x00, 0x01, 0x00, 0x00, 0x01, 0x00, 0x00, 0x00,
  0xd2, 0xd0, 0xff, 0xff, 0x00, 0x00, 0x00, 0x01, 0x14, 0x00, 0x00, 0x00, 0x30, 0x00, 0x00, 0x00, 0x28, 0x00, 0x00, 0x00,
  0x00, 0x00, 0x00, 0x09, 0x40, 0x00, 0x00, 0x00, 0xbc, 0xd0, 0xff, 0xff, 0x08, 0x00, 0x00, 0x00, 0x10, 0x00, 0x00, 0x00,
  0x01, 0x00, 0x00, 0x00, 0xf3, 0xff, 0xff, 0xff, 0xff, 0xff, 0xff, 0xff, 0x01, 0x00, 0x00, 0x00, 0xb5, 0xc7, 0x93, 0x3d,
  0x17, 0x00, 0x00, 0x00, 0x74, 0x63, 0x6e, 0x2f, 0x74, 0x63, 0x6e, 0x2f, 0x72, 0x65, 0x73, 0x68, 0x61, 0x70, 0x65, 0x2f,
  0x52, 0x65, 0x73, 0x68, 0x61, 0x70, 0x65, 0x00, 0x04, 0x00, 0x00, 0x00, 0x01, 0x00, 0x00, 0x00, 0x01, 0x00, 0x00, 0x00,
  0x00, 0x01, 0x00, 0x00, 0x01, 0x00, 0x00, 0x00, 0x3e, 0xd1, 0xff, 0xff, 0x00, 0x00, 0x00, 0x01, 0x14, 0x00, 0x00, 0x00,
  0x34, 0x00, 0x00, 0x00, 0x27, 0x00, 0x00, 0x00, 0x00, 0x00, 0x00, 0x09, 0x88, 0x00, 0x00, 0x00, 0x02, 0xe3, 0xff, 0xff,
  0x03, 0x00, 0x00, 0x00, 0x08, 0x00, 0x00, 0x00, 0x10, 0x00, 0x00, 0x00, 0x01, 0x00, 0x00, 0x00, 0x00, 0x00, 0x00, 0x00,
  0x00, 0x00, 0x00, 0x00, 0x01, 0x00, 0x00, 0x00, 0xb2, 0x22, 0x99, 0x3b, 0x59, 0x00, 0x00, 0x00, 0x74, 0x63, 0x6e, 0x2f,
  0x74, 0x63, 0x6e, 0x2f, 0x45, 0x4e, 0x43, 0x2e, 0x42, 0x4e, 0x2f, 0x46, 0x75, 0x73, 0x65, 0x64, 0x42, 0x61, 0x74, 0x63,
  0x68, 0x4e, 0x6f, 0x72, 0x6d, 0x56, 0x33, 0x3b, 0x74, 0x63, 0x6e, 0x2f, 0x74, 0x63, 0x6e, 0x2f, 0x45, 0x4e, 0x43, 0x2e,
  0x43, 0x4e, 0x2f, 0x64, 0x65, 0x70, 0x74, 0x68, 0x77, 0x69, 0x73, 0x65, 0x3b, 0x74, 0x63, 0x6e, 0x2f, 0x74, 0x63, 0x6e,
  0x2f, 0x42, 0x31, 0x2e, 0x44, 0x31, 0x2e, 0x44, 0x57, 0x2e, 0x42, 0x31, 0x2e, 0x43, 0x4e, 0x2f, 0x64, 0x65, 0x70, 0x74,
