#ifndef __PPG_DENOISE_FLATBUFFER_H
#define __PPG_DENOISE_FLATBUFFER_H
const unsigned char ppg_denoise_flatbuffer[] = {
  0x1c, 0x00, 0x00, 0x00, 0x54, 0x46, 0x4c, 0x33, 0x14, 0x00, 0x20, 0x00, 0x1c, 0x00, 0x18, 0x00, 0x14, 0x00, 0x10, 0x00,
  0x0c, 0x00, 0x00, 0x00, 0x08, 0x00, 0x04, 0x00, 0x14, 0x00, 0x00, 0x00, 0x1c, 0x00, 0x00, 0x00, 0x84, 0x00, 0x00, 0x00,
  0x04, 0x01, 0x00, 0x00, 0x5c, 0x11, 0x00, 0x00, 0x6c, 0x11, 0x00, 0x00, 0x94, 0x5d, 0x00, 0x00, 0x03, 0x00, 0x00, 0x00,
  0x01, 0x00, 0x00, 0x00, 0x04, 0x00, 0x00, 0x00, 0x4a, 0xe5, 0xff, 0xff, 0x0c, 0x00, 0x00, 0x00, 0x1c, 0x00, 0x00, 0x00,
  0x3c, 0x00, 0x00, 0x00, 0x0f, 0x00, 0x00, 0x00, 0x73, 0x65, 0x72, 0x76, 0x69, 0x6e, 0x67, 0x5f, 0x64, 0x65, 0x66, 0x61,
  0x75, 0x6c, 0x74, 0x00, 0x01, 0x00, 0x00, 0x00, 0x04, 0x00, 0x00, 0x00, 0x70, 0xff, 0xff, 0xff, 0x5a, 0x00, 0x00, 0x00,
  0x04, 0x00, 0x00, 0x00, 0x08, 0x00, 0x00, 0x00, 0x6f, 0x75, 0x74, 0x70, 0x75, 0x74, 0x5f, 0x30, 0x00, 0x00, 0x00, 0x00,
  0x01, 0x00, 0x00, 0x00, 0x04, 0x00, 0x00, 0x00, 0x52, 0xe5, 0xff, 0xff, 0x04, 0x00, 0x00, 0x00, 0x05, 0x00, 0x00, 0x00,
  0x69, 0x6e, 0x70, 0x75, 0x74, 0x00, 0x00, 0x00, 0x03, 0x00, 0x00, 0x00, 0x5c, 0x00, 0x00, 0x00, 0x2c, 0x00, 0x00, 0x00,
  0x04, 0x00, 0x00, 0x00, 0xb8, 0xff, 0xff, 0xff, 0x5e, 0x00, 0x00, 0x00, 0x04, 0x00, 0x00, 0x00, 0x13, 0x00, 0x00, 0x00,
  0x43, 0x4f, 0x4e, 0x56, 0x45, 0x52, 0x53, 0x49, 0x4f, 0x4e, 0x5f, 0x4d, 0x45, 0x54, 0x41, 0x44, 0x41, 0x54, 0x41, 0x00,
  0xdc, 0xff, 0xff, 0xff, 0x5d, 0x00, 0x00, 0x00, 0x04, 0x00, 0x00, 0x00, 0x13, 0x00, 0x00, 0x00, 0x6d, 0x69, 0x6e, 0x5f,
  0x72, 0x75, 0x6e, 0x74, 0x69, 0x6d, 0x65, 0x5f, 0x76, 0x65, 0x72, 0x73, 0x69, 0x6f, 0x6e, 0x00, 0x08, 0x00, 0x0c, 0x00,
  0x08, 0x00, 0x04, 0x00, 0x08, 0x00, 0x00, 0x00, 0x5c, 0x00, 0x00, 0x00, 0x04, 0x00, 0x00, 0x00, 0x13, 0x00, 0x00, 0x00,
  0x6d, 0x69, 0x6e, 0x5f, 0x72, 0x75, 0x6e, 0x74, 0x69, 0x6d, 0x65, 0x5f, 0x76, 0x65, 0x72, 0x73, 0x69, 0x6f, 0x6e, 0x00,
  0x5f, 0x00, 0x00, 0x00, 0x54, 0x10, 0x00, 0x00, 0x4c, 0x10, 0x00, 0x00, 0x38, 0x10, 0x00, 0x00, 0x24, 0x10, 0x00, 0x00,
  0x1c, 0x10, 0x00, 0x00, 0x08, 0x10, 0x00, 0x00, 0xf0, 0x0f, 0x00, 0x00, 0xd0, 0x0f, 0x00, 0x00, 0xb0, 0x0f, 0x00, 0x00,
  0x98, 0x0f, 0x00, 0x00, 0x78, 0x0f, 0x00, 0x00, 0x58, 0x0f, 0x00, 0x00, 0x44, 0x0f, 0x00, 0x00, 0xbc, 0x0e, 0x00, 0x00,
  0x4c, 0x0e, 0x00, 0x00, 0x5c, 0x0c, 0x00, 0x00, 0xfc, 0x0b, 0x00, 0x00, 0x24, 0x0b, 0x00, 0x00, 0xec, 0x0a, 0x00, 0x00,
  0x14, 0x0a, 0x00, 0x00, 0xf0, 0x09, 0x00, 0x00, 0xcc, 0x09, 0x00, 0x00, 0x6c, 0x09, 0x00, 0x00, 0xf8, 0x08, 0x00, 0x00,
  0x98, 0x08, 0x00, 0x00, 0x48, 0x07, 0x00, 0x00, 0xf8, 0x06, 0x00, 0x00, 0x68, 0x06, 0x00, 0x00, 0x38, 0x06, 0x00, 0x00,
  0xa8, 0x05, 0x00, 0x00, 0x88, 0x05, 0x00, 0x00, 0x68, 0x05, 0x00, 0x00, 0x18, 0x05, 0x00, 0x00, 0xb8, 0x04, 0x00, 0x00,
  0x68, 0x04, 0x00, 0x00, 0xd8, 0x03, 0x00, 0x00, 0xc4, 0x03, 0x00, 0x00, 0x94, 0x03, 0x00, 0x00, 0x64, 0x03, 0x00, 0x00,
  0x44, 0x03, 0x00, 0x00, 0x14, 0x03, 0x00, 0x00, 0xe4, 0x02, 0x00, 0x00, 0xac, 0x02, 0x00, 0x00, 0x7c, 0x02, 0x00, 0x00,
  0x64, 0x02, 0x00, 0x00, 0x50, 0x02, 0x00, 0x00, 0x38, 0x02, 0x00, 0x00, 0x24, 0x02, 0x00, 0x00, 0x0c, 0x02, 0x00, 0x00,
  0x04, 0x02, 0x00, 0x00, 0xfc, 0x01, 0x00, 0x00, 0xf4, 0x01, 0x00, 0x00, 0xec, 0x01, 0x00, 0x00, 0xe4, 0x01, 0x00, 0x00,
  0xdc, 0x01, 0x00, 0x00, 0xd4, 0x01, 0x00, 0x00, 0xcc, 0x01, 0x00, 0x00, 0xc4, 0x01, 0x00, 0x00, 0xbc, 0x01, 0x00, 0x00,
  0xb4, 0x01, 0x00, 0x00, 0xac, 0x01, 0x00, 0x00, 0xa4, 0x01, 0x00, 0x00, 0x9c, 0x01, 0x00, 0x00, 0x94, 0x01, 0x00, 0x00,
  0x8c, 0x01, 0x00, 0x00, 0x84, 0x01, 0x00, 0x00, 0x7c, 0x01, 0x00, 0x00, 0x74, 0x01, 0x00, 0x00, 0x6c, 0x01, 0x00, 0x00,
  0x64, 0x01, 0x00, 0x00, 0x5c, 0x01, 0x00, 0x00, 0x54, 0x01, 0x00, 0x00, 0x4c, 0x01, 0x00, 0x00, 0x44, 0x01, 0x00, 0x00,
  0x3c, 0x01, 0x00, 0x00, 0x34, 0x01, 0x00, 0x00, 0x2c, 0x01, 0x00, 0x00, 0x24, 0x01, 0x00, 0x00, 0x1c, 0x01, 0x00, 0x00,
  0x14, 0x01, 0x00, 0x00, 0x0c, 0x01, 0x00, 0x00, 0x04, 0x01, 0x00, 0x00, 0xfc, 0x00, 0x00, 0x00, 0xf4, 0x00, 0x00, 0x00,
  0xec, 0x00, 0x00, 0x00, 0xe4, 0x00, 0x00, 0x00, 0xdc, 0x00, 0x00, 0x00, 0xd4, 0x00, 0x00, 0x00, 0xcc, 0x00, 0x00, 0x00,
  0xc4, 0x00, 0x00, 0x00, 0xbc, 0x00, 0x00, 0x00, 0xb4, 0x00, 0x00, 0x00, 0x94, 0x00, 0x00, 0x00, 0x74, 0x00, 0x00, 0x00,
  0x04, 0x00, 0x00, 0x00, 0x6a, 0xe7, 0xff, 0xff, 0x04, 0x00, 0x00, 0x00, 0x60, 0x00, 0x00, 0x00, 0x0c, 0x00, 0x00, 0x00,
  0x08, 0x00, 0x0e, 0x00, 0x08, 0x00, 0x04, 0x00, 0x08, 0x00, 0x00, 0x00, 0x10, 0x00, 0x00, 0x00, 0x28, 0x00, 0x00, 0x00,
  0x00, 0x00, 0x06, 0x00, 0x08, 0x00, 0x04, 0x00, 0x06, 0x00, 0x00, 0x00, 0x04, 0x00, 0x00, 0x00, 0x01, 0x00, 0x00, 0x00,
  0xeb, 0x03, 0x00, 0x00, 0x0c, 0x00, 0x18, 0x00, 0x14, 0x00, 0x10, 0x00, 0x0c, 0x00, 0x04, 0x00, 0x0c, 0x00, 0x00, 0x00,
  0x81, 0xb9, 0xd4, 0x04, 0xdd, 0xcc, 0xe2, 0x65, 0x02, 0x00, 0x00, 0x00, 0x02, 0x00, 0x00, 0x00, 0x04, 0x00, 0x00, 0x00,
  0x06, 0x00, 0x00, 0x00, 0x32, 0x2e, 0x31, 0x37, 0x2e, 0x30, 0x00, 0x00, 0xd6, 0xe7, 0xff, 0xff, 0x04, 0x00, 0x00, 0x00,
  0x10, 0x00, 0x00, 0x00, 0x00, 0x00, 0x00, 0x00, 0x00, 0x00, 0x00, 0x00, 0x00, 0x00, 0x00, 0x00, 0x00, 0x00, 0x00, 0x00,
  0xf2, 0xe7, 0xff, 0xff, 0x04, 0x00, 0x00, 0x00, 0x10, 0x00, 0x00, 0x00, 0x31, 0x2e, 0x31, 0x34, 0x2e, 0x30, 0x00, 0x00,
  0x00, 0x00, 0x00, 0x00, 0x00, 0x00, 0x00, 0x00, 0xbc, 0xa5, 0xff, 0xff, 0xc0, 0xa5, 0xff, 0xff, 0xc4, 0xa5, 0xff, 0xff,
  0xc8, 0xa5, 0xff, 0xff, 0xcc, 0xa5, 0xff, 0xff, 0xd0, 0xa5, 0xff, 0xff, 0xd4, 0xa5, 0xff, 0xff, 0xd8, 0xa5, 0xff, 0xff,
  0xdc, 0xa5, 0xff, 0xff, 0xe0, 0xa5, 0xff, 0xff, 0xe4, 0xa5, 0xff, 0xff, 0xe8, 0xa5, 0xff, 0xff, 0xec, 0xa5, 0xff, 0xff,
  0xf0, 0xa5, 0xff, 0xff, 0xf4, 0xa5, 0xff, 0xff, 0xf8, 0xa5, 0xff, 0xff, 0xfc, 0xa5, 0xff, 0xff, 0x00, 0xa6, 0xff, 0xff,
  0x04, 0xa6, 0xff, 0xff, 0x08, 0xa6, 0xff, 0xff, 0x0c, 0xa6, 0xff, 0xff, 0x10, 0xa6, 0xff, 0xff, 0x14, 0xa6, 0xff, 0xff,
  0x18, 0xa6, 0xff, 0xff, 0x1c, 0xa6, 0xff, 0xff, 0x20, 0xa6, 0xff, 0xff, 0x24, 0xa6, 0xff, 0xff, 0x28, 0xa6, 0xff, 0xff,
  0x2c, 0xa6, 0xff, 0xff, 0x30, 0xa6, 0xff, 0xff, 0x34, 0xa6, 0xff, 0xff, 0x38, 0xa6, 0xff, 0xff, 0x3c, 0xa6, 0xff, 0xff,
  0x40, 0xa6, 0xff, 0xff, 0x44, 0xa6, 0xff, 0xff, 0x48, 0xa6, 0xff, 0xff, 0x4c, 0xa6, 0xff, 0xff, 0x50, 0xa6, 0xff, 0xff,
  0x54, 0xa6, 0xff, 0xff, 0x58, 0xa6, 0xff, 0xff, 0x5c, 0xa6, 0xff, 0xff, 0x60, 0xa6, 0xff, 0xff, 0x64, 0xa6, 0xff, 0xff,
  0xba, 0xe8, 0xff, 0xff, 0x04, 0x00, 0x00, 0x00, 0x05, 0x00, 0x00, 0x00, 0x81, 0x21, 0x8b, 0xa8, 0xf2, 0x00, 0x00, 0x00,
  0xce, 0xe8, 0xff, 0xff, 0x04, 0x00, 0x00, 0x00, 0x04, 0x00, 0x00, 0x00, 0x76, 0x0a, 0x00, 0x00, 0xde, 0xe8, 0xff, 0xff,
  0x04, 0x00, 0x00, 0x00, 0x05, 0x00, 0x00, 0x00, 0x4d, 0xbe, 0x7e, 0xcf, 0x81, 0x00, 0x00, 0x00, 0xf2, 0xe8, 0xff, 0xff,
  0x04, 0x00, 0x00, 0x00, 0x04, 0x00, 0x00, 0x00, 0xa6, 0x11, 0x00, 0x00, 0x02, 0xe9, 0xff, 0xff, 0x04, 0x00, 0x00, 0x00,
  0x08, 0x00, 0x00, 0x00, 0x81, 0x7f, 0x7f, 0x81, 0x7f, 0x7f, 0x81, 0x7f, 0x16, 0xe9, 0xff, 0xff, 0x04, 0x00, 0x00, 0x00,
  0x20, 0x00, 0x00, 0x00, 0xd0, 0x1f, 0x00, 0x00, 0x5f, 0xed, 0xff, 0xff, 0xcd, 0xda, 0xff, 0xff, 0xb8, 0x09, 0x00, 0x00,
  0xa8, 0x04, 0x00, 0x00, 0xb2, 0xe7, 0xff, 0xff, 0x7e, 0x26, 0x00, 0x00, 0x6c, 0x01, 0x00, 0x00, 0x42, 0xe9, 0xff, 0xff,
  0x04, 0x00, 0x00, 0x00, 0x28, 0x00, 0x00, 0x00, 0x03, 0x7f, 0xb9, 0xa0, 0x81, 0x14, 0xa4, 0x9b, 0x81, 0x30, 0xee, 0x81,
  0x9f, 0x2c, 0x81, 0xd5, 0x4c, 0x13, 0xb8, 0x35, 0x1c, 0x7f, 0x82, 0x81, 0xe9, 0xff, 0x81, 0xbf, 0x70, 0x73, 0x08, 0xd8,
  0x48, 0x56, 0x43, 0xce, 0x57, 0x0e, 0x65, 0xde, 0x76, 0xe9, 0xff, 0xff, 0x04, 0x00, 0x00, 0x00, 0x20, 0x00, 0x00, 0x00,
  0xfa, 0xff, 0xff, 0xff, 0xf4, 0xf6, 0xff, 0xff, 0x77, 0x04, 0x00, 0x00, 0x31, 0x01, 0x00, 0x00, 0xc9, 0x01, 0x00, 0x00,
  0x49, 0xeb, 0xff, 0xff, 0x46, 0x23, 0x00, 0x00, 0xfe, 0x08, 0x00, 0x00, 0xa2, 0xe9, 0xff, 0xff, 0x04, 0x00, 0x00, 0x00,
  0x20, 0x00, 0x00, 0x00, 0xd5, 0x7f, 0x96, 0x1c, 0xae, 0xe3, 0xa9, 0x9e, 0x0b, 0x8c, 0x7f, 0xe4, 0xab, 0xf9, 0x72, 0x66,
  0xcb, 0x56, 0x32, 0xce, 0x7f, 0x2b, 0x33, 0xe4, 0x7f, 0x70, 0xd5, 0x06, 0xd8, 0x3a, 0xf7, 0xc6, 0xce, 0xe9, 0xff, 0xff,
  0x04, 0x00, 0x00, 0x00, 0x10, 0x00, 0x00, 0x00, 0x00, 0x00, 0x00, 0x00, 0x67, 0x0f, 0x00, 0x00, 0x3a, 0x16, 0x00, 0x00,
  0xfc, 0x15, 0x00, 0x00, 0xea, 0xe9, 0xff, 0xff, 0x04, 0x00, 0x00, 0x00, 0x20, 0x00, 0x00, 0x00, 0xb1, 0xd0, 0x81, 0xa3,
  0x81, 0x13, 0xbe, 0x1e, 0x3d, 0x5c, 0x81, 0xe4, 0x4e, 0x74, 0xa1, 0x81, 0x5d, 0x7f, 0x3d, 0x92, 0x7d, 0xa0, 0x7f, 0x99,
  0xca, 0xf7, 0x49, 0x81, 0x23, 0x4d, 0x9c, 0x7f, 0x16, 0xea, 0xff, 0xff, 0x04, 0x00, 0x00, 0x00, 0x20, 0x00, 0x00, 0x00,
  0x5c, 0x11, 0x01, 0x00, 0x99, 0xda, 0x01, 0x00, 0x56, 0xf1, 0x00, 0x00, 0x0f, 0x12, 0x01, 0x00, 0x45, 0xeb, 0x01, 0x00,
  0xc2, 0x10, 0x03, 0x00, 0x61, 0x65, 0x01, 0x00, 0x6e, 0xd8, 0x00, 0x00, 0x42, 0xea, 0xff, 0xff, 0x04, 0x00, 0x00, 0x00,
  0x01, 0x00, 0x00, 0x00, 0x7f, 0x00, 0x00, 0x00, 0x52, 0xea, 0xff, 0xff, 0x04, 0x00, 0x00, 0x00, 0x80, 0x00, 0x00, 0x00,
  0xf3, 0xee, 0x81, 0xb4, 0x30, 0x2b, 0x87, 0xd4, 0x03, 0x81, 0x3d, 0xde, 0xaf, 0x53, 0xf8, 0xf8, 0x22, 0x54, 0xb1, 0x7f,
  0xf9, 0xd3, 0x55, 0xa5, 0x24, 0x66, 0xf6, 0xbd, 0x7f, 0xb8, 0xe2, 0x11, 0x05, 0xc9, 0xfb, 0x30, 0x4f, 0x7f, 0x1f, 0xfe,
  0x10, 0xe2, 0x7f, 0xe3, 0xee, 0xf4, 0xcb, 0x15, 0x35, 0x0d, 0x1d, 0xc8, 0x63, 0x81, 0xcc, 0x1c, 0x03, 0x6d, 0x01, 0x06,
  0x53, 0x4e, 0x7f, 0xe9, 0x2c, 0xcd, 0x14, 0x51, 0xf6, 0xeb, 0x7f, 0xfb, 0x0b, 0xca, 0x37, 0xb8, 0xfb, 0x06, 0x25, 0x7f,
  0xf0, 0x81, 0xd1, 0xc9, 0xad, 0xa7, 0x75, 0xe7, 0x48, 0x7f, 0xfa, 0x0c, 0xd7, 0x70, 0xf8, 0xf5, 0xdd, 0xb4, 0x23, 0xd3,
  0xe5, 0xa5, 0x81, 0xcf, 0xe3, 0xff, 0xc6, 0x37, 0xc9, 0xa2, 0x7f, 0xbf, 0x66, 0x4a, 0x10, 0xec, 0x9f, 0xb3, 0xfe, 0x81,
  0xe2, 0xf9, 0xcd, 0xf4, 0x71, 0x81, 0x02, 0xdf, 0xde, 0xea, 0xff, 0xff, 0x04, 0x00, 0x00, 0x00, 0x40, 0x00, 0x00, 0x00,
  0x46, 0x0c, 0x00, 0x00, 0x61, 0x0b, 0x00, 0x00, 0x39, 0xfe, 0xff, 0xff, 0x6a, 0xf5, 0xff, 0xff, 0xa9, 0xf3, 0xff, 0xff,
  0x0f, 0x04, 0x00, 0x00, 0x27, 0x02, 0x00, 0x00, 0x07, 0xe7, 0xff, 0xff, 0x3b, 0xfa, 0xff, 0xff, 0x83, 0xfd, 0xff, 0xff,
  0x08, 0x14, 0x00, 0x00, 0x46, 0xf9, 0xff, 0xff, 0x2d, 0x1b, 0x00, 0x00, 0x5a, 0x12, 0x00, 0x00, 0x46, 0x07, 0x00, 0x00,
  0x57, 0x04, 0x00, 0x00, 0x2a, 0xeb, 0xff, 0xff, 0x04, 0x00, 0x00, 0x00, 0x50, 0x00, 0x00, 0x00, 0xf2, 0x2a, 0x7f, 0x12,
  0xbc, 0xd4, 0xc2, 0x7f, 0x31, 0xc1, 0xa3, 0x25, 0xf7, 0x7f, 0xc8, 0x81, 0xa0, 0x14, 0x1f, 0x7f, 0xb8, 0xd0, 0xd9, 0xe8,
  0x1d, 0x7b, 0xe6, 0xca, 0x7f, 0x32, 0x12, 0x30, 0xf4, 0x24, 0xd0, 0x3a, 0x7f, 0x68, 0xe9, 0x1b, 0x3c, 0x7f, 0x81, 0x87,
  0xfb, 0xb5, 0xa6, 0x95, 0xc9, 0x10, 0xdb, 0xe7, 0x8c, 0x56, 0x81, 0xd0, 0x16, 0x7a, 0xea, 0x05, 0x19, 0xea, 0x81, 0x8e,
  0x7f, 0x81, 0xee, 0x61, 0xc8, 0x7f, 0x4d, 0xf6, 0x7f, 0x26, 0xdb, 0x7f, 0xff, 0x4b, 0x9b, 0xd8, 0x86, 0xeb, 0xff, 0xff,
  0x04, 0x00, 0x00, 0x00, 0x40, 0x00, 0x00, 0x00, 0x00, 0x00, 0x00, 0x00, 0x00, 0x00, 0x00, 0x00, 0x00, 0x00, 0x00, 0x00,
  0x00, 0x00, 0x00, 0x00, 0x00, 0x00, 0x00, 0x00, 0x00, 0x00, 0x00, 0x00, 0x00, 0x00, 0x00, 0x00, 0x00, 0x00, 0x00, 0x00,
  0x00, 0x00, 0x00, 0x00, 0x00, 0x00, 0x00, 0x00, 0x00, 0x00, 0x00, 0x00, 0x00, 0x00, 0x00, 0x00, 0x00, 0x00, 0x00, 0x00,
  0x00, 0x00, 0x00, 0x00, 0x00, 0x00, 0x00, 0x00, 0x00, 0x00, 0x00, 0x00, 0xd2, 0xeb, 0xff, 0xff, 0x04, 0x00, 0x00, 0x00,
  0x10, 0x00, 0x00, 0x00, 0x07, 0x7f, 0xdc, 0xaa, 0x00, 0x08, 0x0d, 0xc8, 0xd5, 0xf5, 0x3d, 0xd8, 0x07, 0x4e, 0x1f, 0xe8,
  0xee, 0xeb, 0xff, 0xff, 0x04, 0x00, 0x00, 0x00, 0x10, 0x00, 0x00, 0x00, 0x06, 0x0a, 0xe5, 0xc9, 0x09, 0x95, 0x2d, 0xda,
  0xad, 0xad, 0x7f, 0xfc, 0x80, 0x97, 0x5c, 0x39, 0x0a, 0xec, 0xff, 0xff, 0x04, 0x00, 0x00, 0x00, 0x80, 0x00, 0x00, 0x00,
  0xdb, 0x45, 0x9a, 0x86, 0x1a, 0xe2, 0xe1, 0x35, 0xab, 0x1b, 0xf6, 0xa7, 0xaa, 0x5c, 0x81, 0x82, 0x2f, 0x1e, 0xe3, 0xbb,
  0xa5, 0x5e, 0xcf, 0x4f, 0x81, 0xe2, 0x2d, 0xd0, 0x9c, 0xad, 0x45, 0xe3, 0x47, 0xc2, 0xed, 0xc4, 0xe9, 0x8c, 0x8b, 0x34,
  0x81, 0x01, 0x10, 0x24, 0xe4, 0xbb, 0xfb, 0xc5, 0x19, 0xa1, 0x40, 0x25, 0x19, 0x32, 0x0d, 0xc1, 0x2d, 0x56, 0xf8, 0xd0,
  0x7a, 0x51, 0x3e, 0x7f, 0xcf, 0x83, 0x0c, 0xc4, 0xea, 0xfc, 0x46, 0x2c, 0x2b, 0xd4, 0x1b, 0x81, 0x20, 0x1b, 0x00, 0x1d,
  0x65, 0xcb, 0x71, 0x72, 0xe1, 0xca, 0xe2, 0x7f, 0xea, 0xbb, 0x6e, 0x57, 0xb5, 0x1f, 0x68, 0x3e, 0xf8, 0xe9, 0x8d, 0x81,
  0x62, 0x5e, 0x9c, 0x8d, 0x4f, 0xd9, 0xc0, 0x61, 0xea, 0xdd, 0x33, 0xca, 0xfa, 0x3b, 0xc0, 0x6e, 0x66, 0xce, 0xf6, 0xcb,
  0x5a, 0x47, 0x78, 0xfb, 0x1d, 0x89, 0x7f, 0xe5, 0x96, 0xec, 0xff, 0xff, 0x04, 0x00, 0x00, 0x00, 0x20, 0x00, 0x00, 0x00,
  0x00, 0x00, 0x00, 0x00, 0x1e, 0xf2, 0xff, 0xff, 0x00, 0x00, 0x00, 0x00, 0x67, 0x34, 0x00, 0x00, 0x74, 0xcf, 0xff, 0xff,
  0x39, 0x16, 0x00, 0x00, 0xa9, 0xef, 0xff, 0xff, 0x8e, 0x0c, 0x00, 0x00, 0xc2, 0xec, 0xff, 0xff, 0x04, 0x00, 0x00, 0x00,
  0x80, 0x00, 0x00, 0x00, 0xfb, 0xb8, 0x84, 0xb9, 0xdb, 0xa2, 0x3a, 0x81, 0x7b, 0xbd, 0x7e, 0xe4, 0x48, 0xf8, 0xd7, 0x7f,
  0x69, 0x3a, 0xc5, 0x7f, 0xbd, 0x35, 0x96, 0xd7, 0x81, 0x97, 0xa3, 0x68, 0x87, 0xa6, 0x22, 0x3e, 0x9e, 0x40, 0x00, 0x7f,
  0x66, 0x15, 0xee, 0xec, 0x96, 0xd4, 0x68, 0x07, 0x81, 0x95, 0xdc, 0xf9, 0xb6, 0x31, 0x69, 0xf7, 0x2d, 0x81, 0x78, 0x2a,
  0x95, 0xac, 0x51, 0x4a, 0x71, 0xf6, 0x81, 0xd6, 0xfc, 0xba, 0xb7, 0xc4, 0x3d, 0x81, 0x03, 0x9d, 0x11, 0x53, 0x62, 0xbe,
  0x91, 0x7f, 0xc4, 0x83, 0xf4, 0x7f, 0x1a, 0x1b, 0x32, 0xc1, 0x8b, 0x86, 0x7f, 0xbd, 0x21, 0xd6, 0xb6, 0x3b, 0x85, 0xe0,
  0xcd, 0x0b, 0x81, 0xbc, 0x65, 0x31, 0xfb, 0x3e, 0x71, 0xb3, 0x1a, 0xc0, 0x16, 0x7f, 0x41, 0x9f, 0x36, 0xda, 0xb2, 0x7f,
  0x0b, 0x3a, 0x5e, 0xeb, 0xbb, 0x81, 0x1f, 0xc2, 0x3f, 0x23, 0x34, 0x01, 0x4e, 0xed, 0xff, 0xff, 0x04, 0x00, 0x00, 0x00,
  0x40, 0x00, 0x00, 0x00, 0x5f, 0x16, 0x02, 0x00, 0xf8, 0x0a, 0x02, 0x00, 0xf8, 0xbc, 0x01, 0x00, 0x09, 0x35, 0x02, 0x00,
  0x83, 0xe8, 0x01, 0x00, 0x9a, 0x8a, 0x02, 0x00, 0x91, 0x1c, 0x02, 0x00, 0x86, 0xed, 0x01, 0x00, 0xee, 0x38, 0x01, 0x00,
  0x66, 0x19, 0x02, 0x00, 0x85, 0x54, 0x02, 0x00, 0xd9, 0xf5, 0x01, 0x00, 0x3f, 0xe2, 0x01, 0x00, 0xec, 0x69, 0x02, 0x00,
  0x18, 0xd0, 0x02, 0x00, 0xde, 0x25, 0x02, 0x00, 0x9a, 0xed, 0xff, 0xff, 0x04, 0x00, 0x00, 0x00, 0x40, 0x01, 0x00, 0x00,
  0xef, 0xda, 0x2f, 0xd6, 0x1b, 0x35, 0x7c, 0x81, 0x52, 0xd5, 0xb9, 0x05, 0xdc, 0x07, 0x00, 0x34, 0xf1, 0xaa, 0xe2, 0x02,
  0xeb, 0x4a, 0x3a, 0x35, 0xfe, 0x6c, 0x18, 0x10, 0x48, 0xdb, 0x7f, 0x28, 0x1b, 0xf5, 0xa9, 0x79, 0xdb, 0x97, 0xe5, 0x30,
  0x06, 0x0c, 0x7f, 0x17, 0xc6, 0xd9, 0x57, 0x83, 0xef, 0x52, 0x93, 0xfa, 0xc2, 0x3f, 0xdf, 0xcb, 0xf5, 0xe4, 0x7f, 0x21,
  0xe9, 0xc1, 0x1a, 0xcd, 0x1c, 0x07, 0x3d, 0x10, 0x0b, 0x51, 0x53, 0x2e, 0x23, 0xe9, 0x7f, 0xda, 0xa6, 0xcf, 0xc4, 0x28,
  0x05, 0xce, 0x7f, 0x06, 0xf0, 0xc8, 0x0c, 0x53, 0x0a, 0xef, 0x07, 0x41, 0x4a, 0xe5, 0xde, 0xe7, 0x21, 0x19, 0xab, 0x19,
  0x04, 0xca, 0xe0, 0xc6, 0xd7, 0x2b, 0xbf, 0xe5, 0x53, 0x7f, 0xe2, 0x2c, 0xd4, 0x0a, 0x7f, 0x41, 0x97, 0xa3, 0xe3, 0x29,
  0x65, 0x09, 0x56, 0x1e, 0x6c, 0xcf, 0x34, 0x59, 0x7f, 0xe7, 0x11, 0x26, 0xd5, 0x06, 0x42, 0x1c, 0xcd, 0xe4, 0x56, 0x0c,
  0xe4, 0xf4, 0x0b, 0x00, 0x4a, 0x2e, 0xe4, 0x7f, 0xe9, 0xe0, 0xf2, 0xe7, 0xe3, 0x03, 0xcb, 0xe8, 0x37, 0xc6, 0x3f, 0xf1,
  0x4c, 0x9a, 0xc4, 0x51, 0x54, 0x19, 0x02, 0x16, 0xd9, 0x7f, 0x1a, 0xcd, 0x7d, 0x1e, 0x9e, 0x2d, 0xed, 0xc2, 0x9e, 0x7f,
  0x2f, 0xd3, 0xd8, 0x9c, 0xfc, 0xf1, 0xde, 0x5e, 0xd0, 0xbd, 0x29, 0xd1, 0x24, 0x4f, 0x3f, 0x18, 0x24, 0x61, 0x16, 0x59,
  0x41, 0xe9, 0xdb, 0x09, 0x21, 0xdb, 0x7f, 0x09, 0x5b, 0xe7, 0x27, 0xe0, 0x7f, 0x00, 0x1f, 0x32, 0xfc, 0x04, 0xca, 0x01,
  0xfa, 0x0f, 0xee, 0x3c, 0xf5, 0xa7, 0x78, 0xe5, 0x02, 0x4e, 0xcb, 0xff, 0xfc, 0x64, 0xea, 0xfe, 0x7f, 0x99, 0x17, 0x1f,
  0x04, 0x13, 0x7f, 0x01, 0x03, 0x06, 0x07, 0x12, 0x18, 0x16, 0x0e, 0x06, 0x34, 0xce, 0x02, 0x12, 0x7f, 0x2b, 0x21, 0xe5,
  0x2d, 0x16, 0xf2, 0x0c, 0x1a, 0x34, 0xa6, 0xd1, 0xd1, 0xde, 0xf4, 0xfb, 0x08, 0x35, 0xd1, 0xdc, 0xc1, 0x54, 0x09, 0x7f,
  0xda, 0xf1, 0x59, 0x23, 0x19, 0x09, 0x3c, 0xd4, 0xe3, 0x02, 0x02, 0x63, 0xfc, 0xca, 0x52, 0xe1, 0x50, 0xec, 0x7f, 0xcd,
  0xe5, 0xe9, 0x15, 0x05, 0xda, 0x6d, 0x69, 0x7f, 0x02, 0xdc, 0x27, 0x9c, 0xdb, 0xc6, 0xf4, 0xd3, 0x07, 0x15, 0x25, 0xe1,
  0xe6, 0xee, 0xff, 0xff, 0x04, 0x00, 0x00, 0x00, 0x50, 0x00, 0x00, 0x00, 0x04, 0x03, 0x00, 0x00, 0xc7, 0xe9, 0xff, 0xff,
  0x89, 0xff, 0xff, 0xff, 0x3e, 0x08, 0x00, 0x00, 0x7f, 0xf8, 0xff, 0xff, 0xa8, 0xf1, 0xff, 0xff, 0x9d, 0x0b, 0x00, 0x00,
  0x64, 0xef, 0xff, 0xff, 0x41, 0xf9, 0xff, 0xff, 0x43, 0xf9, 0xff, 0xff, 0xe2, 0xf3, 0xff, 0xff, 0x2e, 0x13, 0x00, 0x00,
  0x8c, 0xdc, 0xff, 0xff, 0xb2, 0xff, 0xff, 0xff, 0xbe, 0xf0, 0xff, 0xff, 0x50, 0xe9, 0xff, 0xff, 0xd0, 0xfd, 0xff, 0xff,
  0xc5, 0xf0, 0xff, 0xff, 0xe6, 0xfd, 0xff, 0xff, 0x6b, 0xf5, 0xff, 0xff, 0x42, 0xef, 0xff, 0xff, 0x04, 0x00, 0x00, 0x00,
  0x64, 0x00, 0x00, 0x00, 0x7f, 0x59, 0xdd, 0xf4, 0x66, 0xee, 0x81, 0x6e, 0x04, 0xfd, 0xcc, 0x7f, 0xea, 0x81, 0x24, 0x30,
  0xc7, 0x03, 0x04, 0xc8, 0x45, 0x3a, 0x00, 0x07, 0x4f, 0x78, 0xdd, 0x74, 0x81, 0x7f, 0xe3, 0x67, 0x1c, 0xdd, 0x14, 0xc9,
  0x81, 0x26, 0x7f, 0x36, 0x0d, 0x2c, 0x28, 0xfd, 0x7f, 0x81, 0xe3, 0xd6, 0xe6, 0x0e, 0x81, 0xb0, 0x24, 0x5c, 0x52, 0x7f,
  0x48, 0x7f, 0xf5, 0x81, 0xff, 0xf1, 0x7f, 0x1a, 0x4f, 0x0a, 0xed, 0x81, 0x83, 0x53, 0xb4, 0xc1, 0x7f, 0x2c, 0x52, 0x0c,
  0x4e, 0xd5, 0xb9, 0x0f, 0x05, 0x81, 0xb5, 0x7f, 0x27, 0x48, 0xf4, 0x88, 0x9e, 0xe1, 0xe4, 0xaa, 0x1e, 0x1f, 0x7f, 0xf5,
  0x92, 0xdc, 0xf1, 0x21, 0xb2, 0xef, 0xff, 0xff, 0x04, 0x00, 0x00, 0x00, 0x50, 0x00, 0x00, 0x00, 0x00, 0x00, 0x00, 0x00,
  0x00, 0x00, 0x00, 0x00, 0x00, 0x00, 0x00, 0x00, 0x00, 0x00, 0x00, 0x00, 0x00, 0x00, 0x00, 0x00, 0x00, 0x00, 0x00, 0x00,
  0x00, 0x00, 0x00, 0x00, 0x00, 0x00, 0x00, 0x00, 0x00, 0x00, 0x00, 0x00, 0x00, 0x00, 0x00, 0x00, 0x00, 0x00, 0x00, 0x00,
  0x00, 0x00, 0x00, 0x00, 0x00, 0x00, 0x00, 0x00, 0x00, 0x00, 0x00, 0x00, 0x00, 0x00, 0x00, 0x00, 0x00, 0x00, 0x00, 0x00,
  0x00, 0x00, 0x00, 0x00, 0x00, 0x00, 0x00, 0x00, 0x00, 0x00, 0x00, 0x00, 0x00, 0x00, 0x00, 0x00, 0x0e, 0xf0, 0xff, 0xff,
  0x04, 0x00, 0x00, 0x00, 0x14, 0x00, 0x00, 0x00, 0x29, 0x18, 0x18, 0x47, 0xd0, 0x5a, 0x7f, 0xe6, 0xff, 0xd6, 0x09, 0xe2,
  0x23, 0x02, 0xf7, 0x19, 0x60, 0x14, 0xee, 0x04, 0x2e, 0xf0, 0xff, 0xff, 0x04, 0x00, 0x00, 0x00, 0x14, 0x00, 0x00, 0x00,
  0x9c, 0xcf, 0xcb, 0xbb, 0x86, 0xd1, 0x7f, 0xeb, 0x32, 0xa7, 0x1d, 0xed, 0xa8, 0xe8, 0x80, 0xd6, 0x05, 0xb4, 0xd5, 0xf4,
  0x4e, 0xf0, 0xff, 0xff, 0x04, 0x00, 0x00, 0x00, 0xc8, 0x00, 0x00, 0x00, 0xaa, 0xb9, 0xa3, 0x91, 0x81, 0x39, 0x49, 0x6f,
  0xb3, 0x12, 0xa0, 0xab, 0x0b, 0x1c, 0xf7, 0x34, 0x99, 0x37, 0x48, 0x04, 0xf5, 0xaf, 0xfd, 0x59, 0xef, 0xa9, 0xaf, 0x29,
  0x3a, 0x96, 0xdf, 0xa8, 0x29, 0x81, 0xb7, 0x43, 0xaa, 0xa0, 0xce, 0xdc, 0x71, 0x79, 0x11, 0x4b, 0xc4, 0x59, 0x16, 0x35,
  0x32, 0x77, 0xd0, 0x41, 0xd2, 0x7f, 0x21, 0x6c, 0x3d, 0x48, 0x2d, 0x5d, 0xe4, 0x0f, 0x7f, 0xe1, 0x48, 0x3e, 0xe5, 0x56,
  0xe4, 0x0c, 0xf3, 0x5e, 0x47, 0x1c, 0xfa, 0x79, 0xee, 0x62, 0xf5, 0xe9, 0xeb, 0xd3, 0xf9, 0x8d, 0xf3, 0x75, 0xfe, 0x05,
  0xec, 0xc3, 0x66, 0xab, 0x81, 0x85, 0x82, 0x06, 0x8b, 0xdb, 0x91, 0x54, 0x93, 0xf1, 0x6c, 0xd7, 0x9a, 0x30, 0x09, 0xd5,
  0x57, 0xbb, 0x55, 0xcd, 0xd4, 0x1a, 0x3d, 0x01, 0x81, 0x29, 0x32, 0xd7, 0x27, 0xfc, 0x6d, 0x75, 0xf3, 0x32, 0x95, 0x5e,
  0xa0, 0x7f, 0xca, 0x71, 0xe1, 0xf5, 0xa5, 0x49, 0xf9, 0xe8, 0xfb, 0xf2, 0x17, 0xb4, 0x5d, 0x91, 0xc4, 0x5e, 0x3e, 0xfc,
  0x1e, 0x43, 0x36, 0x7d, 0x7f, 0x6f, 0xb6, 0x2e, 0xb0, 0x16, 0x4e, 0xd8, 0xd0, 0xae, 0xf3, 0x4c, 0x57, 0xeb, 0x0a, 0x8c,
  0x82, 0xfc, 0xdc, 0x5d, 0x26, 0x03, 0xc6, 0x03, 0xd5, 0x81, 0xf5, 0x9c, 0xf2, 0xdc, 0x18, 0x69, 0x3b, 0x30, 0x24, 0x7f,
  0x30, 0x08, 0x22, 0x51, 0x1e, 0x7d, 0x7f, 0xd7, 0x13, 0xd0, 0x60, 0x1d, 0x22, 0xf1, 0xff, 0xff, 0x04, 0x00, 0x00, 0x00,
  0x28, 0x00, 0x00, 0x00, 0xf3, 0xfb, 0xff, 0xff, 0x00, 0x00, 0x00, 0x00, 0xb3, 0x15, 0x00, 0x00, 0xaf, 0x07, 0x00, 0x00,
  0x00, 0x00, 0x00, 0x00, 0xb1, 0xfe, 0xff, 0xff, 0x8a, 0x06, 0x00, 0x00, 0x06, 0x08, 0x00, 0x00, 0xc1, 0xfa, 0xff, 0xff,
  0x79, 0x20, 0x00, 0x00, 0x56, 0xf1, 0xff, 0xff, 0x04, 0x00, 0x00, 0x00, 0xc8, 0x00, 0x00, 0x00, 0x31, 0xf6, 0xb5, 0xb2,
  0x50, 0x20, 0x77, 0xc4, 0x0e, 0x81, 0x8b, 0xbc, 0xe8, 0x81, 0xaa, 0x53, 0x5b, 0x5c, 0x1f, 0x2e, 0x07, 0x40, 0x02, 0x26,
  0x47, 0xeb, 0xfa, 0x1f, 0xeb, 0x7f, 0xe6, 0x34, 0xcc, 0xd8, 0x0a, 0xe8, 0x81, 0x40, 0xc5, 0x26, 0xdd, 0x2b, 0x2a, 0x81,
  0x07, 0x01, 0x18, 0xee, 0x16, 0xd2, 0xac, 0x9f, 0x2c, 0x3e, 0xa4, 0x34, 0xd5, 0x81, 0xd4, 0xbf, 0xe0, 0xbf, 0xb6, 0x9a,
  0xce, 0x13, 0x7f, 0x58, 0x1e, 0x1b, 0x93, 0xc5, 0x35, 0x22, 0x0c, 0x6f, 0x51, 0x81, 0xf4, 0x28, 0x3d, 0xd6, 0x0e, 0x89,
  0x28, 0xcb, 0xd5, 0x14, 0x0a, 0x81, 0x68, 0x24, 0x0e, 0x31, 0x33, 0xc6, 0x15, 0xc0, 0x81, 0x60, 0xf8, 0xcf, 0xf3, 0x81,
  0xd4, 0xce, 0x26, 0x1e, 0xe2, 0xf9, 0xda, 0x3c, 0x47, 0x22, 0xf5, 0xf4, 0x7f, 0x64, 0x45, 0xad, 0xd1, 0xd8, 0xbc, 0xec,
  0xc7, 0xef, 0x38, 0x7f, 0x12, 0xe0, 0x7f, 0x2c, 0x69, 0x98, 0x41, 0xfb, 0xfa, 0xdb, 0x90, 0xcf, 0x0f, 0x3a, 0x81, 0xa9,
  0x43, 0x4e, 0x1e, 0x1d, 0xfb, 0xf2, 0xf1, 0x0a, 0x4e, 0x47, 0x38, 0xcc, 0x3d, 0x19, 0x3a, 0x7f, 0xe3, 0x28, 0xd0, 0x81,
  0xe5, 0xb2, 0xaf, 0xf3, 0xc1, 0xa8, 0x55, 0x1b, 0xa8, 0x7f, 0xc3, 0xb1, 0x57, 0xf3, 0x29, 0xf8, 0x60, 0x38, 0x31, 0x2a,
  0xf0, 0xaa, 0xcb, 0x7f, 0xec, 0xfa, 0x33, 0xed, 0xeb, 0x1d, 0x10, 0x16, 0x36, 0xe5, 0xed, 0x81, 0x2a, 0xf2, 0xff, 0xff,
  0x04, 0x00, 0x00, 0x00, 0x50, 0x00, 0x00, 0x00, 0xf9, 0xc1, 0x00, 0x00, 0x1c, 0x12, 0x01, 0x00, 0x8d, 0xcb, 0x00, 0x00,
  0xbc, 0x87, 0x00, 0x00, 0x21, 0xa3, 0x00, 0x00, 0x3b, 0x02, 0x01, 0x00, 0x45, 0xb8, 0x00, 0x00, 0x62, 0x23, 0x01, 0x00,
  0xce, 0x9f, 0x00, 0x00, 0x58, 0x2f, 0x01, 0x00, 0xb3, 0x73, 0x00, 0x00, 0x98, 0x9e, 0x00, 0x00, 0x4a, 0xf5, 0x00, 0x00,
  0x81, 0x26, 0x01, 0x00, 0x6d, 0xb7, 0x00, 0x00, 0x7e, 0x9f, 0x00, 0x00, 0x21, 0xc8, 0x00, 0x00, 0x27, 0xd0, 0x00, 0x00,
  0x05, 0xf4, 0x00, 0x00, 0xac, 0x85, 0x00, 0x00, 0x86, 0xf2, 0xff, 0xff, 0x04, 0x00, 0x00, 0x00, 0xe0, 0x01, 0x00, 0x00,
  0xdd, 0x51, 0x50, 0xdd, 0xd9, 0xef, 0x31, 0xeb, 0x2f, 0x7f, 0x05, 0xcf, 0x03, 0xfc, 0x07, 0xec, 0xff, 0x1f, 0xe4, 0x54,
  0xf5, 0xda, 0x12, 0x2d, 0x95, 0x11, 0x41, 0x24, 0x7e, 0x7f, 0xfd, 0x11, 0xf8, 0x0a, 0xff, 0xbc, 0x06, 0xed, 0xfc, 0x01,
  0x86, 0xdd, 0xb9, 0xa6, 0x16, 0xd4, 0x03, 0xea, 0x4b, 0xab, 0x31, 0xd9, 0x2c, 0x3a, 0xb8, 0x1e, 0x81, 0x3b, 0x2d, 0xf5,
  0xee, 0xba, 0x58, 0xe9, 0xfb, 0x25, 0x2c, 0xe2, 0x23, 0x7f, 0xd9, 0xe3, 0x14, 0xcf, 0x3e, 0x87, 0x27, 0x72, 0x0f, 0xf5,
  0xb1, 0x19, 0x34, 0x7f, 0xbc, 0x3f, 0xca, 0x9a, 0x49, 0xd4, 0xd8, 0xb6, 0x03, 0x24, 0x2b, 0x10, 0x32, 0xf8, 0x2d, 0xf3,
  0xa1, 0x05, 0xda, 0xf6, 0xd3, 0xe8, 0xf0, 0xce, 0x28, 0x14, 0xd9, 0xd9, 0xe9, 0xee, 0xe2, 0x81, 0xfe, 0x12, 0xf1, 0x05,
  0xcb, 0x00, 0xd0, 0x12, 0x9c, 0x28, 0x5c, 0x56, 0x08, 0x3c, 0xfb, 0xca, 0xe6, 0x1a, 0x7f, 0x04, 0xf2, 0xdb, 0xfb, 0xfc,
  0xd3, 0xd6, 0xcb, 0xf9, 0xc0, 0x07, 0x7f, 0x09, 0x48, 0xbe, 0xfc, 0x2a, 0x30, 0xf1, 0xf9, 0xe0, 0xfd, 0x41, 0x2f, 0xf7,
  0x24, 0x81, 0x17, 0x09, 0xec, 0x36, 0xe0, 0xe1, 0x79, 0x0f, 0x7e, 0xb6, 0x56, 0x7b, 0xa4, 0xb7, 0xdc, 0xdd, 0x03, 0x18,
  0x7f, 0x3b, 0x13, 0x3e, 0x61, 0x1c, 0x36, 0x28, 0x3e, 0x35, 0xe3, 0xee, 0xf0, 0xc0, 0x02, 0x2b, 0xf9, 0xd2, 0xf6, 0xde,
  0xfd, 0x78, 0x0d, 0xf3, 0x1f, 0xcf, 0xe1, 0x2e, 0x16, 0x51, 0x05, 0x81, 0xf5, 0xe5, 0xe8, 0x74, 0x19, 0xf2, 0x10, 0xf6,
  0x7f, 0x12, 0x14, 0x63, 0x75, 0x07, 0x30, 0x5c, 0xf4, 0x64, 0x35, 0xa5, 0x12, 0x73, 0xbe, 0x12, 0xdd, 0x20, 0x56, 0x0d,
  0xf9, 0xf6, 0xea, 0xd5, 0x4d, 0xf5, 0x7f, 0xad, 0x03, 0xe9, 0xf3, 0x1d, 0x1f, 0x16, 0xec, 0xff, 0xd6, 0x2b, 0x35, 0xe2,
  0xf2, 0x09, 0xe0, 0x26, 0x12, 0xd7, 0xfa, 0x4e, 0xb0, 0xf3, 0x7c, 0x54, 0xf2, 0x27, 0x13, 0x81, 0xff, 0x51, 0x29, 0x75,
  0x01, 0xf8, 0xec, 0x33, 0xa3, 0x1f, 0x11, 0x47, 0x0a, 0xe6, 0x06, 0x00, 0x4f, 0xfb, 0xfb, 0x81, 0x20, 0x00, 0xde, 0x2f,
  0xfc, 0x33, 0x02, 0x1b, 0xfb, 0xe1, 0xab, 0xf4, 0x08, 0x31, 0x0c, 0xda, 0x07, 0x7f, 0x0b, 0xce, 0xf4, 0xcf, 0xd0, 0xee,
  0xe5, 0x2e, 0xd0, 0xde, 0x33, 0xf3, 0xdc, 0x36, 0xfc, 0x5e, 0x05, 0x38, 0xed, 0x39, 0xb9, 0x81, 0x02, 0x56, 0x40, 0x0d,
  0x07, 0x48, 0x10, 0x2b, 0xf6, 0x31, 0x8c, 0x32, 0x05, 0x1f, 0x00, 0xc1, 0xf3, 0x81, 0xe0, 0xb5, 0x1d, 0x47, 0xbc, 0x36,
  0x0d, 0x00, 0xf3, 0xe1, 0xb1, 0x5f, 0x5c, 0x7f, 0x23, 0xfd, 0x26, 0xc2, 0x22, 0x49, 0x64, 0xf8, 0xf6, 0xef, 0x83, 0xd4,
  0xe9, 0xe3, 0x0c, 0xf9, 0x74, 0xb3, 0xcd, 0x70, 0x53, 0xee, 0x10, 0xc5, 0x4a, 0xc0, 0xd3, 0x81, 0xf5, 0xfb, 0x0a, 0x93,
  0xce, 0xb8, 0x20, 0x0b, 0x7d, 0xe9, 0x18, 0x14, 0xb4, 0xe8, 0x36, 0xdf, 0x33, 0x7f, 0x91, 0x20, 0xec, 0xfe, 0xf2, 0x0e,
  0x66, 0x44, 0xb2, 0xc8, 0x9c, 0xf1, 0x40, 0x31, 0x41, 0x7f, 0xf3, 0xa2, 0xfb, 0xe3, 0xc1, 0xe8, 0x10, 0x00, 0x01, 0x2b,
  0x50, 0xdf, 0x98, 0xf5, 0x36, 0xd9, 0x7f, 0x59, 0x08, 0xe5, 0x05, 0xe3, 0xc8, 0xe2, 0xdf, 0x1a, 0xb8, 0x14, 0x1c, 0x0d,
  0x7f, 0xd9, 0x1c, 0x3b, 0x38, 0xf6, 0xe8, 0x7f, 0xc8, 0x76, 0xf0, 0x15, 0xf2, 0x2a, 0x05, 0xa9, 0x0f, 0x3a, 0x32, 0xef,
  0x72, 0xf4, 0xff, 0xff, 0x04, 0x00, 0x00, 0x00, 0x60, 0x00, 0x00, 0x00, 0x5c, 0xfa, 0xff, 0xff, 0x6b, 0xfb, 0xff, 0xff,
  0x56, 0x05, 0x00, 0x00, 0xdf, 0x02, 0x00, 0x00, 0x6e, 0x00, 0x00, 0x00, 0x87, 0x13, 0x00, 0x00, 0x6f, 0xfe, 0xff, 0xff,
  0x74, 0xff, 0xff, 0xff, 0x41, 0x03, 0x00, 0x00, 0x8b, 0xf4, 0xff, 0xff, 0x11, 0xf8, 0xff, 0xff, 0xd0, 0xea, 0xff, 0xff,
  0x12, 0xfa, 0xff, 0xff, 0xf1, 0xf8, 0xff, 0xff, 0x74, 0x06, 0x00, 0x00, 0x90, 0x01, 0x00, 0x00, 0xa4, 0xfc, 0xff, 0xff,
  0xcc, 0x0b, 0x00, 0x00, 0xe3, 0xff, 0xff, 0xff, 0x30, 0x08, 0x00, 0x00, 0x22, 0xf7, 0xff, 0xff, 0x7a, 0x04, 0x00, 0x00,
  0xfc, 0x03, 0x00, 0x00, 0x13, 0xf7, 0xff, 0xff, 0xde, 0xf4, 0xff, 0xff, 0x04, 0x00, 0x00, 0x00, 0x78, 0x00, 0x00, 0x00,
  0xe2, 0x32, 0x09, 0xd6, 0xc2, 0x81, 0xd3, 0x29, 0x10, 0x2e, 0xd0, 0x35, 0xed, 0x5f, 0x0d, 0x30, 0xce, 0x03, 0x2d, 0x01,
  0x1d, 0xe3, 0x5b, 0xb8, 0xfd, 0xcd, 0x4e, 0xc8, 0xdc, 0xe7, 0xc3, 0xe4, 0x23, 0x3f, 0xce, 0x0c, 0x49, 0x31, 0x42, 0xf7,
  0xc1, 0xbb, 0x2f, 0xcc, 0x06, 0x1b, 0x22, 0x5e, 0xd1, 0xcc, 0xcd, 0xcd, 0xab, 0xd4, 0xd7, 0x3e, 0x34, 0xfa, 0x14, 0xff,
  0x66, 0xbf, 0xf6, 0x54, 0x18, 0x2c, 0x17, 0xde, 0x3e, 0xcf, 0x3d, 0x53, 0xc1, 0xcb, 0x24, 0x26, 0x9c, 0xb6, 0xe4, 0x05,
  0x1a, 0x2b, 0xe1, 0x20, 0x2b, 0xed, 0x44, 0x4b, 0x15, 0xfa, 0x02, 0xe6, 0xfa, 0xf2, 0x21, 0x03, 0xaf, 0xb6, 0x26, 0x3d,
  0x86, 0xfe, 0xcd, 0xfe, 0x22, 0x1d, 0x07, 0x2f, 0x2f, 0x1b, 0xcc, 0x57, 0xc3, 0xec, 0x31, 0x06, 0xcb, 0x1a, 0xd7, 0x19,
  0x62, 0xf5, 0xff, 0xff, 0x04, 0x00, 0x00, 0x00, 0x04, 0x00, 0x00, 0x00, 0x7f, 0xfe, 0xff, 0xff, 0x72, 0xf5, 0xff, 0xff,
  0x04, 0x00, 0x00, 0x00, 0x10, 0x00, 0x00, 0x00, 0x00, 0x00, 0x00, 0x00, 0x00, 0x00, 0x00, 0x00, 0x00, 0x00, 0x00, 0x00,
  0x02, 0x00, 0x00, 0x00, 0x8e, 0xf5, 0xff, 0xff, 0x04, 0x00, 0x00, 0x00, 0x10, 0x00, 0x00, 0x00, 0x00, 0x00, 0x00, 0x00,
  0x00, 0x00, 0x00, 0x00, 0x08, 0x00, 0x00, 0x00, 0x0a, 0x00, 0x00, 0x00, 0xaa, 0xf5, 0xff, 0xff, 0x04, 0x00, 0x00, 0x00,
  0x08, 0x00, 0x00, 0x00, 0x01, 0x00, 0x00, 0x00, 0x04, 0x00, 0x00, 0x00, 0xbe, 0xf5, 0xff, 0xff, 0x04, 0x00, 0x00, 0x00,
  0x10, 0x00, 0x00, 0x00, 0x00, 0x00, 0x00, 0x00, 0x00, 0x00, 0x00, 0x00, 0x00, 0x00, 0x00, 0x00, 0x00, 0x00, 0x00, 0x00,
  0xda, 0xf5, 0xff, 0xff, 0x04, 0x00, 0x00, 0x00, 0x10, 0x00, 0x00, 0x00, 0x00, 0x00, 0x00, 0x00, 0x00, 0x00, 0x00, 0x00,
  0x04, 0x00, 0x00, 0x00, 0x04, 0x00, 0x00, 0x00, 0xf6, 0xf5, 0xff, 0xff, 0x04, 0x00, 0x00, 0x00, 0x08, 0x00, 0x00, 0x00,
  0x01, 0x00, 0x00, 0x00, 0x02, 0x00, 0x00, 0x00, 0x0a, 0xf6, 0xff, 0xff, 0x04, 0x00, 0x00, 0x00, 0x04, 0x00, 0x00, 0x00,
  0xfa, 0x00, 0x00, 0x00, 0xc8, 0xb3, 0xff, 0xff, 0x1e, 0xf6, 0xff, 0xff, 0x04, 0x00, 0x00, 0x00, 0x04, 0x00, 0x00, 0x00,
  0x01, 0x00, 0x00, 0x00, 0x2e, 0xf6, 0xff, 0xff, 0x04, 0x00, 0x00, 0x00, 0x04, 0x00, 0x00, 0x00, 0x00, 0x00, 0x00, 0x00,
  0xec, 0xb3, 0xff, 0xff, 0xf0, 0xb3, 0xff, 0xff, 0x0f, 0x00, 0x00, 0x00, 0x4d, 0x4c, 0x49, 0x52, 0x20, 0x43, 0x6f, 0x6e,
  0x76, 0x65, 0x72, 0x74, 0x65, 0x64, 0x2e, 0x00, 0x01, 0x00, 0x00, 0x00, 0x14, 0x00, 0x00, 0x00, 0x00, 0x00, 0x0e, 0x00,
  0x18, 0x00, 0x14, 0x00, 0x10, 0x00, 0x0c, 0x00, 0x08, 0x00, 0x04, 0x00, 0x0e, 0x00, 0x00, 0x00, 0x14, 0x00, 0x00, 0x00,
  0x1c, 0x00, 0x00, 0x00, 0x68, 0x0a, 0x00, 0x00, 0x6c, 0x0a, 0x00, 0x00, 0x70, 0x0a, 0x00, 0x00, 0x04, 0x00, 0x00, 0x00,
  0x6d, 0x61, 0x69, 0x6e, 0x00, 0x00, 0x00, 0x00, 0x2b, 0x00, 0x00, 0x00, 0x30, 0x0a, 0x00, 0x00, 0xe8, 0x09, 0x00, 0x00,
  0x88, 0x09, 0x00, 0x00, 0x40, 0x09, 0x00, 0x00, 0x18, 0x09, 0x00, 0x00, 0xbc, 0x08, 0x00, 0x00, 0x64, 0x08, 0x00, 0x00,
  0x14, 0x08, 0x00, 0x00, 0xcc, 0x07, 0x00, 0x00, 0x94, 0x07, 0x00, 0x00, 0x40, 0x07, 0x00, 0x00, 0xf8, 0x06, 0x00, 0x00,
  0xc4, 0x06, 0x00, 0x00, 0x90, 0x06, 0x00, 0x00, 0x4c, 0x06, 0x00, 0x00, 0x20, 0x06, 0x00, 0x00, 0xcc, 0x05, 0x00, 0x00,
  0xa0, 0x05, 0x00, 0x00, 0x6c, 0x05, 0x00, 0x00, 0x34, 0x05, 0x00, 0x00, 0xfc, 0x04, 0x00, 0x00, 0xb4, 0x04, 0x00, 0x00,
  0x6c, 0x04, 0x00, 0x00, 0x38, 0x04, 0x00, 0x00, 0x04, 0x04, 0x00, 0x00, 0xc0, 0x03, 0x00, 0x00, 0x94, 0x03, 0x00, 0x00,
  0x4c, 0x03, 0x00, 0x00, 0x20, 0x03, 0x00, 0x00, 0xec, 0x02, 0x00, 0x00, 0xb4, 0x02, 0x00, 0x00, 0x7c, 0x02, 0x00, 0x00,
  0x34, 0x02, 0x00, 0x00, 0xec, 0x01, 0x00, 0x00, 0xb8, 0x01, 0x00, 0x00, 0x84, 0x01, 0x00, 0x00, 0x40, 0x01, 0x00, 0x00,
  0x00, 0x01, 0x00, 0x00, 0xcc, 0x00, 0x00, 0x00, 0x8c, 0x00, 0x00, 0x00, 0x50, 0x00, 0x00, 0x00, 0x28, 0x00, 0x00, 0x00,
  0x04, 0x00, 0x00, 0x00, 0x8e, 0xf7, 0xff, 0xff, 0x0c, 0x00, 0x00, 0x00, 0x10, 0x00, 0x00, 0x00, 0x0c, 0x00, 0x00, 0x00,
  0x01, 0x00, 0x00, 0x00, 0x5a, 0x00, 0x00, 0x00, 0x01, 0x00, 0x00, 0x00, 0x59, 0x00, 0x00, 0x00, 0xae, 0xf7, 0xff, 0xff,
  0x0c, 0x00, 0x00, 0x00, 0x10, 0x00, 0x00, 0x00, 0x04, 0x00, 0x00, 0x00, 0x01, 0x00, 0x00, 0x00, 0x59, 0x00, 0x00, 0x00,
  0x02, 0x00, 0x00, 0x00, 0x55, 0x00, 0x00, 0x00, 0x58, 0x00, 0x00, 0x00, 0x12, 0xf7, 0xff, 0xff, 0x14, 0x00, 0x00, 0x00,
  0x00, 0x00, 0x00, 0x3b, 0x14, 0x00, 0x00, 0x00, 0x18, 0x00, 0x00, 0x00, 0x03, 0x00, 0x00, 0x00, 0xa2, 0xf7, 0xff, 0xff,
  0x03, 0x00, 0x00, 0x00, 0x01, 0x00, 0x00, 0x00, 0x58, 0x00, 0x00, 0x00, 0x03, 0x00, 0x00, 0x00, 0x57, 0x00, 0x00, 0x00,
  0x04, 0x00, 0x00, 0x00, 0x03, 0x00, 0x00, 0x00, 0x4a, 0xf7, 0xff, 0xff, 0x14, 0x00, 0x00, 0x00, 0x00, 0x00, 0x00, 0x20,
  0x14, 0x00, 0x00, 0x00, 0x18, 0x00, 0x00, 0x00, 0x02, 0x00, 0x00, 0x00, 0x96, 0xf7, 0xff, 0xff, 0x01, 0x00, 0x00, 0x00,
  0x01, 0x00, 0x00, 0x00, 0x57, 0x00, 0x00, 0x00, 0x04, 0x00, 0x00, 0x00, 0x56, 0x00, 0x00, 0x00, 0x01, 0x00, 0x00, 0x00,
  0x02, 0x00, 0x00, 0x00, 0x02, 0x00, 0x00, 0x00, 0x86, 0xf7, 0xff, 0xff, 0x14, 0x00, 0x00, 0x00, 0x00, 0x00, 0x00, 0x37,
  0x14, 0x00, 0x00, 0x00, 0x18, 0x00, 0x00, 0x00, 0x01, 0x00, 0x00, 0x00, 0x76, 0xf7, 0xff, 0xff, 0x00, 0x00, 0x00, 0x02,
  0x01, 0x00, 0x00, 0x00, 0x56, 0x00, 0x00, 0x00, 0x01, 0x00, 0x00, 0x00, 0x55, 0x00, 0x00, 0x00, 0xb6, 0xf7, 0xff, 0xff,
  0x14, 0x00, 0x00, 0x00, 0x00, 0x00, 0x00, 0x01, 0x18, 0x00, 0x00, 0x00, 0x1c, 0x00, 0x00, 0x00, 0x06, 0x00, 0x00, 0x00,
  0x86, 0xf7, 0xff, 0xff, 0x01, 0x00, 0x00, 0x00, 0x01, 0x00, 0x00, 0x00, 0x01, 0x00, 0x00, 0x00, 0x55, 0x00, 0x00, 0x00,
  0x03, 0x00, 0x00, 0x00, 0x54, 0x00, 0x00, 0x00, 0x0c, 0x00, 0x00, 0x00, 0x0b, 0x00, 0x00, 0x00, 0xf2, 0xf7, 0xff, 0xff,
  0x14, 0x00, 0x00, 0x00, 0x00, 0x00, 0x00, 0x01, 0x1c, 0x00, 0x00, 0x00, 0x20, 0x00, 0x00, 0x00, 0x06, 0x00, 0x00, 0x00,
  0xa0, 0xf9, 0xff, 0xff, 0x00, 0x00, 0x00, 0x03, 0x01, 0x00, 0x00, 0x00, 0x01, 0x00, 0x00, 0x00, 0x01, 0x00, 0x00, 0x00,
  0x54, 0x00, 0x00, 0x00, 0x03, 0x00, 0x00, 0x00, 0x53, 0x00, 0x00, 0x00, 0x0e, 0x00, 0x00, 0x00, 0x0d, 0x00, 0x00, 0x00,
  0x32, 0xf8, 0xff, 0xff, 0x14, 0x00, 0x00, 0x00, 0x00, 0x00, 0x00, 0x15, 0x10, 0x00, 0x00, 0x00, 0x14, 0x00, 0x00, 0x00,
  0x08, 0x00, 0x00, 0x00, 0x70, 0xb6, 0xff, 0xff, 0x01, 0x00, 0x00, 0x00, 0x53, 0x00, 0x00, 0x00, 0x02, 0x00, 0x00, 0x00,
  0x4e, 0x00, 0x00, 0x00, 0x52, 0x00, 0x00, 0x00, 0x62, 0xf8, 0xff, 0xff, 0x14, 0x00, 0x00, 0x00, 0x00, 0x00, 0x00, 0x15,
  0x10, 0x00, 0x00, 0x00, 0x14, 0x00, 0x00, 0x00, 0x08, 0x00, 0x00, 0x00, 0xa0, 0xb6, 0xff, 0xff, 0x01, 0x00, 0x00, 0x00,
  0x52, 0x00, 0x00, 0x00, 0x02, 0x00, 0x00, 0x00, 0x51, 0x00, 0x00, 0x00, 0x23, 0x00, 0x00, 0x00, 0x92, 0xf8, 0xff, 0xff,
  0x14, 0x00, 0x00, 0x00, 0x00, 0x00, 0x00, 0x01, 0x20, 0x00, 0x00, 0x00, 0x24, 0x00, 0x00, 0x00, 0x06, 0x00, 0x00, 0x00,
  0x08, 0xfb, 0xff, 0xff, 0x00, 0x00, 0x00, 0x03, 0x01, 0x00, 0x00, 0x00, 0x01, 0x00, 0x00, 0x00, 0x00, 0x00, 0x00, 0x01,
  0x01, 0x00, 0x00, 0x00, 0x51, 0x00, 0x00, 0x00, 0x03, 0x00, 0x00, 0x00, 0x50, 0x00, 0x00, 0x00, 0x10, 0x00, 0x00, 0x00,
  0x0f, 0x00, 0x00, 0x00, 0xd6, 0xf8, 0xff, 0xff, 0x14, 0x00, 0x00, 0x00, 0x00, 0x00, 0x00, 0x01, 0x20, 0x00, 0x00, 0x00,
  0x24, 0x00, 0x00, 0x00, 0x06, 0x00, 0x00, 0x00, 0x4c, 0xfb, 0xff, 0xff, 0x00, 0x00, 0x00, 0x03, 0x01, 0x00, 0x00, 0x00,
  0x01, 0x00, 0x00, 0x00, 0x00, 0x00, 0x00, 0x01, 0x01, 0x00, 0x00, 0x00, 0x50, 0x00, 0x00, 0x00, 0x03, 0x00, 0x00, 0x00,
  0x4f, 0x00, 0x00, 0x00, 0x12, 0x00, 0x00, 0x00, 0x11, 0x00, 0x00, 0x00, 0x1a, 0xf9, 0xff, 0xff, 0x14, 0x00, 0x00, 0x00,
  0x00, 0x00, 0x00, 0x1b, 0x14, 0x00, 0x00, 0x00, 0x18, 0x00, 0x00, 0x00, 0x07, 0x00, 0x00, 0x00, 0x0a, 0xf9, 0xff, 0xff,
  0x00, 0x00, 0x00, 0x01, 0x01, 0x00, 0x00, 0x00, 0x4f, 0x00, 0x00, 0x00, 0x02, 0x00, 0x00, 0x00, 0x4e, 0x00, 0x00, 0x00,
  0x05, 0x00, 0x00, 0x00, 0x4e, 0xf9, 0xff, 0xff, 0x14, 0x00, 0x00, 0x00, 0x00, 0x00, 0x00, 0x0b, 0x14, 0x00, 0x00, 0x00,
  0x18, 0x00, 0x00, 0x00, 0x0b, 0x00, 0x00, 0x00, 0x3e, 0xf9, 0xff, 0xff, 0x00, 0x00, 0x00, 0x03, 0x01, 0x00, 0x00, 0x00,
  0x4e, 0x00, 0x00, 0x00, 0x02, 0x00, 0x00, 0x00, 0x4d, 0x00, 0x00, 0x00, 0x13, 0x00, 0x00, 0x00, 0x82, 0xf9, 0xff, 0xff,
  0x14, 0x00, 0x00, 0x00, 0x00, 0x00, 0x00, 0x15, 0x10, 0x00, 0x00, 0x00, 0x14, 0x00, 0x00, 0x00, 0x08, 0x00, 0x00, 0x00,
  0xc0, 0xb7, 0xff, 0xff, 0x01, 0x00, 0x00, 0x00, 0x4d, 0x00, 0x00, 0x00, 0x02, 0x00, 0x00, 0x00, 0x4c, 0x00, 0x00, 0x00,
  0x14, 0x00, 0x00, 0x00, 0x72, 0xfa, 0xff, 0xff, 0x0c, 0x00, 0x00, 0x00, 0x10, 0x00, 0x00, 0x00, 0x0a, 0x00, 0x00, 0x00,
  0x01, 0x00, 0x00, 0x00, 0x4c, 0x00, 0x00, 0x00, 0x03, 0x00, 0x00, 0x00, 0x4b, 0x00, 0x00, 0x00, 0x08, 0x00, 0x00, 0x00,
  0x0a, 0x00, 0x00, 0x00, 0xda, 0xf9, 0xff, 0xff, 0x14, 0x00, 0x00, 0x00, 0x00, 0x00, 0x00, 0x02, 0x20, 0x00, 0x00, 0x00,
  0x24, 0x00, 0x00, 0x00, 0x05, 0x00, 0x00, 0x00, 0xac, 0xfd, 0xff, 0xff, 0x01, 0x00, 0x00, 0x00, 0x01, 0x00, 0x00, 0x00,
  0x01, 0x00, 0x00, 0x00, 0x00, 0x00, 0x00, 0x01, 0x01, 0x00, 0x00, 0x00, 0x4b, 0x00, 0x00, 0x00, 0x03, 0x00, 0x00, 0x00,
  0x4a, 0x00, 0x00, 0x00, 0x16, 0x00, 0x00, 0x00, 0x15, 0x00, 0x00, 0x00, 0xde, 0xfa, 0xff, 0xff, 0x0c, 0x00, 0x00, 0x00,
  0x10, 0x00, 0x00, 0x00, 0x09, 0x00, 0x00, 0x00, 0x01, 0x00, 0x00, 0x00, 0x4a, 0x00, 0x00, 0x00, 0x03, 0x00, 0x00, 0x00,
  0x49, 0x00, 0x00, 0x00, 0x08, 0x00, 0x00, 0x00, 0x09, 0x00, 0x00, 0x00, 0x46, 0xfa, 0xff, 0xff, 0x14, 0x00, 0x00, 0x00,
  0x00, 0x00, 0x00, 0x01, 0x1c, 0x00, 0x00, 0x00, 0x20, 0x00, 0x00, 0x00, 0x06, 0x00, 0x00, 0x00, 0xf4, 0xfb, 0xff, 0xff,
  0x00, 0x00, 0x00, 0x03, 0x01, 0x00, 0x00, 0x00, 0x01, 0x00, 0x00, 0x00, 0x01, 0x00, 0x00, 0x00, 0x49, 0x00, 0x00, 0x00,
  0x03, 0x00, 0x00, 0x00, 0x48, 0x00, 0x00, 0x00, 0x18, 0x00, 0x00, 0x00, 0x17, 0x00, 0x00, 0x00, 0x86, 0xfa, 0xff, 0xff,
  0x14, 0x00, 0x00, 0x00, 0x00, 0x00, 0x00, 0x15, 0x10, 0x00, 0x00, 0x00, 0x14, 0x00, 0x00, 0x00, 0x08, 0x00, 0x00, 0x00,
  0xc4, 0xb8, 0xff, 0xff, 0x01, 0x00, 0x00, 0x00, 0x48, 0x00, 0x00, 0x00, 0x02, 0x00, 0x00, 0x00, 0x43, 0x00, 0x00, 0x00,
  0x47, 0x00, 0x00, 0x00, 0xb6, 0xfa, 0xff, 0xff, 0x14, 0x00, 0x00, 0x00, 0x00, 0x00, 0x00, 0x15, 0x10, 0x00, 0x00, 0x00,
  0x14, 0x00, 0x00, 0x00, 0x08, 0x00, 0x00, 0x00, 0xf4, 0xb8, 0xff, 0xff, 0x01, 0x00, 0x00, 0x00, 0x47, 0x00, 0x00, 0x00,
  0x02, 0x00, 0x00, 0x00, 0x46, 0x00, 0x00, 0x00, 0x23, 0x00, 0x00, 0x00, 0xe6, 0xfa, 0xff, 0xff, 0x14, 0x00, 0x00, 0x00,
  0x00, 0x00, 0x00, 0x01, 0x20, 0x00, 0x00, 0x00, 0x24, 0x00, 0x00, 0x00, 0x06, 0x00, 0x00, 0x00, 0x5c, 0xfd, 0xff, 0xff,
  0x00, 0x00, 0x00, 0x03, 0x01, 0x00, 0x00, 0x00, 0x01, 0x00, 0x00, 0x00, 0x00, 0x00, 0x00, 0x01, 0x01, 0x00, 0x00, 0x00,
  0x46, 0x00, 0x00, 0x00, 0x03, 0x00, 0x00, 0x00, 0x45, 0x00, 0x00, 0x00, 0x1a, 0x00, 0x00, 0x00, 0x19, 0x00, 0x00, 0x00,
  0x2a, 0xfb, 0xff, 0xff, 0x14, 0x00, 0x00, 0x00, 0x00, 0x00, 0x00, 0x01, 0x20, 0x00, 0x00, 0x00, 0x24, 0x00, 0x00, 0x00,
  0x06, 0x00, 0x00, 0x00, 0xa0, 0xfd, 0xff, 0xff, 0x00, 0x00, 0x00, 0x03, 0x01, 0x00, 0x00, 0x00, 0x01, 0x00, 0x00, 0x00,
  0x00, 0x00, 0x00, 0x01, 0x01, 0x00, 0x00, 0x00, 0x45, 0x00, 0x00, 0x00, 0x03, 0x00, 0x00, 0x00, 0x44, 0x00, 0x00, 0x00,
  0x1c, 0x00, 0x00, 0x00, 0x1b, 0x00, 0x00, 0x00, 0x6e, 0xfb, 0xff, 0xff, 0x14, 0x00, 0x00, 0x00, 0x00, 0x00, 0x00, 0x1b,
  0x14, 0x00, 0x00, 0x00, 0x18, 0x00, 0x00, 0x00, 0x07, 0x00, 0x00, 0x00, 0x5e, 0xfb, 0xff, 0xff, 0x00, 0x00, 0x00, 0x01,
  0x01, 0x00, 0x00, 0x00, 0x44, 0x00, 0x00, 0x00, 0x02, 0x00, 0x00, 0x00, 0x43, 0x00, 0x00, 0x00, 0x05, 0x00, 0x00, 0x00,
  0xa2, 0xfb, 0xff, 0xff, 0x14, 0x00, 0x00, 0x00, 0x00, 0x00, 0x00, 0x0b, 0x14, 0x00, 0x00, 0x00, 0x18, 0x00, 0x00, 0x00,
  0x0b, 0x00, 0x00, 0x00, 0x92, 0xfb, 0xff, 0xff, 0x00, 0x00, 0x00, 0x03, 0x01, 0x00, 0x00, 0x00, 0x43, 0x00, 0x00, 0x00,
  0x02, 0x00, 0x00, 0x00, 0x42, 0x00, 0x00, 0x00, 0x1d, 0x00, 0x00, 0x00, 0xd6, 0xfb, 0xff, 0xff, 0x14, 0x00, 0x00, 0x00,
  0x00, 0x00, 0x00, 0x15, 0x10, 0x00, 0x00, 0x00, 0x14, 0x00, 0x00, 0x00, 0x08, 0x00, 0x00, 0x00, 0x14, 0xba, 0xff, 0xff,
  0x01, 0x00, 0x00, 0x00, 0x42, 0x00, 0x00, 0x00, 0x02, 0x00, 0x00, 0x00, 0x41, 0x00, 0x00, 0x00, 0x1e, 0x00, 0x00, 0x00,
  0xc6, 0xfc, 0xff, 0xff, 0x0c, 0x00, 0x00, 0x00, 0x10, 0x00, 0x00, 0x00, 0x0a, 0x00, 0x00, 0x00, 0x01, 0x00, 0x00, 0x00,
  0x41, 0x00, 0x00, 0x00, 0x03, 0x00, 0x00, 0x00, 0x40, 0x00, 0x00, 0x00, 0x05, 0x00, 0x00, 0x00, 0x07, 0x00, 0x00, 0x00,
  0x2e, 0xfc, 0xff, 0xff, 0x20, 0x00, 0x00, 0x00, 0x00, 0x00, 0x00, 0x02, 0x2c, 0x00, 0x00, 0x00, 0x30, 0x00, 0x00, 0x00,
  0x05, 0x00, 0x00, 0x00, 0x0c, 0x00, 0x14, 0x00, 0x13, 0x00, 0x0c, 0x00, 0x08, 0x00, 0x04, 0x00, 0x0c, 0x00, 0x00, 0x00,
  0x01, 0x00, 0x00, 0x00, 0x01, 0x00, 0x00, 0x00, 0x01, 0x00, 0x00, 0x00, 0x00, 0x00, 0x00, 0x01, 0x01, 0x00, 0x00, 0x00,
  0x40, 0x00, 0x00, 0x00, 0x03, 0x00, 0x00, 0x00, 0x3f, 0x00, 0x00, 0x00, 0x20, 0x00, 0x00, 0x00, 0x1f, 0x00, 0x00, 0x00,
  0x3e, 0xfd, 0xff, 0xff, 0x0c, 0x00, 0x00, 0x00, 0x10, 0x00, 0x00, 0x00, 0x09, 0x00, 0x00, 0x00, 0x01, 0x00, 0x00, 0x00,
  0x3f, 0x00, 0x00, 0x00, 0x03, 0x00, 0x00, 0x00, 0x3e, 0x00, 0x00, 0x00, 0x05, 0x00, 0x00, 0x00, 0x06, 0x00, 0x00, 0x00,
  0xa6, 0xfc, 0xff, 0xff, 0x14, 0x00, 0x00, 0x00, 0x00, 0x00, 0x00, 0x01, 0x1c, 0x00, 0x00, 0x00, 0x20, 0x00, 0x00, 0x00,
  0x06, 0x00, 0x00, 0x00, 0x54, 0xfe, 0xff, 0xff, 0x00, 0x00, 0x00, 0x03, 0x01, 0x00, 0x00, 0x00, 0x01, 0x00, 0x00, 0x00,
  0x01, 0x00, 0x00, 0x00, 0x3e, 0x00, 0x00, 0x00, 0x03, 0x00, 0x00, 0x00, 0x3d, 0x00, 0x00, 0x00, 0x22, 0x00, 0x00, 0x00,
  0x21, 0x00, 0x00, 0x00, 0xe6, 0xfc, 0xff, 0xff, 0x14, 0x00, 0x00, 0x00, 0x00, 0x00, 0x00, 0x15, 0x10, 0x00, 0x00, 0x00,
  0x14, 0x00, 0x00, 0x00, 0x08, 0x00, 0x00, 0x00, 0x24, 0xbb, 0xff, 0xff, 0x01, 0x00, 0x00, 0x00, 0x3d, 0x00, 0x00, 0x00,
  0x02, 0x00, 0x00, 0x00, 0x38, 0x00, 0x00, 0x00, 0x3c, 0x00, 0x00, 0x00, 0x16, 0xfd, 0xff, 0xff, 0x14, 0x00, 0x00, 0x00,
  0x00, 0x00, 0x00, 0x15, 0x10, 0x00, 0x00, 0x00, 0x14, 0x00, 0x00, 0x00, 0x08, 0x00, 0x00, 0x00, 0x54, 0xbb, 0xff, 0xff,
  0x01, 0x00, 0x00, 0x00, 0x3c, 0x00, 0x00, 0x00, 0x02, 0x00, 0x00, 0x00, 0x3b, 0x00, 0x00, 0x00, 0x23, 0x00, 0x00, 0x00,
  0x46, 0xfd, 0xff, 0xff, 0x14, 0x00, 0x00, 0x00, 0x00, 0x00, 0x00, 0x01, 0x20, 0x00, 0x00, 0x00, 0x24, 0x00, 0x00, 0x00,
  0x06, 0x00, 0x00, 0x00, 0xbc, 0xff, 0xff, 0xff, 0x00, 0x00, 0x00, 0x03, 0x01, 0x00, 0x00, 0x00, 0x01, 0x00, 0x00, 0x00,
  0x00, 0x00, 0x00, 0x01, 0x01, 0x00, 0x00, 0x00, 0x3b, 0x00, 0x00, 0x00, 0x03, 0x00, 0x00, 0x00, 0x3a, 0x00, 0x00, 0x00,
  0x25, 0x00, 0x00, 0x00, 0x24, 0x00, 0x00, 0x00, 0x8a, 0xfd, 0xff, 0xff, 0x20, 0x00, 0x00, 0x00, 0x00, 0x00, 0x00, 0x01,
  0x2c, 0x00, 0x00, 0x00, 0x30, 0x00, 0x00, 0x00, 0x06, 0x00, 0x00, 0x00, 0x0c, 0x00, 0x14, 0x00, 0x13, 0x00, 0x0c, 0x00,
  0x08, 0x00, 0x07, 0x00, 0x0c, 0x00, 0x00, 0x00, 0x00, 0x00, 0x00, 0x03, 0x01, 0x00, 0x00, 0x00, 0x01, 0x00, 0x00, 0x00,
  0x00, 0x00, 0x00, 0x01, 0x01, 0x00, 0x00, 0x00, 0x3a, 0x00, 0x00, 0x00, 0x03, 0x00, 0x00, 0x00, 0x39, 0x00, 0x00, 0x00,
  0x27, 0x00, 0x00, 0x00, 0x26, 0x00, 0x00, 0x00, 0xda, 0xfd, 0xff, 0xff, 0x14, 0x00, 0x00, 0x00, 0x00, 0x00, 0x00, 0x1b,
  0x14, 0x00, 0x00, 0x00, 0x18, 0x00, 0x00, 0x00, 0x07, 0x00, 0x00, 0x00, 0xca, 0xfd, 0xff, 0xff, 0x00, 0x00, 0x00, 0x01,
  0x01, 0x00, 0x00, 0x00, 0x39, 0x00, 0x00, 0x00, 0x02, 0x00, 0x00, 0x00, 0x38, 0x00, 0x00, 0x00, 0x05, 0x00, 0x00, 0x00,
  0x0e, 0xfe, 0xff, 0xff, 0x14, 0x00, 0x00, 0x00, 0x00, 0x00, 0x00, 0x02, 0x20, 0x00, 0x00, 0x00, 0x24, 0x00, 0x00, 0x00,
  0x05, 0x00, 0x00, 0x00, 0x6e, 0xff, 0xff, 0xff, 0x00, 0x00, 0x00, 0x03, 0x01, 0x00, 0x00, 0x00, 0x01, 0x00, 0x00, 0x00,
  0x01, 0x00, 0x00, 0x00, 0x01, 0x00, 0x00, 0x00, 0x38, 0x00, 0x00, 0x00, 0x03, 0x00, 0x00, 0x00, 0x37, 0x00, 0x00, 0x00,
  0x29, 0x00, 0x00, 0x00, 0x28, 0x00, 0x00, 0x00, 0x52, 0xfe, 0xff, 0xff, 0x20, 0x00, 0x00, 0x00, 0x00, 0x00, 0x00, 0x01,
  0x28, 0x00, 0x00, 0x00, 0x2c, 0x00, 0x00, 0x00, 0x06, 0x00, 0x00, 0x00, 0x0c, 0x00, 0x10, 0x00, 0x00, 0x00, 0x0c, 0x00,
  0x08, 0x00, 0x07, 0x00, 0x0c, 0x00, 0x00, 0x00, 0x00, 0x00, 0x00, 0x03, 0x01, 0x00, 0x00, 0x00, 0x01, 0x00, 0x00, 0x00,
  0x01, 0x00, 0x00, 0x00, 0x37, 0x00, 0x00, 0x00, 0x03, 0x00, 0x00, 0x00, 0x36, 0x00, 0x00, 0x00, 0x2b, 0x00, 0x00, 0x00,
  0x2a, 0x00, 0x00, 0x00, 0x9e, 0xfe, 0xff, 0xff, 0x24, 0x00, 0x00, 0x00, 0x00, 0x00, 0x00, 0x02, 0x30, 0x00, 0x00, 0x00,
  0x34, 0x00, 0x00, 0x00, 0x05, 0x00, 0x00, 0x00, 0x00, 0x00, 0x0e, 0x00, 0x14, 0x00, 0x00, 0x00, 0x10, 0x00, 0x0c, 0x00,
  0x08, 0x00, 0x07, 0x00, 0x0e, 0x00, 0x00, 0x00, 0x00, 0x00, 0x00, 0x03, 0x01, 0x00, 0x00, 0x00, 0x01, 0x00, 0x00, 0x00,
  0x01, 0x00, 0x00, 0x00, 0x01, 0x00, 0x00, 0x00, 0x36, 0x00, 0x00, 0x00, 0x03, 0x00, 0x00, 0x00, 0x35, 0x00, 0x00, 0x00,
  0x2d, 0x00, 0x00, 0x00, 0x2c, 0x00, 0x00, 0x00, 0xf2, 0xfe, 0xff, 0xff, 0x20, 0x00, 0x00, 0x00, 0x00, 0x00, 0x00, 0x02,
  0x28, 0x00, 0x00, 0x00, 0x2c, 0x00, 0x00, 0x00, 0x05, 0x00, 0x00, 0x00, 0x0c, 0x00, 0x10, 0x00, 0x00, 0x00, 0x0c, 0x00,
  0x08, 0x00, 0x04, 0x00, 0x0c, 0x00, 0x00, 0x00, 0x01, 0x00, 0x00, 0x00, 0x01, 0x00, 0x00, 0x00, 0x01, 0x00, 0x00, 0x00,
  0x01, 0x00, 0x00, 0x00, 0x35, 0x00, 0x00, 0x00, 0x03, 0x00, 0x00, 0x00, 0x34, 0x00, 0x00, 0x00, 0x2f, 0x00, 0x00, 0x00,
  0x2e, 0x00, 0x00, 0x00, 0x00, 0x00, 0x0a, 0x00, 0x10, 0x00, 0x0c, 0x00, 0x08, 0x00, 0x04, 0x00, 0x0a, 0x00, 0x00, 0x00,
  0x0c, 0x00, 0x00, 0x00, 0x10, 0x00, 0x00, 0x00, 0x04, 0x00, 0x00, 0x00, 0x01, 0x00, 0x00, 0x00, 0x34, 0x00, 0x00, 0x00,
  0x02, 0x00, 0x00, 0x00, 0x30, 0x00, 0x00, 0x00, 0x33, 0x00, 0x00, 0x00, 0x6e, 0xff, 0xff, 0xff, 0x1c, 0x00, 0x00, 0x00,
  0x00, 0x00, 0x00, 0x3b, 0x1c, 0x00, 0x00, 0x00, 0x20, 0x00, 0x00, 0x00, 0x03, 0x00, 0x00, 0x00, 0x00, 0x00, 0x06, 0x00,
  0x08, 0x00, 0x04, 0x00, 0x06, 0x00, 0x00, 0x00, 0x04, 0x00, 0x00, 0x00, 0x01, 0x00, 0x00, 0x00, 0x33, 0x00, 0x00, 0x00,
  0x04, 0x00, 0x00, 0x00, 0x32, 0x00, 0x00, 0x00, 0x03, 0x00, 0x00, 0x00, 0x04, 0x00, 0x00, 0x00, 0x03, 0x00, 0x00, 0x00,
  0xb2, 0xff, 0xff, 0xff, 0x24, 0x00, 0x00, 0x00, 0x00, 0x00, 0x00, 0x20, 0x24, 0x00, 0x00, 0x00, 0x28, 0x00, 0x00, 0x00,
  0x02, 0x00, 0x00, 0x00, 0x00, 0x00, 0x0e, 0x00, 0x08, 0x00, 0x00, 0x00, 0x00, 0x00, 0x00, 0x00, 0x00, 0x00, 0x04, 0x00,
  0x0e, 0x00, 0x00, 0x00, 0x01, 0x00, 0x00, 0x00, 0x01, 0x00, 0x00, 0x00, 0x32, 0x00, 0x00, 0x00, 0x04, 0x00, 0x00, 0x00,
  0x31, 0x00, 0x00, 0x00, 0x01, 0x00, 0x00, 0x00, 0x02, 0x00, 0x00, 0x00, 0x02, 0x00, 0x00, 0x00, 0x00, 0x00, 0x0e, 0x00,
  0x1a, 0x00, 0x14, 0x00, 0x10, 0x00, 0x0c, 0x00, 0x0b, 0x00, 0x04, 0x00, 0x0e, 0x00, 0x00, 0x00, 0x1c, 0x00, 0x00, 0x00,
  0x00, 0x00, 0x00, 0x37, 0x1c, 0x00, 0x00, 0x00, 0x20, 0x00, 0x00, 0x00, 0x01, 0x00, 0x00, 0x00, 0x00, 0x00, 0x06, 0x00,
  0x08, 0x00, 0x07, 0x00, 0x06, 0x00, 0x00, 0x00, 0x00, 0x00, 0x00, 0x02, 0x01, 0x00, 0x00, 0x00, 0x31, 0x00, 0x00, 0x00,
  0x01, 0x00, 0x00, 0x00, 0x30, 0x00, 0x00, 0x00, 0x00, 0x00, 0x0a, 0x00, 0x0c, 0x00, 0x00, 0x00, 0x08, 0x00, 0x04, 0x00,
  0x0a, 0x00, 0x00, 0x00, 0x08, 0x00, 0x00, 0x00, 0x0c, 0x00, 0x00, 0x00, 0x01, 0x00, 0x00, 0x00, 0x30, 0x00, 0x00, 0x00,
  0x01, 0x00, 0x00, 0x00, 0x00, 0x00, 0x00, 0x00, 0x01, 0x00, 0x00, 0x00, 0x5a, 0x00, 0x00, 0x00, 0x01, 0x00, 0x00, 0x00,
  0x00, 0x00, 0x00, 0x00, 0x5b, 0x00, 0x00, 0x00, 0x2c, 0x41, 0x00, 0x00, 0xd4, 0x40, 0x00, 0x00, 0x7c, 0x40, 0x00, 0x00,
  0x40, 0x40, 0x00, 0x00, 0x04, 0x40, 0x00, 0x00, 0xc4, 0x3f, 0x00, 0x00, 0x80, 0x3f, 0x00, 0x00, 0x3c, 0x3f, 0x00, 0x00,
  0xfc, 0x3e, 0x00, 0x00, 0xb8, 0x3e, 0x00, 0x00, 0x74, 0x3e, 0x00, 0x00, 0x08, 0x3e, 0x00, 0x00, 0x98, 0x3d, 0x00, 0x00,
  0x24, 0x3c, 0x00, 0x00, 0xa0, 0x3a, 0x00, 0x00, 0x5c, 0x39, 0x00, 0x00, 0x08, 0x38, 0x00, 0x00, 0x3c, 0x37, 0x00, 0x00,
  0x60, 0x36, 0x00, 0x00, 0xfc, 0x35, 0x00, 0x00, 0x98, 0x35, 0x00, 0x00, 0x54, 0x34, 0x00, 0x00, 0xe8, 0x32, 0x00, 0x00,
  0xa4, 0x31, 0x00, 0x00, 0x50, 0x30, 0x00, 0x00, 0x3c, 0x2f, 0x00, 0x00, 0x18, 0x2e, 0x00, 0x00, 0x64, 0x2d, 0x00, 0x00,
  0xa0, 0x2c, 0x00, 0x00, 0x3c, 0x2c, 0x00, 0x00, 0xd8, 0x2b, 0x00, 0x00, 0xc4, 0x2a, 0x00, 0x00, 0x9c, 0x29, 0x00, 0x00,
  0x84, 0x28, 0x00, 0x00, 0x60, 0x27, 0x00, 0x00, 0x04, 0x27, 0x00, 0x00, 0x50, 0x26, 0x00, 0x00, 0x8c, 0x25, 0x00, 0x00,
  0x08, 0x25, 0x00, 0x00, 0x74, 0x24, 0x00, 0x00, 0xc0, 0x23, 0x00, 0x00, 0xf8, 0x22, 0x00, 0x00, 0x40, 0x22, 0x00, 0x00,
  0x7c, 0x21, 0x00, 0x00, 0x18, 0x21, 0x00, 0x00, 0xa8, 0x20, 0x00, 0x00, 0x48, 0x20, 0x00, 0x00, 0xd8, 0x1f, 0x00, 0x00,
  0x5c, 0x1f, 0x00, 0x00, 0xf4, 0x1e, 0x00, 0x00, 0xa0, 0x1e, 0x00, 0x00, 0x48, 0x1e, 0x00, 0x00, 0xb8, 0x1d, 0x00, 0x00,
  0x94, 0x1c, 0x00, 0x00, 0x20, 0x1b, 0x00, 0x00, 0x04, 0x1a, 0x00, 0x00, 0x90, 0x18, 0x00, 0x00, 0xfc, 0x17, 0x00, 0x00,
  0xf8, 0x16, 0x00, 0x00, 0xd4, 0x15, 0x00, 0x00, 0x38, 0x15, 0x00, 0x00, 0xa4, 0x14, 0x00, 0x00, 0x88, 0x13, 0x00, 0x00,
  0xdc, 0x12, 0x00, 0x00, 0x40, 0x12, 0x00, 0x00, 0x94, 0x11, 0x00, 0x00, 0xf0, 0x10, 0x00, 0x00, 0x2c, 0x10, 0x00, 0x00,
  0x98, 0x0f, 0x00, 0x00, 0x94, 0x0e, 0x00, 0x00, 0x70, 0x0d, 0x00, 0x00, 0xd4, 0x0c, 0x00, 0x00, 0x40, 0x0c, 0x00, 0x00,
  0x24, 0x0b, 0x00, 0x00, 0x78, 0x0a, 0x00, 0x00, 0xdc, 0x09, 0x00, 0x00, 0x30, 0x09, 0x00, 0x00, 0x8c, 0x08, 0x00, 0x00,
  0xc8, 0x07, 0x00, 0x00, 0x34, 0x07, 0x00, 0x00, 0x30, 0x06, 0x00, 0x00, 0x0c, 0x05, 0x00, 0x00, 0x70, 0x04, 0x00, 0x00,
  0xdc, 0x03, 0x00, 0x00, 0xc0, 0x02, 0x00, 0x00, 0xec, 0x01, 0x00, 0x00, 0x9c, 0x01, 0x00, 0x00, 0x48, 0x01, 0x00, 0x00,
  0xf0, 0x00, 0x00, 0x00, 0x68, 0x00, 0x00, 0x00, 0x04, 0x00, 0x00, 0x00, 0x56, 0xc0, 0xff, 0xff, 0x00, 0x00, 0x00, 0x01,
  0x14, 0x00, 0x00, 0x00, 0x20, 0x00, 0x00, 0x00, 0x20, 0x00, 0x00, 0x00, 0x5b, 0x00, 0x00, 0x00, 0x38, 0x00, 0x00, 0x00,
  0x03, 0x00, 0x00, 0x00, 0xff, 0xff, 0xff, 0xff, 0xfa, 0x00, 0x00, 0x00, 0x01, 0x00, 0x00, 0x00, 0x40, 0xc0, 0xff, 0xff,
  0x1b, 0x00, 0x00, 0x00, 0x53, 0x74, 0x61, 0x74, 0x65, 0x66, 0x75, 0x6c, 0x50, 0x61, 0x72, 0x74, 0x69, 0x74, 0x69, 0x6f,
  0x6e, 0x65, 0x64, 0x43, 0x61, 0x6c, 0x6c, 0x5f, 0x31, 0x3a, 0x30, 0x00, 0x03, 0x00, 0x00, 0x00, 0x01, 0x00, 0x00, 0x00,
  0xfa, 0x00, 0x00, 0x00, 0x01, 0x00, 0x00, 0x00, 0xc6, 0xe1, 0xff, 0xff, 0x00, 0x00, 0x00, 0x01, 0x18, 0x00, 0x00, 0x00,
  0x24, 0x00, 0x00, 0x00, 0x40, 0x00, 0x00, 0x00, 0x5a, 0x00, 0x00, 0x00, 0x00, 0x00, 0x00, 0x09, 0x58, 0x00, 0x00, 0x00,
  0x03, 0x00, 0x00, 0x00, 0xff, 0xff, 0xff, 0xff, 0xfa, 0x00, 0x00, 0x00, 0x01, 0x00, 0x00, 0x00, 0xac, 0xc3, 0xff, 0xff,
  0x08, 0x00, 0x00, 0x00, 0x10, 0x00, 0x00, 0x00, 0x01, 0x00, 0x00, 0x00, 0xe6, 0xff, 0xff, 0xff, 0xff, 0xff, 0xff, 0xff,
  0x01, 0x00, 0x00, 0x00, 0xd8, 0xfb, 0x98, 0x3c, 0x1c, 0x00, 0x00, 0x00, 0x53, 0x74, 0x61, 0x74, 0x65, 0x66, 0x75, 0x6c,
  0x50, 0x61, 0x72, 0x74, 0x69, 0x74, 0x69, 0x6f, 0x6e, 0x65, 0x64, 0x43, 0x61, 0x6c, 0x6c, 0x5f, 0x31, 0x3a, 0x30, 0x31,
  0x00, 0x00, 0x00, 0x00, 0x03, 0x00, 0x00, 0x00, 0x01, 0x00, 0x00, 0x00, 0xfa, 0x00, 0x00, 0x00, 0x01, 0x00, 0x00, 0x00,
  0x8e, 0xc1, 0xff, 0xff, 0x00, 0x00, 0x00, 0x01, 0x14, 0x00, 0x00, 0x00, 0x14, 0x00, 0x00, 0x00, 0x59, 0x00, 0x00, 0x00,
  0x00, 0x00, 0x00, 0x02, 0x34, 0x00, 0x00, 0x00, 0x14, 0xc1, 0xff, 0xff, 0x26, 0x00, 0x00, 0x00, 0x66, 0x75, 0x6e, 0x63,
  0x74, 0x69, 0x6f, 0x6e, 0x61, 0x6c, 0x5f, 0x31, 0x2f, 0x72, 0x65, 0x73, 0x68, 0x61, 0x70, 0x65, 0x5f, 0x31, 0x5f, 0x32,
  0x2f, 0x52, 0x65, 0x73, 0x68, 0x61, 0x70, 0x65, 0x2f, 0x73, 0x68, 0x61, 0x70, 0x65, 0x00, 0x00, 0x01, 0x00, 0x00, 0x00,
  0x03, 0x00, 0x00, 0x00, 0xe2, 0xc1, 0xff, 0xff, 0x00, 0x00, 0x00, 0x01, 0x14, 0x00, 0x00, 0x00, 0x14, 0x00, 0x00, 0x00,
  0x58, 0x00, 0x00, 0x00, 0x00, 0x00, 0x00, 0x02, 0x34, 0x00, 0x00, 0x00, 0x68, 0xc1, 0xff, 0xff, 0x26, 0x00, 0x00, 0x00,
  0x66, 0x75, 0x6e, 0x63, 0x74, 0x69, 0x6f, 0x6e, 0x61, 0x6c, 0x5f, 0x31, 0x2f, 0x72, 0x65, 0x73, 0x68, 0x61, 0x70, 0x65,
  0x5f, 0x31, 0x5f, 0x32, 0x2f, 0x73, 0x74, 0x72, 0x69, 0x64, 0x65, 0x64, 0x5f, 0x73, 0x6c, 0x69, 0x63, 0x65, 0x00, 0x00,
  0x00, 0x00, 0x00, 0x00, 0x32, 0xc2, 0xff, 0xff, 0x00, 0x00, 0x00, 0x01, 0x14, 0x00, 0x00, 0x00, 0x14, 0x00, 0x00, 0x00,
  0x57, 0x00, 0x00, 0x00, 0x00, 0x00, 0x00, 0x02, 0x2c, 0x00, 0x00, 0x00, 0xb8, 0xc1, 0xff, 0xff, 0x1e, 0x00, 0x00, 0x00,
  0x66, 0x75, 0x6e, 0x63, 0x74, 0x69, 0x6f, 0x6e, 0x61, 0x6c, 0x5f, 0x31, 0x2f, 0x72, 0x65, 0x73, 0x68, 0x61, 0x70, 0x65,
  0x5f, 0x31, 0x5f, 0x32, 0x2f, 0x53, 0x68, 0x61, 0x70, 0x65, 0x00, 0x00, 0x01, 0x00, 0x00, 0x00, 0x04, 0x00, 0x00, 0x00,
  0x3a, 0xe3, 0xff, 0xff, 0x00, 0x00, 0x00, 0x01, 0x18, 0x00, 0x00, 0x00, 0x28, 0x00, 0x00, 0x00, 0x44, 0x00, 0x00, 0x00,
  0x56, 0x00, 0x00, 0x00, 0x00, 0x00, 0x00, 0x09, 0xa0, 0x00, 0x00, 0x00, 0x04, 0x00, 0x00, 0x00, 0xff, 0xff, 0xff, 0xff,
  0x01, 0x00, 0x00, 0x00, 0xfa, 0x00, 0x00, 0x00, 0x01, 0x00, 0x00, 0x00, 0x24, 0xc5, 0xff, 0xff, 0x08, 0x00, 0x00, 0x00,
  0x10, 0x00, 0x00, 0x00, 0x01, 0x00, 0x00, 0x00, 0xe6, 0xff, 0xff, 0xff, 0xff, 0xff, 0xff, 0xff, 0x01, 0x00, 0x00, 0x00,
  0xd8, 0xfb, 0x98, 0x3c, 0x62, 0x00, 0x00, 0x00, 0x66, 0x75, 0x6e, 0x63, 0x74, 0x69, 0x6f, 0x6e, 0x61, 0x6c, 0x5f, 0x31,
  0x2f, 0x4e, 0x45, 0x43, 0x4b, 0x2e, 0x63, 0x6f, 0x6e, 0x76, 0x5f, 0x31, 0x2f, 0x61, 0x64, 0x64, 0x3b, 0x66, 0x75, 0x6e,
  0x63, 0x74, 0x69, 0x6f, 0x6e, 0x61, 0x6c, 0x5f, 0x31, 0x2f, 0x4e, 0x45, 0x43, 0x4b, 0x2e, 0x63, 0x6f, 0x6e, 0x76, 0x5f,
  0x31, 0x2f, 0x63, 0x6f, 0x6e, 0x76, 0x6f, 0x6c, 0x75, 0x74, 0x69, 0x6f, 0x6e, 0x3b, 0x66, 0x75, 0x6e, 0x63, 0x74, 0x69,
  0x6f, 0x6e, 0x61, 0x6c, 0x5f, 0x31, 0x2f, 0x4e, 0x45, 0x43, 0x4b, 0x2e, 0x63, 0x6f, 0x6e, 0x76, 0x5f, 0x31, 0x2f, 0x52,
  0x65, 0x73, 0x68, 0x61, 0x70, 0x65, 0x00, 0x00, 0x04, 0x00, 0x00, 0x00, 0x01, 0x00, 0x00, 0x00, 0x01, 0x00, 0x00, 0x00,
  0xfa, 0x00, 0x00, 0x00, 0x01, 0x00, 0x00, 0x00, 0x0a, 0xe4, 0xff, 0xff, 0x00, 0x00, 0x00, 0x01, 0x18, 0x00, 0x00, 0x00,
  0x28, 0x00, 0x00, 0x00, 0x48, 0x00, 0x00, 0x00, 0x55, 0x00, 0x00, 0x00, 0x00, 0x00, 0x00, 0x09, 0xe8, 0x00, 0x00, 0x00,
  0x04, 0x00, 0x00, 0x00, 0xff, 0xff, 0xff, 0xff, 0x01, 0x00, 0x00, 0x00, 0xfa, 0x00, 0x00, 0x00, 0x18, 0x00, 0x00, 0x00,
  0xf4, 0xc5, 0xff, 0xff, 0x08, 0x00, 0x00, 0x00, 0x14, 0x00, 0x00, 0x00, 0x01, 0x00, 0x00, 0x00, 0x80, 0xff, 0xff, 0xff,
  0xff, 0xff, 0xff, 0xff, 0x00, 0x00, 0x00, 0x00, 0x01, 0x00, 0x00, 0x00, 0x4d, 0xfa, 0xbb, 0x3c, 0xa5, 0x00, 0x00, 0x00,
  0x66, 0x75, 0x6e, 0x63, 0x74, 0x69, 0x6f, 0x6e, 0x61, 0x6c, 0x5f, 0x31, 0x2f, 0x42, 0x34, 0x2e, 0x44, 0x31, 0x2e, 0x50,
  0x57, 0x2e, 0x41, 0x43, 0x54, 0x5f, 0x31, 0x2f, 0x52, 0x65, 0x6c, 0x75, 0x36, 0x3b, 0x66, 0x75, 0x6e, 0x63, 0x74, 0x69,
  0x6f, 0x6e, 0x61, 0x6c, 0x5f, 0x31, 0x2f, 0x42, 0x34, 0x2e, 0x44, 0x31, 0x2e, 0x50, 0x57, 0x2e, 0x42, 0x31, 0x2e, 0x42,
  0x4e, 0x5f, 0x31, 0x2f, 0x62, 0x61, 0x74, 0x63, 0x68, 0x6e, 0x6f, 0x72, 0x6d, 0x2f, 0x61, 0x64, 0x64, 0x5f, 0x31, 0x3b,
  0x66, 0x75, 0x6e, 0x63, 0x74, 0x69, 0x6f, 0x6e, 0x61, 0x6c, 0x5f, 0x31, 0x2f, 0x42, 0x34, 0x2e, 0x44, 0x31, 0x2e, 0x50,
  0x57, 0x2e, 0x42, 0x31, 0x2e, 0x43, 0x4e, 0x5f, 0x31, 0x2f, 0x63, 0x6f, 0x6e, 0x76, 0x6f, 0x6c, 0x75, 0x74, 0x69, 0x6f,
  0x6e, 0x3b, 0x66, 0x75, 0x6e, 0x63, 0x74, 0x69, 0x6f, 0x6e, 0x61, 0x6c, 0x5f, 0x31, 0x2f, 0x42, 0x34, 0x2e, 0x44, 0x31,
  0x2e, 0x50, 0x57, 0x2e, 0x42, 0x31, 0x2e, 0x42, 0x4e, 0x5f, 0x31, 0x2f, 0x62, 0x61, 0x74, 0x63, 0x68, 0x6e, 0x6f, 0x72,
  0x6d, 0x2f, 0x73, 0x75, 0x62, 0x00, 0x00, 0x00, 0x04, 0x00, 0x00, 0x00, 0x01, 0x00, 0x00, 0x00, 0x01, 0x00, 0x00, 0x00,
  0xfa, 0x00, 0x00, 0x00, 0x18, 0x00, 0x00, 0x00, 0x22, 0xe5, 0xff, 0xff, 0x00, 0x00, 0x00, 0x01, 0x18, 0x00, 0x00, 0x00,
  0x28, 0x00, 0x00, 0x00, 0x44, 0x00, 0x00, 0x00, 0x54, 0x00, 0x00, 0x00, 0x00, 0x00, 0x00, 0x09, 0x60, 0x00, 0x00, 0x00,
  0x04, 0x00, 0x00, 0x00, 0xff, 0xff, 0xff, 0xff, 0x01, 0x00, 0x00, 0x00, 0xfa, 0x00, 0x00, 0x00, 0x14, 0x00, 0x00, 0x00,
  0x0c, 0xc7, 0xff, 0xff, 0x08, 0x00, 0x00, 0x00, 0x10, 0x00, 0x00, 0x00, 0x01, 0x00, 0x00, 0x00, 0x80, 0xff, 0xff, 0xff,
  0xff, 0xff, 0xff, 0xff, 0x01, 0x00, 0x00, 0x00, 0xc1, 0xc0, 0xc0, 0x3c, 0x22, 0x00, 0x00, 0x00, 0x66, 0x75, 0x6e, 0x63,
  0x74, 0x69, 0x6f, 0x6e, 0x61, 0x6c, 0x5f, 0x31, 0x2f, 0x42, 0x34, 0x2e, 0x44, 0x31, 0x2e, 0x53, 0x45, 0x2e, 0x65, 0x78,
  0x2e, 0x6d, 0x75, 0x6c, 0x5f, 0x31, 0x2f, 0x4d, 0x75, 0x6c, 0x00, 0x00, 0x04, 0x00, 0x00, 0x00, 0x01, 0x00, 0x00, 0x00,
  0x01, 0x00, 0x00, 0x00, 0xfa, 0x00, 0x00, 0x00, 0x14, 0x00, 0x00, 0x00, 0xb2, 0xe5, 0xff, 0xff, 0x00, 0x00, 0x00, 0x01,
  0x18, 0x00, 0x00, 0x00, 0x28, 0x00, 0x00, 0x00, 0x48, 0x00, 0x00, 0x00, 0x53, 0x00, 0x00, 0x00, 0x00, 0x00, 0x00, 0x09,
  0x68, 0x00, 0x00, 0x00, 0x04, 0x00, 0x00, 0x00, 0xff, 0xff, 0xff, 0xff, 0x01, 0x00, 0x00, 0x00, 0x01, 0x00, 0x00, 0x00,
  0x14, 0x00, 0x00, 0x00, 0x9c, 0xc7, 0xff, 0xff, 0x08, 0x00, 0x00, 0x00, 0x14, 0x00, 0x00, 0x00, 0x01, 0x00, 0x00, 0x00,
  0x80, 0xff, 0xff, 0xff, 0xff, 0xff, 0xff, 0xff, 0x00, 0x00, 0x00, 0x00, 0x01, 0x00, 0x00, 0x00, 0x81, 0x80, 0x80, 0x3b,
  0x26, 0x00, 0x00, 0x00, 0x66, 0x75, 0x6e, 0x63, 0x74, 0x69, 0x6f, 0x6e, 0x61, 0x6c, 0x5f, 0x31, 0x2f, 0x42, 0x34, 0x2e,
  0x44, 0x31, 0x2e, 0x53, 0x45, 0x2e, 0x65, 0x78, 0x2e, 0x61, 0x63, 0x74, 0x5f, 0x31, 0x2f, 0x74, 0x72, 0x75, 0x65, 0x64,
  0x69, 0x76, 0x00, 0x00, 0x04, 0x00, 0x00, 0x00, 0x01, 0x00, 0x00, 0x00, 0x01, 0x00, 0x00, 0x00, 0x01, 0x00, 0x00, 0x00,
  0x14, 0x00, 0x00, 0x00, 0x4a, 0xe6, 0xff, 0xff, 0x00, 0x00, 0x00, 0x01, 0x18, 0x00, 0x00, 0x00, 0x28, 0x00, 0x00, 0x00,
  0x44, 0x00, 0x00, 0x00, 0x52, 0x00, 0x00, 0x00, 0x00, 0x00, 0x00, 0x09, 0xf0, 0x00, 0x00, 0x00, 0x04, 0x00, 0x00, 0x00,
  0xff, 0xff, 0xff, 0xff, 0x01, 0x00, 0x00, 0x00, 0x01, 0x00, 0x00, 0x00, 0x14, 0x00, 0x00, 0x00, 0x34, 0xc8, 0xff, 0xff,
  0x08, 0x00, 0x00, 0x00, 0x10, 0x00, 0x00, 0x00, 0x01, 0x00, 0x00, 0x00, 0x80, 0xff, 0xff, 0xff, 0xff, 0xff, 0xff, 0xff,
  0x01, 0x00, 0x00, 0x00, 0xc1, 0xc0, 0xc0, 0x3c, 0xb1, 0x00, 0x00, 0x00, 0x66, 0x75, 0x6e, 0x63, 0x74, 0x69, 0x6f, 0x6e,
  0x61, 0x6c, 0x5f, 0x31, 0x2f, 0x42, 0x34, 0x2e, 0x44, 0x31, 0x2e, 0x53, 0x45, 0x2e, 0x65, 0x78, 0x2e, 0x61, 0x63, 0x74,
  0x5f, 0x31, 0x2f, 0x52, 0x65, 0x6c, 0x75, 0x36, 0x3b, 0x66, 0x75, 0x6e, 0x63, 0x74, 0x69, 0x6f, 0x6e, 0x61, 0x6c, 0x5f,
  0x31, 0x2f, 0x42, 0x34, 0x2e, 0x44, 0x31, 0x2e, 0x53, 0x45, 0x2e, 0x65, 0x78, 0x2e, 0x61, 0x63, 0x74, 0x5f, 0x31, 0x2f,
  0x61, 0x64, 0x64, 0x3b, 0x66, 0x75, 0x6e, 0x63, 0x74, 0x69, 0x6f, 0x6e, 0x61, 0x6c, 0x5f, 0x31, 0x2f, 0x42, 0x34, 0x2e,
  0x44, 0x31, 0x2e, 0x53, 0x45, 0x2e, 0x65, 0x78, 0x5f, 0x31, 0x2f, 0x61, 0x64, 0x64, 0x3b, 0x66, 0x75, 0x6e, 0x63, 0x74,
  0x69, 0x6f, 0x6e, 0x61, 0x6c, 0x5f, 0x31, 0x2f, 0x42, 0x34, 0x2e, 0x44, 0x31, 0x2e, 0x53, 0x45, 0x2e, 0x65, 0x78, 0x5f,
  0x31, 0x2f, 0x63, 0x6f, 0x6e, 0x76, 0x6f, 0x6c, 0x75, 0x74, 0x69, 0x6f, 0x6e, 0x3b, 0x66, 0x75, 0x6e, 0x63, 0x74, 0x69,
  0x6f, 0x6e, 0x61, 0x6c, 0x5f, 0x31, 0x2f, 0x42, 0x34, 0x2e, 0x44, 0x31, 0x2e, 0x53, 0x45, 0x2e, 0x65, 0x78, 0x5f, 0x31,
  0x2f, 0x52, 0x65, 0x73, 0x68, 0x61, 0x70, 0x65, 0x3b, 0x00, 0x00, 0x00, 0x04, 0x00, 0x00, 0x00, 0x01, 0x00, 0x00, 0x00,
  0x01, 0x00, 0x00, 0x00, 0x01, 0x00, 0x00, 0x00, 0x14, 0x00, 0x00, 0x00, 0x6a, 0xe7, 0xff, 0xff, 0x00, 0x00, 0x00, 0x01,
  0x18, 0x00, 0x00, 0x00, 0x28, 0x00, 0x00, 0x00, 0x48, 0x00, 0x00, 0x00, 0x51, 0x00, 0x00, 0x00, 0x00, 0x00, 0x00, 0x09,
  0xd0, 0x00, 0x00, 0x00, 0x04, 0x00, 0x00, 0x00, 0xff, 0xff, 0xff, 0xff, 0x01, 0x00, 0x00, 0x00, 0x01, 0x00, 0x00, 0x00,
  0x0a, 0x00, 0x00, 0x00, 0x54, 0xc9, 0xff, 0xff, 0x08, 0x00, 0x00, 0x00, 0x14, 0x00, 0x00, 0x00, 0x01, 0x00, 0x00, 0x00,
  0x80, 0xff, 0xff, 0xff, 0xff, 0xff, 0xff, 0xff, 0x00, 0x00, 0x00, 0x00, 0x01, 0x00, 0x00, 0x00, 0x54, 0x57, 0x3f, 0x3c,
  0x8d, 0x00, 0x00, 0x00, 0x66, 0x75, 0x6e, 0x63, 0x74, 0x69, 0x6f, 0x6e, 0x61, 0x6c, 0x5f, 0x31, 0x2f, 0x42, 0x34, 0x2e,
  0x44, 0x31, 0x2e, 0x53, 0x45, 0x2e, 0x73, 0x71, 0x2e, 0x61, 0x63, 0x74, 0x5f, 0x31, 0x2f, 0x52, 0x65, 0x6c, 0x75, 0x36,
  0x3b, 0x66, 0x75, 0x6e, 0x63, 0x74, 0x69, 0x6f, 0x6e, 0x61, 0x6c, 0x5f, 0x31, 0x2f, 0x42, 0x34, 0x2e, 0x44, 0x31, 0x2e,
  0x53, 0x45, 0x2e, 0x73, 0x71, 0x5f, 0x31, 0x2f, 0x61, 0x64, 0x64, 0x3b, 0x66, 0x75, 0x6e, 0x63, 0x74, 0x69, 0x6f, 0x6e,
  0x61, 0x6c, 0x5f, 0x31, 0x2f, 0x42, 0x34, 0x2e, 0x44, 0x31, 0x2e, 0x53, 0x45, 0x2e, 0x73, 0x71, 0x5f, 0x31, 0x2f, 0x63,
  0x6f, 0x6e, 0x76, 0x6f, 0x6c, 0x75, 0x74, 0x69, 0x6f, 0x6e, 0x3b, 0x66, 0x75, 0x6e, 0x63, 0x74, 0x69, 0x6f, 0x6e, 0x61,
  0x6c, 0x5f, 0x31, 0x2f, 0x42, 0x34, 0x2e, 0x44, 0x31, 0x2e, 0x53, 0x45, 0x2e, 0x73, 0x71, 0x5f, 0x31, 0x2f, 0x52, 0x65,
  0x73, 0x68, 0x61, 0x70, 0x65, 0x00, 0x00, 0x00, 0x04, 0x00, 0x00, 0x00, 0x01, 0x00, 0x00, 0x00, 0x01, 0x00, 0x00, 0x00,
  0x01, 0x00, 0x00, 0x00, 0x0a, 0x00, 0x00, 0x00, 0x6a, 0xe8, 0xff, 0xff, 0x00, 0x00, 0x00, 0x01, 0x18, 0x00, 0x00, 0x00,
  0x28, 0x00, 0x00, 0x00, 0x44, 0x00, 0x00, 0x00, 0x50, 0x00, 0x00, 0x00, 0x00, 0x00, 0x00, 0x09, 0x60, 0x00, 0x00, 0x00,
  0x04, 0x00, 0x00, 0x00, 0xff, 0xff, 0xff, 0xff, 0x01, 0x00, 0x00, 0x00, 0x01, 0x00, 0x00, 0x00, 0x14, 0x00, 0x00, 0x00,
  0x54, 0xca, 0xff, 0xff, 0x08, 0x00, 0x00, 0x00, 0x10, 0x00, 0x00, 0x00, 0x01, 0x00, 0x00, 0x00, 0x80, 0xff, 0xff, 0xff,
  0xff, 0xff, 0xff, 0xff, 0x01, 0x00, 0x00, 0x00, 0xfb, 0xb6, 0xb1, 0x3b, 0x21, 0x00, 0x00, 0x00, 0x66, 0x75, 0x6e, 0x63,
  0x74, 0x69, 0x6f, 0x6e, 0x61, 0x6c, 0x5f, 0x31, 0x2f, 0x42, 0x34, 0x2e, 0x44, 0x31, 0x2e, 0x53, 0x45, 0x2e, 0x70, 0x6f,
  0x6f, 0x6c, 0x5f, 0x31, 0x2f, 0x4d, 0x65, 0x61, 0x6e, 0x00, 0x00, 0x00, 0x04, 0x00, 0x00, 0x00, 0x01, 0x00, 0x00, 0x00,
  0x01, 0x00, 0x00, 0x00, 0x01, 0x00, 0x00, 0x00, 0x14, 0x00, 0x00, 0x00, 0xfa, 0xe8, 0xff, 0xff, 0x00, 0x00, 0x00, 0x01,
  0x18, 0x00, 0x00, 0x00, 0x28, 0x00, 0x00, 0x00, 0x48, 0x00, 0x00, 0x00, 0x4f, 0x00, 0x00, 0x00, 0x00, 0x00, 0x00, 0x09,
  0x90, 0x00, 0x00, 0x00, 0x04, 0x00, 0x00, 0x00, 0xff, 0xff, 0xff, 0xff, 0x01, 0x00, 0x00, 0x00, 0xfa, 0x00, 0x00, 0x00,
  0x14, 0x00, 0x00, 0x00, 0xe4, 0xca, 0xff, 0xff, 0x08, 0x00, 0x00, 0x00, 0x14, 0x00, 0x00, 0x00, 0x01, 0x00, 0x00, 0x00,
  0x80, 0xff, 0xff, 0xff, 0xff, 0xff, 0xff, 0xff, 0x00, 0x00, 0x00, 0x00, 0x01, 0x00, 0x00, 0x00, 0xc1, 0xc0, 0xc0, 0x3c,
  0x4f, 0x00, 0x00, 0x00, 0x66, 0x75, 0x6e, 0x63, 0x74, 0x69, 0x6f, 0x6e, 0x61, 0x6c, 0x5f, 0x31, 0x2f, 0x42, 0x34, 0x2e,
  0x44, 0x31, 0x2e, 0x44, 0x57, 0x2e, 0x41, 0x43, 0x54, 0x5f, 0x31, 0x2f, 0x52, 0x65, 0x6c, 0x75, 0x36, 0x3b, 0x66, 0x75,
  0x6e, 0x63, 0x74, 0x69, 0x6f, 0x6e, 0x61, 0x6c, 0x5f, 0x31, 0x2f, 0x42, 0x34, 0x2e, 0x44, 0x31, 0x2e, 0x44, 0x57, 0x2e,
  0x42, 0x31, 0x2e, 0x42, 0x4e, 0x5f, 0x31, 0x2f, 0x62, 0x61, 0x74, 0x63, 0x68, 0x6e, 0x6f, 0x72, 0x6d, 0x2f, 0x61, 0x64,
  0x64, 0x5f, 0x31, 0x00, 0x04, 0x00, 0x00, 0x00, 0x01, 0x00, 0x00, 0x00, 0x01, 0x00, 0x00, 0x00, 0xfa, 0x00, 0x00, 0x00,
  0x14, 0x00, 0x00, 0x00, 0xba, 0xe9, 0xff, 0xff, 0x00, 0x00, 0x00, 0x01, 0x18, 0x00, 0x00, 0x00, 0x28, 0x00, 0x00, 0x00,
  0x48, 0x00, 0x00, 0x00, 0x4e, 0x00, 0x00, 0x00, 0x00, 0x00, 0x00, 0x09, 0x70, 0x00, 0x00, 0x00, 0x04, 0x00, 0x00, 0x00,
  0xff, 0xff, 0xff, 0xff, 0x01, 0x00, 0x00, 0x00, 0xfa, 0x00, 0x00, 0x00, 0x14, 0x00, 0x00, 0x00, 0xa4, 0xcb, 0xff, 0xff,
  0x08, 0x00, 0x00, 0x00, 0x14, 0x00, 0x00, 0x00, 0x01, 0x00, 0x00, 0x00, 0xee, 0xff, 0xff, 0xff, 0xff, 0xff, 0xff, 0xff,
  0x00, 0x00, 0x00, 0x00, 0x01, 0x00, 0x00, 0x00, 0xad, 0x40, 0x69, 0x3d, 0x2d, 0x00, 0x00, 0x00, 0x66, 0x75, 0x6e, 0x63,
  0x74, 0x69, 0x6f, 0x6e, 0x61, 0x6c, 0x5f, 0x31, 0x2f, 0x42, 0x34, 0x2e, 0x44, 0x31, 0x2e, 0x44, 0x57, 0x2e, 0x42, 0x31,
  0x2e, 0x42, 0x4e, 0x5f, 0x31, 0x2f, 0x62, 0x61, 0x74, 0x63, 0x68, 0x6e, 0x6f, 0x72, 0x6d, 0x2f, 0x6d, 0x75, 0x6c, 0x5f,
  0x31, 0x00, 0x00, 0x00, 0x04, 0x00, 0x00, 0x00, 0x01, 0x00, 0x00, 0x00, 0x01, 0x00, 0x00, 0x00, 0xfa, 0x00, 0x00, 0x00,
  0x14, 0x00, 0x00, 0x00, 0x5a, 0xea, 0xff, 0xff, 0x00, 0x00, 0x00, 0x01, 0x18, 0x00, 0x00, 0x00, 0x28, 0x00, 0x00, 0x00,
  0x48, 0x00, 0x00, 0x00, 0x4d, 0x00, 0x00, 0x00, 0x00, 0x00, 0x00, 0x09, 0x78, 0x00, 0x00, 0x00, 0x04, 0x00, 0x00, 0x00,
  0xff, 0xff, 0xff, 0xff, 0x01, 0x00, 0x00, 0x00, 0xfa, 0x00, 0x00, 0x00, 0x14, 0x00, 0x00, 0x00, 0x44, 0xcc, 0xff, 0xff,
  0x08, 0x00, 0x00, 0x00, 0x14, 0x00, 0x00, 0x00, 0x01, 0x00, 0x00, 0x00, 0xdb, 0xff, 0xff, 0xff, 0xff, 0xff, 0xff, 0xff,
  0x00, 0x00, 0x00, 0x00, 0x01, 0x00, 0x00, 0x00, 0x3c, 0x99, 0xe9, 0x3b, 0x36, 0x00, 0x00, 0x00, 0x66, 0x75, 0x6e, 0x63,
  0x74, 0x69, 0x6f, 0x6e, 0x61, 0x6c, 0x5f, 0x31, 0x2f, 0x42, 0x34, 0x2e, 0x44, 0x31, 0x2e, 0x44, 0x57, 0x2e, 0x42, 0x31,
  0x2e, 0x43, 0x4e, 0x5f, 0x31, 0x2f, 0x64, 0x65, 0x70, 0x74, 0x68, 0x77, 0x69, 0x73, 0x65, 0x2f, 0x42, 0x61, 0x74, 0x63,
  0x68, 0x54, 0x6f, 0x53, 0x70, 0x61, 0x63, 0x65, 0x4e, 0x44, 0x00, 0x00, 0x04, 0x00, 0x00, 0x00, 0x01, 0x00, 0x00, 0x00,
  0x01, 0x00, 0x00, 0x00, 0xfa, 0x00, 0x00, 0x00, 0x14, 0x00, 0x00, 0x00, 0x02, 0xeb, 0xff, 0xff, 0x00, 0x00, 0x00, 0x01,
  0x18, 0x00, 0x00, 0x00, 0x28, 0x00, 0x00, 0x00, 0x48, 0x00, 0x00, 0x00, 0x4c, 0x00, 0x00, 0x00, 0x00, 0x00, 0x00, 0x09,
  0x68, 0x00, 0x00, 0x00, 0x04, 0x00, 0x00, 0x00, 0xff, 0xff, 0xff, 0xff, 0x01, 0x00, 0x00, 0x00, 0x3f, 0x00, 0x00, 0x00,
  0x14, 0x00, 0x00, 0x00, 0xec, 0xcc, 0xff, 0xff, 0x08, 0x00, 0x00, 0x00, 0x14, 0x00, 0x00, 0x00, 0x01, 0x00, 0x00, 0x00,
  0xdb, 0xff, 0xff, 0xff, 0xff, 0xff, 0xff, 0xff, 0x00, 0x00, 0x00, 0x00, 0x01, 0x00, 0x00, 0x00, 0x3c, 0x99, 0xe9, 0x3b,
  0x27, 0x00, 0x00, 0x00, 0x66, 0x75, 0x6e, 0x63, 0x74, 0x69, 0x6f, 0x6e, 0x61, 0x6c, 0x5f, 0x31, 0x2f, 0x42, 0x34, 0x2e,
  0x44, 0x31, 0x2e, 0x44, 0x57, 0x2e, 0x42, 0x31, 0x2e, 0x43, 0x4e, 0x5f, 0x31, 0x2f, 0x64, 0x65, 0x70, 0x74, 0x68, 0x77,
  0x69, 0x73, 0x65, 0x00, 0x04, 0x00, 0x00, 0x00, 0x01, 0x00, 0x00, 0x00, 0x01, 0x00, 0x00, 0x00, 0x3f, 0x00, 0x00, 0x00,
  0x14, 0x00, 0x00, 0x00, 0x9a, 0xeb, 0xff, 0xff, 0x00, 0x00, 0x00, 0x01, 0x18, 0x00, 0x00, 0x00, 0x28, 0x00, 0x00, 0x00,
  0x48, 0x00, 0x00, 0x00, 0x4b, 0x00, 0x00, 0x00, 0x00, 0x00, 0x00, 0x09, 0x78, 0x00, 0x00, 0x00, 0x04, 0x00, 0x00, 0x00,
  0xff, 0xff, 0xff, 0xff, 0x01, 0x00, 0x00, 0x00, 0x43, 0x00, 0x00, 0x00, 0x14, 0x00, 0x00, 0x00, 0x84, 0xcd, 0xff, 0xff,
  0x08, 0x00, 0x00, 0x00, 0x14, 0x00, 0x00, 0x00, 0x01, 0x00, 0x00, 0x00, 0x80, 0xff, 0xff, 0xff, 0xff, 0xff, 0xff, 0xff,
  0x00, 0x00, 0x00, 0x00, 0x01, 0x00, 0x00, 0x00, 0x87, 0x84, 0xb0, 0x3c, 0x36, 0x00, 0x00, 0x00, 0x66, 0x75, 0x6e, 0x63,
  0x74, 0x69, 0x6f, 0x6e, 0x61, 0x6c, 0x5f, 0x31, 0x2f, 0x42, 0x34, 0x2e, 0x44, 0x31, 0x2e, 0x44, 0x57, 0x2e, 0x42, 0x31,
  0x2e, 0x43, 0x4e, 0x5f, 0x31, 0x2f, 0x64, 0x65, 0x70, 0x74, 0x68, 0x77, 0x69, 0x73, 0x65, 0x2f, 0x53, 0x70, 0x61, 0x63,
  0x65, 0x54, 0x6f, 0x42, 0x61, 0x74, 0x63, 0x68, 0x4e, 0x44, 0x00, 0x00, 0x04, 0x00, 0x00, 0x00, 0x01, 0x00, 0x00, 0x00,
  0x01, 0x00, 0x00, 0x00, 0x43, 0x00, 0x00, 0x00, 0x14, 0x00, 0x00, 0x00, 0x42, 0xec, 0xff, 0xff, 0x00, 0x00, 0x00, 0x01,
  0x18, 0x00, 0x00, 0x00, 0x28, 0x00, 0x00, 0x00, 0x48, 0x00, 0x00, 0x00, 0x4a, 0x00, 0x00, 0x00, 0x00, 0x00, 0x00, 0x09,
  0xe8, 0x00, 0x00, 0x00, 0x04, 0x00, 0x00, 0x00, 0xff, 0xff, 0xff, 0xff, 0x01, 0x00, 0x00, 0x00, 0xfa, 0x00, 0x00, 0x00,
  0x14, 0x00, 0x00, 0x00, 0x2c, 0xce, 0xff, 0xff, 0x08, 0x00, 0x00, 0x00, 0x14, 0x00, 0x00, 0x00, 0x01, 0x00, 0x00, 0x00,
  0x80, 0xff, 0xff, 0xff, 0xff, 0xff, 0xff, 0xff, 0x00, 0x00, 0x00, 0x00, 0x01, 0x00, 0x00, 0x00, 0x87, 0x84, 0xb0, 0x3c,
  0xa5, 0x00, 0x00, 0x00, 0x66, 0x75, 0x6e, 0x63, 0x74, 0x69, 0x6f, 0x6e, 0x61, 0x6c, 0x5f, 0x31, 0x2f, 0x42, 0x33, 0x2e,
  0x44, 0x31, 0x2e, 0x50, 0x57, 0x2e, 0x41, 0x43, 0x54, 0x5f, 0x31, 0x2f, 0x52, 0x65, 0x6c, 0x75, 0x36, 0x3b, 0x66, 0x75,
  0x6e, 0x63, 0x74, 0x69, 0x6f, 0x6e, 0x61, 0x6c, 0x5f, 0x31, 0x2f, 0x42, 0x33, 0x2e, 0x44, 0x31, 0x2e, 0x50, 0x57, 0x2e,
  0x42, 0x31, 0x2e, 0x42, 0x4e, 0x5f, 0x31, 0x2f, 0x62, 0x61, 0x74, 0x63, 0x68, 0x6e, 0x6f, 0x72, 0x6d, 0x2f, 0x61, 0x64,
  0x64, 0x5f, 0x31, 0x3b, 0x66, 0x75, 0x6e, 0x63, 0x74, 0x69, 0x6f, 0x6e, 0x61, 0x6c, 0x5f, 0x31, 0x2f, 0x42, 0x33, 0x2e,
  0x44, 0x31, 0x2e, 0x50, 0x57, 0x2e, 0x42, 0x31, 0x2e, 0x43, 0x4e, 0x5f, 0x31, 0x2f, 0x63, 0x6f, 0x6e, 0x76, 0x6f, 0x6c,
  0x75, 0x74, 0x69, 0x6f, 0x6e, 0x3b, 0x66, 0x75, 0x6e, 0x63, 0x74, 0x69, 0x6f, 0x6e, 0x61, 0x6c, 0x5f, 0x31, 0x2f, 0x42,
  0x33, 0x2e, 0x44, 0x31, 0x2e, 0x50, 0x57, 0x2e, 0x42, 0x31, 0x2e, 0x42, 0x4e, 0x5f, 0x31, 0x2f, 0x62, 0x61, 0x74, 0x63,
  0x68, 0x6e, 0x6f, 0x72, 0x6d, 0x2f, 0x73, 0x75, 0x62, 0x00, 0x00, 0x00, 0x04, 0x00, 0x00, 0x00, 0x01, 0x00, 0x00, 0x00,
  0x01, 0x00, 0x00, 0x00, 0xfa, 0x00, 0x00, 0x00, 0x14, 0x00, 0x00, 0x00, 0x5a, 0xed, 0xff, 0xff, 0x00, 0x00, 0x00, 0x01,
  0x18, 0x00, 0x00, 0x00, 0x28, 0x00, 0x00, 0x00, 0x44, 0x00, 0x00, 0x00, 0x49, 0x00, 0x00, 0x00, 0x00, 0x00, 0x00, 0x09,
  0x60, 0x00, 0x00, 0x00, 0x04, 0x00, 0x00, 0x00, 0xff, 0xff, 0xff, 0xff, 0x01, 0x00, 0x00, 0x00, 0xfa, 0x00, 0x00, 0x00,
  0x10, 0x00, 0x00, 0x00, 0x44, 0xcf, 0xff, 0xff, 0x08, 0x00, 0x00, 0x00, 0x10, 0x00, 0x00, 0x00, 0x01, 0x00, 0x00, 0x00,
  0x80, 0xff, 0xff, 0xff, 0xff, 0xff, 0xff, 0xff, 0x01, 0x00, 0x00, 0x00, 0x13, 0x2e, 0x70, 0x3c, 0x22, 0x00, 0x00, 0x00,
  0x66, 0x75, 0x6e, 0x63, 0x74, 0x69, 0x6f, 0x6e, 0x61, 0x6c, 0x5f, 0x31, 0x2f, 0x42, 0x33, 0x2e, 0x44, 0x31, 0x2e, 0x53,
  0x45, 0x2e, 0x65, 0x78, 0x2e, 0x6d, 0x75, 0x6c, 0x5f, 0x31, 0x2f, 0x4d, 0x75, 0x6c, 0x00, 0x00, 0x04, 0x00, 0x00, 0x00,
  0x01, 0x00, 0x00, 0x00, 0x01, 0x00, 0x00, 0x00, 0xfa, 0x00, 0x00, 0x00, 0x10, 0x00, 0x00, 0x00, 0xea, 0xed, 0xff, 0xff,
  0x00, 0x00, 0x00, 0x01, 0x18, 0x00, 0x00, 0x00, 0x28, 0x00, 0x00, 0x00, 0x48, 0x00, 0x00, 0x00, 0x48, 0x00, 0x00, 0x00,
  0x00, 0x00, 0x00, 0x09, 0x68, 0x00, 0x00, 0x00, 0x04, 0x00, 0x00, 0x00, 0xff, 0xff, 0xff, 0xff, 0x01, 0x00, 0x00, 0x00,
  0x01, 0x00, 0x00, 0x00, 0x10, 0x00, 0x00, 0x00, 0xd4, 0xcf, 0xff, 0xff, 0x08, 0x00, 0x00, 0x00, 0x14, 0x00, 0x00, 0x00,
  0x01, 0x00, 0x00, 0x00, 0x80, 0xff, 0xff, 0xff, 0xff, 0xff, 0xff, 0xff, 0x00, 0x00, 0x00, 0x00, 0x01, 0x00, 0x00, 0x00,
  0x2c, 0x8c, 0x2b, 0x3b, 0x26, 0x00, 0x00, 0x00, 0x66, 0x75, 0x6e, 0x63, 0x74, 0x69, 0x6f, 0x6e, 0x61, 0x6c, 0x5f, 0x31,
  0x2f, 0x42, 0x33, 0x2e, 0x44, 0x31, 0x2e, 0x53, 0x45, 0x2e, 0x65, 0x78, 0x2e, 0x61, 0x63, 0x74, 0x5f, 0x31, 0x2f, 0x74,
  0x72, 0x75, 0x65, 0x64, 0x69, 0x76, 0x00, 0x00, 0x04, 0x00, 0x00, 0x00, 0x01, 0x00, 0x00, 0x00, 0x01, 0x00, 0x00, 0x00,
  0x01, 0x00, 0x00, 0x00, 0x10, 0x00, 0x00, 0x00, 0x82, 0xee, 0xff, 0xff, 0x00, 0x00, 0x00, 0x01, 0x18, 0x00, 0x00, 0x00,
  0x28, 0x00, 0x00, 0x00, 0x44, 0x00, 0x00, 0x00, 0x47, 0x00, 0x00, 0x00, 0x00, 0x00, 0x00, 0x09, 0xf0, 0x00, 0x00, 0x00,
  0x04, 0x00, 0x00, 0x00, 0xff, 0xff, 0xff, 0xff, 0x01, 0x00, 0x00, 0x00, 0x01, 0x00, 0x00, 0x00, 0x10, 0x00, 0x00, 0x00,
  0x6c, 0xd0, 0xff, 0xff, 0x08, 0x00, 0x00, 0x00, 0x10, 0x00, 0x00, 0x00, 0x01, 0x00, 0x00, 0x00, 0x80, 0xff, 0xff, 0xff,
  0xff, 0xff, 0xff, 0xff, 0x01, 0x00, 0x00, 0x00, 0x21, 0xa9, 0x80, 0x3c, 0xb1, 0x00, 0x00, 0x00, 0x66, 0x75, 0x6e, 0x63,
  0x74, 0x69, 0x6f, 0x6e, 0x61, 0x6c, 0x5f, 0x31, 0x2f, 0x42, 0x33, 0x2e, 0x44, 0x31, 0x2e, 0x53, 0x45, 0x2e, 0x65, 0x78,
  0x2e, 0x61, 0x63, 0x74, 0x5f, 0x31, 0x2f, 0x52, 0x65, 0x6c, 0x75, 0x36, 0x3b, 0x66, 0x75, 0x6e, 0x63, 0x74, 0x69, 0x6f,
  0x6e, 0x61, 0x6c, 0x5f, 0x31, 0x2f, 0x42, 0x33, 0x2e, 0x44, 0x31, 0x2e, 0x53, 0x45, 0x2e, 0x65, 0x78, 0x2e, 0x61, 0x63,
  0x74, 0x5f, 0x31, 0x2f, 0x61, 0x64, 0x64, 0x3b, 0x66, 0x75, 0x6e, 0x63, 0x74, 0x69, 0x6f, 0x6e, 0x61, 0x6c, 0x5f, 0x31,
  0x2f, 0x42, 0x33, 0x2e, 0x44, 0x31, 0x2e, 0x53, 0x45, 0x2e, 0x65, 0x78, 0x5f, 0x31, 0x2f, 0x61, 0x64, 0x64, 0x3b, 0x66,
  0x75, 0x6e, 0x63, 0x74, 0x69, 0x6f, 0x6e, 0x61, 0x6c, 0x5f, 0x31, 0x2f, 0x42, 0x33, 0x2e, 0x44, 0x31, 0x2e, 0x53, 0x45,
  0x2e, 0x65, 0x78, 0x5f, 0x31, 0x2f, 0x63, 0x6f, 0x6e, 0x76, 0x6f, 0x6c, 0x75, 0x74, 0x69, 0x6f, 0x6e, 0x3b, 0x66, 0x75,
  0x6e, 0x63, 0x74, 0x69, 0x6f, 0x6e, 0x61, 0x6c, 0x5f, 0x31, 0x2f, 0x42, 0x33, 0x2e, 0x44, 0x31, 0x2e, 0x53, 0x45, 0x2e,
  0x65, 0x78, 0x5f, 0x31, 0x2f, 0x52, 0x65, 0x73, 0x68, 0x61, 0x70, 0x65, 0x3b, 0x00, 0x00, 0x00, 0x04, 0x00, 0x00, 0x00,
  0x01, 0x00, 0x00, 0x00, 0x01, 0x00, 0x00, 0x00, 0x01, 0x00, 0x00, 0x00, 0x10, 0x00, 0x00, 0x00, 0xa2, 0xef, 0xff, 0xff,
  0x00, 0x00, 0x00, 0x01, 0x18, 0x00, 0x00, 0x00, 0x28, 0x00, 0x00, 0x00, 0x48, 0x00, 0x00, 0x00, 0x46, 0x00, 0x00, 0x00,
  0x00, 0x00, 0x00, 0x09, 0xd0, 0x00, 0x00, 0x00, 0x04, 0x00, 0x00, 0x00, 0xff, 0xff, 0xff, 0xff, 0x01, 0x00, 0x00, 0x00,
  0x01, 0x00, 0x00, 0x00, 0x08, 0x00, 0x00, 0x00, 0x8c, 0xd1, 0xff, 0xff, 0x08, 0x00, 0x00, 0x00, 0x14, 0x00, 0x00, 0x00,
  0x01, 0x00, 0x00, 0x00, 0x80, 0xff, 0xff, 0xff, 0xff, 0xff, 0xff, 0xff, 0x00, 0x00, 0x00, 0x00, 0x01, 0x00, 0x00, 0x00,
  0x24, 0x2f, 0xca, 0x3b, 0x8d, 0x00, 0x00, 0x00, 0x66, 0x75, 0x6e, 0x63, 0x74, 0x69, 0x6f, 0x6e, 0x61, 0x6c, 0x5f, 0x31,
  0x2f, 0x42, 0x33, 0x2e, 0x44, 0x31, 0x2e, 0x53, 0x45, 0x2e, 0x73, 0x71, 0x2e, 0x61, 0x63, 0x74, 0x5f, 0x31, 0x2f, 0x52,
  0x65, 0x6c, 0x75, 0x36, 0x3b, 0x66, 0x75, 0x6e, 0x63, 0x74, 0x69, 0x6f, 0x6e, 0x61, 0x6c, 0x5f, 0x31, 0x2f, 0x42, 0x33,
  0x2e, 0x44, 0x31, 0x2e, 0x53, 0x45, 0x2e, 0x73, 0x71, 0x5f, 0x31, 0x2f, 0x61, 0x64, 0x64, 0x3b, 0x66, 0x75, 0x6e, 0x63,
  0x74, 0x69, 0x6f, 0x6e, 0x61, 0x6c, 0x5f, 0x31, 0x2f, 0x42, 0x33, 0x2e, 0x44, 0x31, 0x2e, 0x53, 0x45, 0x2e, 0x73, 0x71,
  0x5f, 0x31, 0x2f, 0x63, 0x6f, 0x6e, 0x76, 0x6f, 0x6c, 0x75, 0x74, 0x69, 0x6f, 0x6e, 0x3b, 0x66, 0x75, 0x6e, 0x63, 0x74,
  0x69, 0x6f, 0x6e, 0x61, 0x6c, 0x5f, 0x31, 0x2f, 0x42, 0x33, 0x2e, 0x44, 0x31, 0x2e, 0x53, 0x45, 0x2e, 0x73, 0x71, 0x5f,
  0x31, 0x2f, 0x52, 0x65, 0x73, 0x68, 0x61, 0x70, 0x65, 0x00, 0x00, 0x00, 0x04, 0x00, 0x00, 0x00, 0x01, 0x00, 0x00, 0x00,
  0x01, 0x00, 0x00, 0x00, 0x01, 0x00, 0x00, 0x00, 0x08, 0x00, 0x00, 0x00, 0xa2, 0xf0, 0xff, 0xff, 0x00, 0x00, 0x00, 0x01,
  0x18, 0x00, 0x00, 0x00, 0x28, 0x00, 0x00, 0x00, 0x44, 0x00, 0x00, 0x00, 0x45, 0x00, 0x00, 0x00, 0x00, 0x00, 0x00, 0x09,
  0x60, 0x00, 0x00, 0x00, 0x04, 0x00, 0x00, 0x00, 0xff, 0xff, 0xff, 0xff, 0x01, 0x00, 0x00, 0x00, 0x01, 0x00, 0x00, 0x00,
  0x10, 0x00, 0x00, 0x00, 0x8c, 0xd2, 0xff, 0xff, 0x08, 0x00, 0x00, 0x00, 0x10, 0x00, 0x00, 0x00, 0x01, 0x00, 0x00, 0x00,
  0x80, 0xff, 0xff, 0xff, 0xff, 0xff, 0xff, 0xff, 0x01, 0x00, 0x00, 0x00, 0xd3, 0x99, 0x40, 0x3b, 0x21, 0x00, 0x00, 0x00,
  0x66, 0x75, 0x6e, 0x63, 0x74, 0x69, 0x6f, 0x6e, 0x61, 0x6c, 0x5f, 0x31, 0x2f, 0x42, 0x33, 0x2e, 0x44, 0x31, 0x2e, 0x53,
  0x45, 0x2e, 0x70, 0x6f, 0x6f, 0x6c, 0x5f, 0x31, 0x2f, 0x4d, 0x65, 0x61, 0x6e, 0x00, 0x00, 0x00, 0x04, 0x00, 0x00, 0x00,
  0x01, 0x00, 0x00, 0x00, 0x01, 0x00, 0x00, 0x00, 0x01, 0x00, 0x00, 0x00, 0x10, 0x00, 0x00, 0x00, 0x32, 0xf1, 0xff, 0xff,
  0x00, 0x00, 0x00, 0x01, 0x18, 0x00, 0x00, 0x00, 0x28, 0x00, 0x00, 0x00, 0x48, 0x00, 0x00, 0x00, 0x44, 0x00, 0x00, 0x00,
  0x00, 0x00, 0x00, 0x09, 0x90, 0x00, 0x00, 0x00, 0x04, 0x00, 0x00, 0x00, 0xff, 0xff, 0xff, 0xff, 0x01, 0x00, 0x00, 0x00,
  0xfa, 0x00, 0x00, 0x00, 0x10, 0x00, 0x00, 0x00, 0x1c, 0xd3, 0xff, 0xff, 0x08, 0x00, 0x00, 0x00, 0x14, 0x00, 0x00, 0x00,
  0x01, 0x00, 0x00, 0x00, 0x80, 0xff, 0xff, 0xff, 0xff, 0xff, 0xff, 0xff, 0x00, 0x00, 0x00, 0x00, 0x01, 0x00, 0x00, 0x00,
  0xc1, 0xc0, 0xc0, 0x3c, 0x4f, 0x00, 0x00, 0x00, 0x66, 0x75, 0x6e, 0x63, 0x74, 0x69, 0x6f, 0x6e, 0x61, 0x6c, 0x5f, 0x31,
  0x2f, 0x42, 0x33, 0x2e, 0x44, 0x31, 0x2e, 0x44, 0x57, 0x2e, 0x41, 0x43, 0x54, 0x5f, 0x31, 0x2f, 0x52, 0x65, 0x6c, 0x75,
  0x36, 0x3b, 0x66, 0x75, 0x6e, 0x63, 0x74, 0x69, 0x6f, 0x6e, 0x61, 0x6c, 0x5f, 0x31, 0x2f, 0x42, 0x33, 0x2e, 0x44, 0x31,
  0x2e, 0x44, 0x57, 0x2e, 0x42, 0x31, 0x2e, 0x42, 0x4e, 0x5f, 0x31, 0x2f, 0x62, 0x61, 0x74, 0x63, 0x68, 0x6e, 0x6f, 0x72,
  0x6d, 0x2f, 0x61, 0x64, 0x64, 0x5f, 0x31, 0x00, 0x04, 0x00, 0x00, 0x00, 0x01, 0x00, 0x00, 0x00, 0x01, 0x00, 0x00, 0x00,
  0xfa, 0x00, 0x00, 0x00, 0x10, 0x00, 0x00, 0x00, 0xf2, 0xf1, 0xff, 0xff, 0x00, 0x00, 0x00, 0x01, 0x18, 0x00, 0x00, 0x00,
  0x28, 0x00, 0x00, 0x00, 0x48, 0x00, 0x00, 0x00, 0x43, 0x00, 0x00, 0x00, 0x00, 0x00, 0x00, 0x09, 0x70, 0x00, 0x00, 0x00,
  0x04, 0x00, 0x00, 0x00, 0xff, 0xff, 0xff, 0xff, 0x01, 0x00, 0x00, 0x00, 0xfa, 0x00, 0x00, 0x00, 0x10, 0x00, 0x00, 0x00,
  0xdc, 0xd3, 0xff, 0xff, 0x08, 0x00, 0x00, 0x00, 0x14, 0x00, 0x00, 0x00, 0x01, 0x00, 0x00, 0x00, 0xf7, 0xff, 0xff, 0xff,
  0xff, 0xff, 0xff, 0xff, 0x00, 0x00, 0x00, 0x00, 0x01, 0x00, 0x00, 0x00, 0xa2, 0x3b, 0x5e, 0x3d, 0x2d, 0x00, 0x00, 0x00,
  0x66, 0x75, 0x6e, 0x63, 0x74, 0x69, 0x6f, 0x6e, 0x61, 0x6c, 0x5f, 0x31, 0x2f, 0x42, 0x33, 0x2e, 0x44, 0x31, 0x2e, 0x44,
  0x57, 0x2e, 0x42, 0x31, 0x2e, 0x42, 0x4e, 0x5f, 0x31, 0x2f, 0x62, 0x61, 0x74, 0x63, 0x68, 0x6e, 0x6f, 0x72, 0x6d, 0x2f,
  0x6d, 0x75, 0x6c, 0x5f, 0x31, 0x00, 0x00, 0x00, 0x04, 0x00, 0x00, 0x00, 0x01, 0x00, 0x00, 0x00, 0x01, 0x00, 0x00, 0x00,
  0xfa, 0x00, 0x00, 0x00, 0x10, 0x00, 0x00, 0x00, 0x92, 0xf2, 0xff, 0xff, 0x00, 0x00, 0x00, 0x01, 0x18, 0x00, 0x00, 0x00,
  0x28, 0x00, 0x00, 0x00, 0x48, 0x00, 0x00, 0x00, 0x42, 0x00, 0x00, 0x00, 0x00, 0x00, 0x00, 0x09, 0x78, 0x00, 0x00, 0x00,
  0x04, 0x00, 0x00, 0x00, 0xff, 0xff, 0xff, 0xff, 0x01, 0x00, 0x00, 0x00, 0xfa, 0x00, 0x00, 0x00, 0x10, 0x00, 0x00, 0x00,
  0x7c, 0xd4, 0xff, 0xff, 0x08, 0x00, 0x00, 0x00, 0x14, 0x00, 0x00, 0x00, 0x01, 0x00, 0x00, 0x00, 0xc5, 0xff, 0xff, 0xff,
  0xff, 0xff, 0xff, 0xff, 0x00, 0x00, 0x00, 0x00, 0x01, 0x00, 0x00, 0x00, 0xd2, 0xfc, 0x3c, 0x3c, 0x36, 0x00, 0x00, 0x00,
  0x66, 0x75, 0x6e, 0x63, 0x74, 0x69, 0x6f, 0x6e, 0x61, 0x6c, 0x5f, 0x31, 0x2f, 0x42, 0x33, 0x2e, 0x44, 0x31, 0x2e, 0x44,
  0x57, 0x2e, 0x42, 0x31, 0x2e, 0x43, 0x4e, 0x5f, 0x31, 0x2f, 0x64, 0x65, 0x70, 0x74, 0x68, 0x77, 0x69, 0x73, 0x65, 0x2f,
  0x42, 0x61, 0x74, 0x63, 0x68, 0x54, 0x6f, 0x53, 0x70, 0x61, 0x63, 0x65, 0x4e, 0x44, 0x00, 0x00, 0x04, 0x00, 0x00, 0x00,
  0x01, 0x00, 0x00, 0x00, 0x01, 0x00, 0x00, 0x00, 0xfa, 0x00, 0x00, 0x00, 0x10, 0x00, 0x00, 0x00, 0x3a, 0xf3, 0xff, 0xff,
  0x00, 0x00, 0x00, 0x01, 0x18, 0x00, 0x00, 0x00, 0x28, 0x00, 0x00, 0x00, 0x48, 0x00, 0x00, 0x00, 0x41, 0x00, 0x00, 0x00,
  0x00, 0x00, 0x00, 0x09, 0x68, 0x00, 0x00, 0x00, 0x04, 0x00, 0x00, 0x00, 0xff, 0xff, 0xff, 0xff, 0x01, 0x00, 0x00, 0x00,
  0x7d, 0x00, 0x00, 0x00, 0x10, 0x00, 0x00, 0x00, 0x24, 0xd5, 0xff, 0xff, 0x08, 0x00, 0x00, 0x00, 0x14, 0x00, 0x00, 0x00,
  0x01, 0x00, 0x00, 0x00, 0xc5, 0xff, 0xff, 0xff, 0xff, 0xff, 0xff, 0xff, 0x00, 0x00, 0x00, 0x00, 0x01, 0x00, 0x00, 0x00,
  0xd2, 0xfc, 0x3c, 0x3c, 0x27, 0x00, 0x00, 0x00, 0x66, 0x75, 0x6e, 0x63, 0x74, 0x69, 0x6f, 0x6e, 0x61, 0x6c, 0x5f, 0x31,
  0x2f, 0x42, 0x33, 0x2e, 0x44, 0x31, 0x2e, 0x44, 0x57, 0x2e, 0x42, 0x31, 0x2e, 0x43, 0x4e, 0x5f, 0x31, 0x2f, 0x64, 0x65,
  0x70, 0x74, 0x68, 0x77, 0x69, 0x73, 0x65, 0x00, 0x04, 0x00, 0x00, 0x00, 0x01, 0x00, 0x00, 0x00, 0x01, 0x00, 0x00, 0x00,
  0x7d, 0x00, 0x00, 0x00, 0x10, 0x00, 0x00, 0x00, 0xd2, 0xf3, 0xff, 0xff, 0x00, 0x00, 0x00, 0x01, 0x18, 0x00, 0x00, 0x00,
  0x28, 0x00, 0x00, 0x00, 0x48, 0x00, 0x00, 0x00, 0x40, 0x00, 0x00, 0x00, 0x00, 0x00, 0x00, 0x09, 0x78, 0x00, 0x00, 0x00,
  0x04, 0x00, 0x00, 0x00, 0xff, 0xff, 0xff, 0xff, 0x01, 0x00, 0x00, 0x00, 0x81, 0x00, 0x00, 0x00, 0x10, 0x00, 0x00, 0x00,
  0xbc, 0xd5, 0xff, 0xff, 0x08, 0x00, 0x00, 0x00, 0x14, 0x00, 0x00, 0x00, 0x01, 0x00, 0x00, 0x00, 0x80, 0xff, 0xff, 0xff,
  0xff, 0xff, 0xff, 0xff, 0x00, 0x00, 0x00, 0x00, 0x01, 0x00, 0x00, 0x00, 0xc1, 0xc0, 0xc0, 0x3c, 0x36, 0x00, 0x00, 0x00,
  0x66, 0x75, 0x6e, 0x63, 0x74, 0x69, 0x6f, 0x6e, 0x61, 0x6c, 0x5f, 0x31, 0x2f, 0x42, 0x33, 0x2e, 0x44, 0x31, 0x2e, 0x44,
  0x57, 0x2e, 0x42, 0x31, 0x2e, 0x43, 0x4e, 0x5f, 0x31, 0x2f, 0x64, 0x65, 0x70, 0x74, 0x68, 0x77, 0x69, 0x73, 0x65, 0x2f,
  0x53, 0x70, 0x61, 0x63, 0x65, 0x54, 0x6f, 0x42, 0x61, 0x74, 0x63, 0x68, 0x4e, 0x44, 0x00, 0x00, 0x04, 0x00, 0x00, 0x00,
  0x01, 0x00, 0x00, 0x00, 0x01, 0x00, 0x00, 0x00, 0x81, 0x00, 0x00, 0x00, 0x10, 0x00, 0x00, 0x00, 0x7a, 0xf4, 0xff, 0xff,
  0x00, 0x00, 0x00, 0x01, 0x18, 0x00, 0x00, 0x00, 0x28, 0x00, 0x00, 0x00, 0x48, 0x00, 0x00, 0x00, 0x3f, 0x00, 0x00, 0x00,
  0x00, 0x00, 0x00, 0x09, 0xe8, 0x00, 0x00, 0x00, 0x04, 0x00, 0x00, 0x00, 0xff, 0xff, 0xff, 0xff, 0x01, 0x00, 0x00, 0x00,
  0xfa, 0x00, 0x00, 0x00, 0x10, 0x00, 0x00, 0x00, 0x64, 0xd6, 0xff, 0xff, 0x08, 0x00, 0x00, 0x00, 0x14, 0x00, 0x00, 0x00,
  0x01, 0x00, 0x00, 0x00, 0x80, 0xff, 0xff, 0xff, 0xff, 0xff, 0xff, 0xff, 0x00, 0x00, 0x00, 0x00, 0x01, 0x00, 0x00, 0x00,
  0xc1, 0xc0, 0xc0, 0x3c, 0xa5, 0x00, 0x00, 0x00, 0x66, 0x75, 0x6e, 0x63, 0x74, 0x69, 0x6f, 0x6e, 0x61, 0x6c, 0x5f, 0x31,
  0x2f, 0x42, 0x32, 0x2e, 0x44, 0x31, 0x2e, 0x50, 0x57, 0x2e, 0x41, 0x43, 0x54, 0x5f, 0x31, 0x2f, 0x52, 0x65, 0x6c, 0x75,
  0x36, 0x3b, 0x66, 0x75, 0x6e, 0x63, 0x74, 0x69, 0x6f, 0x6e, 0x61, 0x6c, 0x5f, 0x31, 0x2f, 0x42, 0x32, 0x2e, 0x44, 0x31,
  0x2e, 0x50, 0x57, 0x2e, 0x42, 0x31, 0x2e, 0x42, 0x4e, 0x5f, 0x31, 0x2f, 0x62, 0x61, 0x74, 0x63, 0x68, 0x6e, 0x6f, 0x72,
  0x6d, 0x2f, 0x61, 0x64, 0x64, 0x5f, 0x31, 0x3b, 0x66, 0x75, 0x6e, 0x63, 0x74, 0x69, 0x6f, 0x6e, 0x61, 0x6c, 0x5f, 0x31,
  0x2f, 0x42, 0x32, 0x2e, 0x44, 0x31, 0x2e, 0x50, 0x57, 0x2e, 0x42, 0x31, 0x2e, 0x43, 0x4e, 0x5f, 0x31, 0x2f, 0x63, 0x6f,
  0x6e, 0x76, 0x6f, 0x6c, 0x75, 0x74, 0x69, 0x6f, 0x6e, 0x3b, 0x66, 0x75, 0x6e, 0x63, 0x74, 0x69, 0x6f, 0x6e, 0x61, 0x6c,
  0x5f, 0x31, 0x2f, 0x42, 0x32, 0x2e, 0x44, 0x31, 0x2e, 0x50, 0x57, 0x2e, 0x42, 0x31, 0x2e, 0x42, 0x4e, 0x5f, 0x31, 0x2f,
  0x62, 0x61, 0x74, 0x63, 0x68, 0x6e, 0x6f, 0x72, 0x6d, 0x2f, 0x73, 0x75, 0x62, 0x00, 0x00, 0x00, 0x04, 0x00, 0x00, 0x00,
  0x01, 0x00, 0x00, 0x00, 0x01, 0x00, 0x00, 0x00, 0xfa, 0x00, 0x00, 0x00, 0x10, 0x00, 0x00, 0x00, 0x92, 0xf5, 0xff, 0xff,
  0x00, 0x00, 0x00, 0x01, 0x18, 0x00, 0x00, 0x00, 0x28, 0x00, 0x00, 0x00, 0x44, 0x00, 0x00, 0x00, 0x3e, 0x00, 0x00, 0x00,
  0x00, 0x00, 0x00, 0x09, 0x60, 0x00, 0x00, 0x00, 0x04, 0x00, 0x00, 0x00, 0xff, 0xff, 0xff, 0xff, 0x01, 0x00, 0x00, 0x00,
  0xfa, 0x00, 0x00, 0x00, 0x08, 0x00, 0x00, 0x00, 0x7c, 0xd7, 0xff, 0xff, 0x08, 0x00, 0x00, 0x00, 0x10, 0x00, 0x00, 0x00,
  0x01, 0x00, 0x00, 0x00, 0x80, 0xff, 0xff, 0xff, 0xff, 0xff, 0xff, 0xff, 0x01, 0x00, 0x00, 0x00, 0xcd, 0xc7, 0x73, 0x3c,
  0x22, 0x00, 0x00, 0x00, 0x66, 0x75, 0x6e, 0x63, 0x74, 0x69, 0x6f, 0x6e, 0x61, 0x6c, 0x5f, 0x31, 0x2f, 0x42, 0x32, 0x2e,
  0x44, 0x31, 0x2e, 0x53, 0x45, 0x2e, 0x65, 0x78, 0x2e, 0x6d, 0x75, 0x6c, 0x5f, 0x31, 0x2f, 0x4d, 0x75, 0x6c, 0x00, 0x00,
  0x04, 0x00, 0x00, 0x00, 0x01, 0x00, 0x00, 0x00, 0x01, 0x00, 0x00, 0x00, 0xfa, 0x00, 0x00, 0x00, 0x08, 0x00, 0x00, 0x00,
  0x22, 0xf6, 0xff, 0xff, 0x00, 0x00, 0x00, 0x01, 0x18, 0x00, 0x00, 0x00, 0x28, 0x00, 0x00, 0x00, 0x48, 0x00, 0x00, 0x00,
  0x3d, 0x00, 0x00, 0x00, 0x00, 0x00, 0x00, 0x09, 0x68, 0x00, 0x00, 0x00, 0x04, 0x00, 0x00, 0x00, 0xff, 0xff, 0xff, 0xff,
  0x01, 0x00, 0x00, 0x00, 0x01, 0x00, 0x00, 0x00, 0x08, 0x00, 0x00, 0x00, 0x0c, 0xd8, 0xff, 0xff, 0x08, 0x00, 0x00, 0x00,
  0x14, 0x00, 0x00, 0x00, 0x01, 0x00, 0x00, 0x00, 0x80, 0xff, 0xff, 0xff, 0xff, 0xff, 0xff, 0xff, 0x00, 0x00, 0x00, 0x00,
  0x01, 0x00, 0x00, 0x00, 0x33, 0x85, 0x22, 0x3b, 0x26, 0x00, 0x00, 0x00, 0x66, 0x75, 0x6e, 0x63, 0x74, 0x69, 0x6f, 0x6e,
  0x61, 0x6c, 0x5f, 0x31, 0x2f, 0x42, 0x32, 0x2e, 0x44, 0x31, 0x2e, 0x53, 0x45, 0x2e, 0x65, 0x78, 0x2e, 0x61, 0x63, 0x74,
  0x5f, 0x31, 0x2f, 0x74, 0x72, 0x75, 0x65, 0x64, 0x69, 0x76, 0x00, 0x00, 0x04, 0x00, 0x00, 0x00, 0x01, 0x00, 0x00, 0x00,
  0x01, 0x00, 0x00, 0x00, 0x01, 0x00, 0x00, 0x00, 0x08, 0x00, 0x00, 0x00, 0xba, 0xf6, 0xff, 0xff, 0x00, 0x00, 0x00, 0x01,
  0x18, 0x00, 0x00, 0x00, 0x28, 0x00, 0x00, 0x00, 0x44, 0x00, 0x00, 0x00, 0x3c, 0x00, 0x00, 0x00, 0x00, 0x00, 0x00, 0x09,
  0xf0, 0x00, 0x00, 0x00, 0x04, 0x00, 0x00, 0x00, 0xff, 0xff, 0xff, 0xff, 0x01, 0x00, 0x00, 0x00, 0x01, 0x00, 0x00, 0x00,
  0x08, 0x00, 0x00, 0x00, 0xa4, 0xd8, 0xff, 0xff, 0x08, 0x00, 0x00, 0x00, 0x10, 0x00, 0x00, 0x00, 0x01, 0x00, 0x00, 0x00,
  0x80, 0xff, 0xff, 0xff, 0xff, 0xff, 0xff, 0xff, 0x01, 0x00, 0x00, 0x00, 0xcc, 0xc7, 0x73, 0x3c, 0xb1, 0x00, 0x00, 0x00,
  0x66, 0x75, 0x6e, 0x63, 0x74, 0x69, 0x6f, 0x6e, 0x61, 0x6c, 0x5f, 0x31, 0x2f, 0x42, 0x32, 0x2e, 0x44, 0x31, 0x2e, 0x53,
  0x45, 0x2e, 0x65, 0x78, 0x2e, 0x61, 0x63, 0x74, 0x5f, 0x31, 0x2f, 0x52, 0x65, 0x6c, 0x75, 0x36, 0x3b, 0x66, 0x75, 0x6e,
  0x63, 0x74, 0x69, 0x6f, 0x6e, 0x61, 0x6c, 0x5f, 0x31, 0x2f, 0x42, 0x32, 0x2e, 0x44, 0x31, 0x2e, 0x53, 0x45, 0x2e, 0x65,
  0x78, 0x2e, 0x61, 0x63, 0x74, 0x5f, 0x31, 0x2f, 0x61, 0x64, 0x64, 0x3b, 0x66, 0x75, 0x6e, 0x63, 0x74, 0x69, 0x6f, 0x6e,
  0x61, 0x6c, 0x5f, 0x31, 0x2f, 0x42, 0x32, 0x2e, 0x44, 0x31, 0x2e, 0x53, 0x45, 0x2e, 0x65, 0x78, 0x5f, 0x31, 0x2f, 0x61,
  0x64, 0x64, 0x3b, 0x66, 0x75, 0x6e, 0x63, 0x74, 0x69, 0x6f, 0x6e, 0x61, 0x6c, 0x5f, 0x31, 0x2f, 0x42, 0x32, 0x2e, 0x44,
  0x31, 0x2e, 0x53, 0x45, 0x2e, 0x65, 0x78, 0x5f, 0x31, 0x2f, 0x63, 0x6f, 0x6e, 0x76, 0x6f, 0x6c, 0x75, 0x74, 0x69, 0x6f,
  0x6e, 0x3b, 0x66, 0x75, 0x6e, 0x63, 0x74, 0x69, 0x6f, 0x6e, 0x61, 0x6c, 0x5f, 0x31, 0x2f, 0x42, 0x32, 0x2e, 0x44, 0x31,
  0x2e, 0x53, 0x45, 0x2e, 0x65, 0x78, 0x5f, 0x31, 0x2f, 0x52, 0x65, 0x73, 0x68, 0x61, 0x70, 0x65, 0x3b, 0x00, 0x00, 0x00,
  0x04, 0x00, 0x00, 0x00, 0x01, 0x00, 0x00, 0x00, 0x01, 0x00, 0x00, 0x00, 0x01, 0x00, 0x00, 0x00, 0x08, 0x00, 0x00, 0x00,
  0xda, 0xf7, 0xff, 0xff, 0x00, 0x00, 0x00, 0x01, 0x18, 0x00, 0x00, 0x00, 0x28, 0x00, 0x00, 0x00, 0x48, 0x00, 0x00, 0x00,
  0x3b, 0x00, 0x00, 0x00, 0x00, 0x00, 0x00, 0x09, 0xd0, 0x00, 0x00, 0x00, 0x04, 0x00, 0x00, 0x00, 0xff, 0xff, 0xff, 0xff,
  0x01, 0x00, 0x00, 0x00, 0x01, 0x00, 0x00, 0x00, 0x04, 0x00, 0x00, 0x00, 0xc4, 0xd9, 0xff, 0xff, 0x08, 0x00, 0x00, 0x00,
  0x14, 0x00, 0x00, 0x00, 0x01, 0x00, 0x00, 0x00, 0x80, 0xff, 0xff, 0xff, 0xff, 0xff, 0xff, 0xff, 0x00, 0x00, 0x00, 0x00,
  0x01, 0x00, 0x00, 0x00, 0xb7, 0x72, 0xc2, 0x3b, 0x8d, 0x00, 0x00, 0x00, 0x66, 0x75, 0x6e, 0x63, 0x74, 0x69, 0x6f, 0x6e,
  0x61, 0x6c, 0x5f, 0x31, 0x2f, 0x42, 0x32, 0x2e, 0x44, 0x31, 0x2e, 0x53, 0x45, 0x2e, 0x73, 0x71, 0x2e, 0x61, 0x63, 0x74,
  0x5f, 0x31, 0x2f, 0x52, 0x65, 0x6c, 0x75, 0x36, 0x3b, 0x66, 0x75, 0x6e, 0x63, 0x74, 0x69, 0x6f, 0x6e, 0x61, 0x6c, 0x5f,
  0x31, 0x2f, 0x42, 0x32, 0x2e, 0x44, 0x31, 0x2e, 0x53, 0x45, 0x2e, 0x73, 0x71, 0x5f, 0x31, 0x2f, 0x61, 0x64, 0x64, 0x3b,
  0x66, 0x75, 0x6e, 0x63, 0x74, 0x69, 0x6f, 0x6e, 0x61, 0x6c, 0x5f, 0x31, 0x2f, 0x42, 0x32, 0x2e, 0x44, 0x31, 0x2e, 0x53,
  0x45, 0x2e, 0x73, 0x71, 0x5f, 0x31, 0x2f, 0x63, 0x6f, 0x6e, 0x76, 0x6f, 0x6c, 0x75, 0x74, 0x69, 0x6f, 0x6e, 0x3b, 0x66,
  0x75, 0x6e, 0x63, 0x74, 0x69, 0x6f, 0x6e, 0x61, 0x6c, 0x5f, 0x31, 0x2f, 0x42, 0x32, 0x2e, 0x44, 0x31, 0x2e, 0x53, 0x45,
  0x2e, 0x73, 0x71, 0x5f, 0x31, 0x2f, 0x52, 0x65, 0x73, 0x68, 0x61, 0x70, 0x65, 0x00, 0x00, 0x00, 0x04, 0x00, 0x00, 0x00,
  0x01, 0x00, 0x00, 0x00, 0x01, 0x00, 0x00, 0x00, 0x01, 0x00, 0x00, 0x00, 0x04, 0x00, 0x00, 0x00, 0xda, 0xf8, 0xff, 0xff,
  0x00, 0x00, 0x00, 0x01, 0x18, 0x00, 0x00, 0x00, 0x28, 0x00, 0x00, 0x00, 0x44, 0x00, 0x00, 0x00, 0x3a, 0x00, 0x00, 0x00,
  0x00, 0x00, 0x00, 0x09, 0x60, 0x00, 0x00, 0x00, 0x04, 0x00, 0x00, 0x00, 0xff, 0xff, 0xff, 0xff, 0x01, 0x00, 0x00, 0x00,
  0x01, 0x00, 0x00, 0x00, 0x08, 0x00, 0x00, 0x00, 0xc4, 0xda, 0xff, 0xff, 0x08, 0x00, 0x00, 0x00, 0x10, 0x00, 0x00, 0x00,
  0x01, 0x00, 0x00, 0x00, 0x80, 0xff, 0xff, 0xff, 0xff, 0xff, 0xff, 0xff, 0x01, 0x00, 0x00, 0x00, 0x76, 0x0a, 0x49, 0x3b,
  0x21, 0x00, 0x00, 0x00, 0x66, 0x75, 0x6e, 0x63, 0x74, 0x69, 0x6f, 0x6e, 0x61, 0x6c, 0x5f, 0x31, 0x2f, 0x42, 0x32, 0x2e,
  0x44, 0x31, 0x2e, 0x53, 0x45, 0x2e, 0x70, 0x6f, 0x6f, 0x6c, 0x5f, 0x31, 0x2f, 0x4d, 0x65, 0x61, 0x6e, 0x00, 0x00, 0x00,
  0x04, 0x00, 0x00, 0x00, 0x01, 0x00, 0x00, 0x00, 0x01, 0x00, 0x00, 0x00, 0x01, 0x00, 0x00, 0x00, 0x08, 0x00, 0x00, 0x00,
  0x6a, 0xf9, 0xff, 0xff, 0x00, 0x00, 0x00, 0x01, 0x18, 0x00, 0x00, 0x00, 0x28, 0x00, 0x00, 0x00, 0x48, 0x00, 0x00, 0x00,
  0x39, 0x00, 0x00, 0x00, 0x00, 0x00, 0x00, 0x09, 0x40, 0x01, 0x00, 0x00, 0x04, 0x00, 0x00, 0x00, 0xff, 0xff, 0xff, 0xff,
  0x01, 0x00, 0x00, 0x00, 0xfa, 0x00, 0x00, 0x00, 0x08, 0x00, 0x00, 0x00, 0x54, 0xdb, 0xff, 0xff, 0x08, 0x00, 0x00, 0x00,
  0x14, 0x00, 0x00, 0x00, 0x01, 0x00, 0x00, 0x00, 0x80, 0xff, 0xff, 0xff, 0xff, 0xff, 0xff, 0xff, 0x00, 0x00, 0x00, 0x00,
  0x01, 0x00, 0x00, 0x00, 0xc1, 0xc0, 0xc0, 0x3c, 0xfd, 0x00, 0x00, 0x00, 0x66, 0x75, 0x6e, 0x63, 0x74, 0x69, 0x6f, 0x6e,
  0x61, 0x6c, 0x5f, 0x31, 0x2f, 0x42, 0x32, 0x2e, 0x44, 0x31, 0x2e, 0x44, 0x57, 0x2e, 0x41, 0x43, 0x54, 0x5f, 0x31, 0x2f,
  0x52, 0x65, 0x6c, 0x75, 0x36, 0x3b, 0x66, 0x75, 0x6e, 0x63, 0x74, 0x69, 0x6f, 0x6e, 0x61, 0x6c, 0x5f, 0x31, 0x2f, 0x42,
  0x32, 0x2e, 0x44, 0x31, 0x2e, 0x44, 0x57, 0x2e, 0x42, 0x31, 0x2e, 0x42, 0x4e, 0x5f, 0x31, 0x2f, 0x62, 0x61, 0x74, 0x63,
  0x68, 0x6e, 0x6f, 0x72, 0x6d, 0x2f, 0x61, 0x64, 0x64, 0x5f, 0x31, 0x3b, 0x66, 0x75, 0x6e, 0x63, 0x74, 0x69, 0x6f, 0x6e,
  0x61, 0x6c, 0x5f, 0x31, 0x2f, 0x42, 0x32, 0x2e, 0x44, 0x31, 0x2e, 0x44, 0x57, 0x2e, 0x42, 0x31, 0x2e, 0x42, 0x4e, 0x5f,
  0x31, 0x2f, 0x62, 0x61, 0x74, 0x63, 0x68, 0x6e, 0x6f, 0x72, 0x6d, 0x2f, 0x6d, 0x75, 0x6c, 0x5f, 0x31, 0x3b, 0x66, 0x75,
  0x6e, 0x63, 0x74, 0x69, 0x6f, 0x6e, 0x61, 0x6c, 0x5f, 0x31, 0x2f, 0x42, 0x32, 0x2e, 0x44, 0x31, 0x2e, 0x44, 0x57, 0x2e,
  0x42, 0x31, 0x2e, 0x43, 0x4e, 0x5f, 0x31, 0x2f, 0x64, 0x65, 0x70, 0x74, 0x68, 0x77, 0x69, 0x73, 0x65, 0x3b, 0x66, 0x75,
  0x6e, 0x63, 0x74, 0x69, 0x6f, 0x6e, 0x61, 0x6c, 0x5f, 0x31, 0x2f, 0x42, 0x32, 0x2e, 0x44, 0x31, 0x2e, 0x44, 0x57, 0x2e,
  0x42, 0x31, 0x2e, 0x42, 0x4e, 0x5f, 0x31, 0x2f, 0x62, 0x61, 0x74, 0x63, 0x68, 0x6e, 0x6f, 0x72, 0x6d, 0x2f, 0x6d, 0x75,
  0x6c, 0x3b, 0x66, 0x75, 0x6e, 0x63, 0x74, 0x69, 0x6f, 0x6e, 0x61, 0x6c, 0x5f, 0x31, 0x2f, 0x42, 0x32, 0x2e, 0x44, 0x31,
  0x2e, 0x44, 0x57, 0x2e, 0x42, 0x31, 0x2e, 0x42, 0x4e, 0x5f, 0x31, 0x2f, 0x62, 0x61, 0x74, 0x63, 0x68, 0x6e, 0x6f, 0x72,
  0x6d, 0x2f, 0x73, 0x75, 0x62, 0x00, 0x00, 0x00, 0x04, 0x00, 0x00, 0x00, 0x01, 0x00, 0x00, 0x00, 0x01, 0x00, 0x00, 0x00,
  0xfa, 0x00, 0x00, 0x00, 0x08, 0x00, 0x00, 0x00, 0xda, 0xfa, 0xff, 0xff, 0x00, 0x00, 0x00, 0x01, 0x18, 0x00, 0x00, 0x00,
  0x28, 0x00, 0x00, 0x00, 0x48, 0x00, 0x00, 0x00, 0x38, 0x00, 0x00, 0x00, 0x00, 0x00, 0x00, 0x09, 0xe8, 0x00, 0x00, 0x00,
  0x04, 0x00, 0x00, 0x00, 0xff, 0xff, 0xff, 0xff, 0x01, 0x00, 0x00, 0x00, 0xfa, 0x00, 0x00, 0x00, 0x08, 0x00, 0x00, 0x00,
  0xc4, 0xdc, 0xff, 0xff, 0x08, 0x00, 0x00, 0x00, 0x14, 0x00, 0x00, 0x00, 0x01, 0x00, 0x00, 0x00, 0x80, 0xff, 0xff, 0xff,
  0xff, 0xff, 0xff, 0xff, 0x00, 0x00, 0x00, 0x00, 0x01, 0x00, 0x00, 0x00, 0x59, 0xb3, 0x44, 0x3c, 0xa5, 0x00, 0x00, 0x00,
  0x66, 0x75, 0x6e, 0x63, 0x74, 0x69, 0x6f, 0x6e, 0x61, 0x6c, 0x5f, 0x31, 0x2f, 0x42, 0x31, 0x2e, 0x44, 0x31, 0x2e, 0x50,
  0x57, 0x2e, 0x41, 0x43, 0x54, 0x5f, 0x31, 0x2f, 0x52, 0x65, 0x6c, 0x75, 0x36, 0x3b, 0x66, 0x75, 0x6e, 0x63, 0x74, 0x69,
  0x6f, 0x6e, 0x61, 0x6c, 0x5f, 0x31, 0x2f, 0x42, 0x31, 0x2e, 0x44, 0x31, 0x2e, 0x50, 0x57, 0x2e, 0x42, 0x31, 0x2e, 0x42,
  0x4e, 0x5f, 0x31, 0x2f, 0x62, 0x61, 0x74, 0x63, 0x68, 0x6e, 0x6f, 0x72, 0x6d, 0x2f, 0x61, 0x64, 0x64, 0x5f, 0x31, 0x3b,
  0x66, 0x75, 0x6e, 0x63, 0x74, 0x69, 0x6f, 0x6e, 0x61, 0x6c, 0x5f, 0x31, 0x2f, 0x42, 0x31, 0x2e, 0x44, 0x31, 0x2e, 0x50,
  0x57, 0x2e, 0x42, 0x31, 0x2e, 0x43, 0x4e, 0x5f, 0x31, 0x2f, 0x63, 0x6f, 0x6e, 0x76, 0x6f, 0x6c, 0x75, 0x74, 0x69, 0x6f,
  0x6e, 0x3b, 0x66, 0x75, 0x6e, 0x63, 0x74, 0x69, 0x6f, 0x6e, 0x61, 0x6c, 0x5f, 0x31, 0x2f, 0x42, 0x31, 0x2e, 0x44, 0x31,
  0x2e, 0x50, 0x57, 0x2e, 0x42, 0x31, 0x2e, 0x42, 0x4e, 0x5f, 0x31, 0x2f, 0x62, 0x61, 0x74, 0x63, 0x68, 0x6e, 0x6f, 0x72,
  0x6d, 0x2f, 0x73, 0x75, 0x62, 0x00, 0x00, 0x00, 0x04, 0x00, 0x00, 0x00, 0x01, 0x00, 0x00, 0x00, 0x01, 0x00, 0x00, 0x00,
  0xfa, 0x00, 0x00, 0x00, 0x08, 0x00, 0x00, 0x00, 0xf2, 0xfb, 0xff, 0xff, 0x00, 0x00, 0x00, 0x01, 0x18, 0x00, 0x00, 0x00,
  0x28, 0x00, 0x00, 0x00, 0x48, 0x00, 0x00, 0x00, 0x37, 0x00, 0x00, 0x00, 0x00, 0x00, 0x00, 0x09, 0x40, 0x01, 0x00, 0x00,
  0x04, 0x00, 0x00, 0x00, 0xff, 0xff, 0xff, 0xff, 0x01, 0x00, 0x00, 0x00, 0xfa, 0x00, 0x00, 0x00, 0x01, 0x00, 0x00, 0x00,
  0xdc, 0xdd, 0xff, 0xff, 0x08, 0x00, 0x00, 0x00, 0x14, 0x00, 0x00, 0x00, 0x01, 0x00, 0x00, 0x00, 0x80, 0xff, 0xff, 0xff,
  0xff, 0xff, 0xff, 0xff, 0x00, 0x00, 0x00, 0x00, 0x01, 0x00, 0x00, 0x00, 0x99, 0xf5, 0xaf, 0x3b, 0xfd, 0x00, 0x00, 0x00,
  0x66, 0x75, 0x6e, 0x63, 0x74, 0x69, 0x6f, 0x6e, 0x61, 0x6c, 0x5f, 0x31, 0x2f, 0x42, 0x31, 0x2e, 0x44, 0x31, 0x2e, 0x44,
  0x57, 0x2e, 0x41, 0x43, 0x54, 0x5f, 0x31, 0x2f, 0x52, 0x65, 0x6c, 0x75, 0x36, 0x3b, 0x66, 0x75, 0x6e, 0x63, 0x74, 0x69,
  0x6f, 0x6e, 0x61, 0x6c, 0x5f, 0x31, 0x2f, 0x42, 0x31, 0x2e, 0x44, 0x31, 0x2e, 0x44, 0x57, 0x2e, 0x42, 0x31, 0x2e, 0x42,
  0x4e, 0x5f, 0x31, 0x2f, 0x62, 0x61, 0x74, 0x63, 0x68, 0x6e, 0x6f, 0x72, 0x6d, 0x2f, 0x61, 0x64, 0x64, 0x5f, 0x31, 0x3b,
  0x66, 0x75, 0x6e, 0x63, 0x74, 0x69, 0x6f, 0x6e, 0x61, 0x6c, 0x5f, 0x31, 0x2f, 0x42, 0x31, 0x2e, 0x44, 0x31, 0x2e, 0x44,
  0x57, 0x2e, 0x42, 0x31, 0x2e, 0x42, 0x4e, 0x5f, 0x31, 0x2f, 0x62, 0x61, 0x74, 0x63, 0x68, 0x6e, 0x6f, 0x72, 0x6d, 0x2f,
  0x6d, 0x75, 0x6c, 0x5f, 0x31, 0x3b, 0x66, 0x75, 0x6e, 0x63, 0x74, 0x69, 0x6f, 0x6e, 0x61, 0x6c, 0x5f, 0x31, 0x2f, 0x42,
  0x31, 0x2e, 0x44, 0x31, 0x2e, 0x44, 0x57, 0x2e, 0x42, 0x31, 0x2e, 0x43, 0x4e, 0x5f, 0x31, 0x2f, 0x64, 0x65, 0x70, 0x74,
  0x68, 0x77, 0x69, 0x73, 0x65, 0x3b, 0x66, 0x75, 0x6e, 0x63, 0x74, 0x69, 0x6f, 0x6e, 0x61, 0x6c, 0x5f, 0x31, 0x2f, 0x42,
  0x31, 0x2e, 0x44, 0x31, 0x2e, 0x44, 0x57, 0x2e, 0x42, 0x31, 0x2e, 0x42, 0x4e, 0x5f, 0x31, 0x2f, 0x62, 0x61, 0x74, 0x63,
  0x68, 0x6e, 0x6f, 0x72, 0x6d, 0x2f, 0x6d, 0x75, 0x6c, 0x3b, 0x66, 0x75, 0x6e, 0x63, 0x74, 0x69, 0x6f, 0x6e, 0x61, 0x6c,
  0x5f, 0x31, 0x2f, 0x42, 0x31, 0x2e, 0x44, 0x31, 0x2e, 0x44, 0x57, 0x2e, 0x42, 0x31, 0x2e, 0x42, 0x4e, 0x5f, 0x31, 0x2f,
  0x62, 0x61, 0x74, 0x63, 0x68, 0x6e, 0x6f, 0x72, 0x6d, 0x2f, 0x73, 0x75, 0x62, 0x00, 0x00, 0x00, 0x04, 0x00, 0x00, 0x00,
  0x01, 0x00, 0x00, 0x00, 0x01, 0x00, 0x00, 0x00, 0xfa, 0x00, 0x00, 0x00, 0x01, 0x00, 0x00, 0x00, 0x62, 0xfd, 0xff, 0xff,
  0x00, 0x00, 0x00, 0x01, 0x18, 0x00, 0x00, 0x00, 0x28, 0x00, 0x00, 0x00, 0x44, 0x00, 0x00, 0x00, 0x36, 0x00, 0x00, 0x00,
  0x00, 0x00, 0x00, 0x09, 0xf0, 0x00, 0x00, 0x00, 0x04, 0x00, 0x00, 0x00, 0xff, 0xff, 0xff, 0xff, 0x01, 0x00, 0x00, 0x00,
  0xfa, 0x00, 0x00, 0x00, 0x01, 0x00, 0x00, 0x00, 0x4c, 0xdf, 0xff, 0xff, 0x08, 0x00, 0x00, 0x00, 0x10, 0x00, 0x00, 0x00,
  0x01, 0x00, 0x00, 0x00, 0x0a, 0x00, 0x00, 0x00, 0x00, 0x00, 0x00, 0x00, 0x01, 0x00, 0x00, 0x00, 0x20, 0xdb, 0x6a, 0x3c,
  0xb3, 0x00, 0x00, 0x00, 0x66, 0x75, 0x6e, 0x63, 0x74, 0x69, 0x6f, 0x6e, 0x61, 0x6c, 0x5f, 0x31, 0x2f, 0x45, 0x4e, 0x43,
  0x2e, 0x42, 0x4e, 0x5f, 0x31, 0x2f, 0x62, 0x61, 0x74, 0x63, 0x68, 0x6e, 0x6f, 0x72, 0x6d, 0x2f, 0x61, 0x64, 0x64, 0x5f,
  0x31, 0x3b, 0x66, 0x75, 0x6e, 0x63, 0x74, 0x69, 0x6f, 0x6e, 0x61, 0x6c, 0x5f, 0x31, 0x2f, 0x45, 0x4e, 0x43, 0x2e, 0x42,
  0x4e, 0x5f, 0x31, 0x2f, 0x62, 0x61, 0x74, 0x63, 0x68, 0x6e, 0x6f, 0x72, 0x6d, 0x2f, 0x6d, 0x75, 0x6c, 0x5f, 0x31, 0x3b,
  0x66, 0x75, 0x6e, 0x63, 0x74, 0x69, 0x6f, 0x6e, 0x61, 0x6c, 0x5f, 0x31, 0x2f, 0x45, 0x4e, 0x43, 0x2e, 0x43, 0x4e, 0x5f,
  0x31, 0x2f, 0x64, 0x65, 0x70, 0x74, 0x68, 0x77, 0x69, 0x73, 0x65, 0x3b, 0x66, 0x75, 0x6e, 0x63, 0x74, 0x69, 0x6f, 0x6e,
  0x61, 0x6c, 0x5f, 0x31, 0x2f, 0x45, 0x4e, 0x43, 0x2e, 0x42, 0x4e, 0x5f, 0x31, 0x2f, 0x62, 0x61, 0x74, 0x63, 0x68, 0x6e,
  0x6f, 0x72, 0x6d, 0x2f, 0x6d, 0x75, 0x6c, 0x3b, 0x66, 0x75, 0x6e, 0x63, 0x74, 0x69, 0x6f, 0x6e, 0x61, 0x6c, 0x5f, 0x31,
  0x2f, 0x45, 0x4e, 0x43, 0x2e, 0x42, 0x4e, 0x5f, 0x31, 0x2f, 0x62, 0x61, 0x74, 0x63, 0x68, 0x6e, 0x6f, 0x72, 0x6d, 0x2f,
  0x73, 0x75, 0x62, 0x00, 0x04, 0x00, 0x00, 0x00, 0x01, 0x00, 0x00, 0x00, 0x01, 0x00, 0x00, 0x00, 0xfa, 0x00, 0x00, 0x00,
  0x01, 0x00, 0x00, 0x00, 0x82, 0xfe, 0xff, 0xff, 0x00, 0x00, 0x00, 0x01, 0x18, 0x00, 0x00, 0x00, 0x28, 0x00, 0x00, 0x00,
  0x44, 0x00, 0x00, 0x00, 0x35, 0x00, 0x00, 0x00, 0x00, 0x00, 0x00, 0x09, 0x5c, 0x00, 0x00, 0x00, 0x04, 0x00, 0x00, 0x00,
  0xff, 0xff, 0xff, 0xff, 0x01, 0x00, 0x00, 0x00, 0xfa, 0x00, 0x00, 0x00, 0x01, 0x00, 0x00, 0x00, 0x6c, 0xe0, 0xff, 0xff,
  0x08, 0x00, 0x00, 0x00, 0x10, 0x00, 0x00, 0x00, 0x01, 0x00, 0x00, 0x00, 0xec, 0xff, 0xff, 0xff, 0xff, 0xff, 0xff, 0xff,
  0x01, 0x00, 0x00, 0x00, 0x92, 0x38, 0xf2, 0x3c, 0x1e, 0x00, 0x00, 0x00, 0x66, 0x75, 0x6e, 0x63, 0x74, 0x69, 0x6f, 0x6e,
  0x61, 0x6c, 0x5f, 0x31, 0x2f, 0x72, 0x65, 0x73, 0x68, 0x61, 0x70, 0x65, 0x5f, 0x31, 0x2f, 0x52, 0x65, 0x73, 0x68, 0x61,
  0x70, 0x65, 0x00, 0x00, 0x04, 0x00, 0x00, 0x00, 0x01, 0x00, 0x00, 0x00, 0x01, 0x00, 0x00, 0x00, 0xfa, 0x00, 0x00, 0x00,
  0x01, 0x00, 0x00, 0x00, 0x52, 0xde, 0xff, 0xff, 0x00, 0x00, 0x00, 0x01, 0x14, 0x00, 0x00, 0x00, 0x14, 0x00, 0x00, 0x00,
  0x34, 0x00, 0x00, 0x00, 0x00, 0x00, 0x00, 0x02, 0x34, 0x00, 0x00, 0x00, 0xd8, 0xdd, 0xff, 0xff, 0x24, 0x00, 0x00, 0x00,
  0x66, 0x75, 0x6e, 0x63, 0x74, 0x69, 0x6f, 0x6e, 0x61, 0x6c, 0x5f, 0x31, 0x2f, 0x72, 0x65, 0x73, 0x68, 0x61, 0x70, 0x65,
  0x5f, 0x31, 0x2f, 0x52, 0x65, 0x73, 0x68, 0x61, 0x70, 0x65, 0x2f, 0x73, 0x68, 0x61, 0x70, 0x65, 0x00, 0x00, 0x00, 0x00,
  0x01, 0x00, 0x00, 0x00, 0x04, 0x00, 0x00, 0x00, 0xa6, 0xde, 0xff, 0xff, 0x00, 0x00, 0x00, 0x01, 0x14, 0x00, 0x00, 0x00,
  0x14, 0x00, 0x00, 0x00, 0x33, 0x00, 0x00, 0x00, 0x00, 0x00, 0x00, 0x02, 0x34, 0x00, 0x00, 0x00, 0x2c, 0xde, 0xff, 0xff,
  0x24, 0x00, 0x00, 0x00, 0x66, 0x75, 0x6e, 0x63, 0x74, 0x69, 0x6f, 0x6e, 0x61, 0x6c, 0x5f, 0x31, 0x2f, 0x72, 0x65, 0x73,
  0x68, 0x61, 0x70, 0x65, 0x5f, 0x31, 0x2f, 0x73, 0x74, 0x72, 0x69, 0x64, 0x65, 0x64, 0x5f, 0x73, 0x6c, 0x69, 0x63, 0x65,
  0x00, 0x00, 0x00, 0x00, 0x00, 0x00, 0x00, 0x00, 0xf6, 0xde, 0xff, 0xff, 0x00, 0x00, 0x00, 0x01, 0x14, 0x00, 0x00, 0x00,
  0x14, 0x00, 0x00, 0x00, 0x32, 0x00, 0x00, 0x00, 0x00, 0x00, 0x00, 0x02, 0x2c, 0x00, 0x00, 0x00, 0x7c, 0xde, 0xff, 0xff,
  0x1c, 0x00, 0x00, 0x00, 0x66, 0x75, 0x6e, 0x63, 0x74, 0x69, 0x6f, 0x6e, 0x61, 0x6c, 0x5f, 0x31, 0x2f, 0x72, 0x65, 0x73,
  0x68, 0x61, 0x70, 0x65, 0x5f, 0x31, 0x2f, 0x53, 0x68, 0x61, 0x70, 0x65, 0x00, 0x00, 0x00, 0x00, 0x01, 0x00, 0x00, 0x00,
  0x03, 0x00, 0x00, 0x00, 0x00, 0x00, 0x16, 0x00, 0x20, 0x00, 0x1c, 0x00, 0x1b, 0x00, 0x14, 0x00, 0x10, 0x00, 0x0c, 0x00,
  0x00, 0x00, 0x00, 0x00, 0x08, 0x00, 0x07, 0x00, 0x16, 0x00, 0x00, 0x00, 0x00, 0x00, 0x00, 0x01, 0x18, 0x00, 0x00, 0x00,
  0x24, 0x00, 0x00, 0x00, 0x44, 0x00, 0x00, 0x00, 0x31, 0x00, 0x00, 0x00, 0x00, 0x00, 0x00, 0x09, 0x4c, 0x00, 0x00, 0x00,
  0x03, 0x00, 0x00, 0x00, 0xff, 0xff, 0xff, 0xff, 0xfa, 0x00, 0x00, 0x00, 0x01, 0x00, 0x00, 0x00, 0xfc, 0xe1, 0xff, 0xff,
  0x08, 0x00, 0x00, 0x00, 0x14, 0x00, 0x00, 0x00, 0x01, 0x00, 0x00, 0x00, 0xec, 0xff, 0xff, 0xff, 0xff, 0xff, 0xff, 0xff,
  0x00, 0x00, 0x00, 0x00, 0x01, 0x00, 0x00, 0x00, 0x92, 0x38, 0xf2, 0x3c, 0x0c, 0x00, 0x00, 0x00, 0x74, 0x66, 0x6c, 0x2e,
  0x71, 0x75, 0x61, 0x6e, 0x74, 0x69, 0x7a, 0x65, 0x00, 0x00, 0x00, 0x00, 0x03, 0x00, 0x00, 0x00, 0x01, 0x00, 0x00, 0x00,
  0xfa, 0x00, 0x00, 0x00, 0x01, 0x00, 0x00, 0x00, 0xd2, 0xdf, 0xff, 0xff, 0x00, 0x00, 0x00, 0x01, 0x14, 0x00, 0x00, 0x00,
  0x34, 0x00, 0x00, 0x00, 0x30, 0x00, 0x00, 0x00, 0x00, 0x00, 0x00, 0x09, 0x40, 0x00, 0x00, 0x00, 0x52, 0xed, 0xff, 0xff,
  0x03, 0x00, 0x00, 0x00, 0x08, 0x00, 0x00, 0x00, 0x10, 0x00, 0x00, 0x00, 0x01, 0x00, 0x00, 0x00, 0x00, 0x00, 0x00, 0x00,
  0x00, 0x00, 0x00, 0x00, 0x01, 0x00, 0x00, 0x00, 0xdb, 0x4f, 0xe8, 0x3a, 0x13, 0x00, 0x00, 0x00, 0x74, 0x66, 0x6c, 0x2e,
  0x70, 0x73, 0x65, 0x75, 0x64, 0x6f, 0x5f, 0x71, 0x63, 0x6f, 0x6e, 0x73, 0x74, 0x33, 0x36, 0x00, 0x04, 0x00, 0x00, 0x00,
  0x01, 0x00, 0x00, 0x00, 0x01, 0x00, 0x00, 0x00, 0x05, 0x00, 0x00, 0x00, 0x01, 0x00, 0x00, 0x00, 0x3e, 0xe0, 0xff, 0xff,
  0x00, 0x00, 0x00, 0x01, 0x14, 0x00, 0x00, 0x00, 0x30, 0x00, 0x00, 0x00, 0x2f, 0x00, 0x00, 0x00, 0x00, 0x00, 0x00, 0x02,
  0x3c, 0x00, 0x00, 0x00, 0xcc, 0xe2, 0xff, 0xff, 0x08, 0x00, 0x00, 0x00, 0x10, 0x00, 0x00, 0x00, 0x01, 0x00, 0x00, 0x00,
  0x00, 0x00, 0x00, 0x00, 0x00, 0x00, 0x00, 0x00, 0x01, 0x00, 0x00, 0x00, 0xd3, 0xce, 0x5b, 0x38, 0x13, 0x00, 0x00, 0x00,
  0x74, 0x66, 0x6c, 0x2e, 0x70, 0x73, 0x65, 0x75, 0x64, 0x6f, 0x5f, 0x71, 0x63, 0x6f, 0x6e, 0x73, 0x74, 0x33, 0x35, 0x00,
  0x01, 0x00, 0x00, 0x00, 0x01, 0x00, 0x00, 0x00, 0x9a, 0xe0, 0xff, 0xff, 0x00, 0x00, 0x00, 0x01, 0x14, 0x00, 0x00, 0x00,
  0x34, 0x00, 0x00, 0x00, 0x2e, 0x00, 0x00, 0x00, 0x00, 0x00, 0x00, 0x09, 0x40, 0x00, 0x00, 0x00, 0x1a, 0xee, 0xff, 0xff,
  0x03, 0x00, 0x00, 0x00, 0x08, 0x00, 0x00, 0x00, 0x10, 0x00, 0x00, 0x00, 0x01, 0x00, 0x00, 0x00, 0x00, 0x00, 0x00, 0x00,
  0x00, 0x00, 0x00, 0x00, 0x01, 0x00, 0x00, 0x00, 0x21, 0x3f, 0x95, 0x3b, 0x13, 0x00, 0x00, 0x00, 0x74, 0x66, 0x6c, 0x2e,
  0x70, 0x73, 0x65, 0x75, 0x64, 0x6f, 0x5f, 0x71, 0x63, 0x6f, 0x6e, 0x73, 0x74, 0x33, 0x34, 0x00, 0x04, 0x00, 0x00, 0x00,
  0x01, 0x00, 0x00, 0x00, 0x01, 0x00, 0x00, 0x00, 0x05, 0x00, 0x00, 0x00, 0x01, 0x00, 0x00, 0x00, 0x06, 0xe1, 0xff, 0xff,
  0x00, 0x00, 0x00, 0x01, 0x14, 0x00, 0x00, 0x00, 0x34, 0x00, 0x00, 0x00, 0x2d, 0x00, 0x00, 0x00, 0x00, 0x00, 0x00, 0x02,
  0x40, 0x00, 0x00, 0x00, 0x94, 0xe3, 0xff, 0xff, 0x08, 0x00, 0x00, 0x00, 0x14, 0x00, 0x00, 0x00, 0x01, 0x00, 0x00, 0x00,
  0x00, 0x00, 0x00, 0x00, 0x00, 0x00, 0x00, 0x00, 0x00, 0x00, 0x00, 0x00, 0x01, 0x00, 0x00, 0x00, 0x74, 0xeb, 0x88, 0x38,
  0x13, 0x00, 0x00, 0x00, 0x74, 0x66, 0x6c, 0x2e, 0x70, 0x73, 0x65, 0x75, 0x64, 0x6f, 0x5f, 0x71, 0x63, 0x6f, 0x6e, 0x73,
  0x74, 0x33, 0x33, 0x00, 0x01, 0x00, 0x00, 0x00, 0x01, 0x00, 0x00, 0x00, 0x66, 0xe1, 0xff, 0xff, 0x00, 0x00, 0x00, 0x01,
  0x14, 0x00, 0x00, 0x00, 0x88, 0x00, 0x00, 0x00, 0x2c, 0x00, 0x00, 0x00, 0x00, 0x00, 0x00, 0x09, 0x94, 0x00, 0x00, 0x00,
  0xf4, 0xe3, 0xff, 0xff, 0x08, 0x00, 0x00, 0x00, 0x4c, 0x00, 0x00, 0x00, 0x08, 0x00, 0x00, 0x00, 0x00, 0x00, 0x00, 0x00,
  0x00, 0x00, 0x00, 0x00, 0x00, 0x00, 0x00, 0x00, 0x00, 0x00, 0x00, 0x00, 0x00, 0x00, 0x00, 0x00, 0x00, 0x00, 0x00, 0x00,
  0x00, 0x00, 0x00, 0x00, 0x00, 0x00, 0x00, 0x00, 0x00, 0x00, 0x00, 0x00, 0x00, 0x00, 0x00, 0x00, 0x00, 0x00, 0x00, 0x00,
  0x00, 0x00, 0x00, 0x00, 0x00, 0x00, 0x00, 0x00, 0x00, 0x00, 0x00, 0x00, 0x00, 0x00, 0x00, 0x00, 0x00, 0x00, 0x00, 0x00,
  0x00, 0x00, 0x00, 0x00, 0x08, 0x00, 0x00, 0x00, 0x66, 0x8a, 0x34, 0x3c, 0x9b, 0x67, 0x40, 0x3c, 0x1a, 0xe1, 0xfe, 0x3b,
  0x45, 0x91, 0x0e, 0x3c, 0x76, 0x49, 0x39, 0x3c, 0xdd, 0x82, 0xb2, 0x3c, 0xf1, 0xee, 0x8a, 0x3c, 0x2c, 0xbf, 0x24, 0x3b,
  0x13, 0x00, 0x00, 0x00, 0x74, 0x66, 0x6c, 0x2e, 0x70, 0x73, 0x65, 0x75, 0x64, 0x6f, 0x5f, 0x71, 0x63, 0x6f, 0x6e, 0x73,
  0x74, 0x33, 0x32, 0x00, 0x04, 0x00, 0x00, 0x00, 0x08, 0x00, 0x00, 0x00, 0x01, 0x00, 0x00, 0x00, 0x01, 0x00, 0x00, 0x00,
  0x01, 0x00, 0x00, 0x00, 0x26, 0xe2, 0xff, 0xff, 0x00, 0x00, 0x00, 0x01, 0x14, 0x00, 0x00, 0x00, 0x88, 0x00, 0x00, 0x00,
  0x2b, 0x00, 0x00, 0x00, 0x00, 0x00, 0x00, 0x02, 0x94, 0x00, 0x00, 0x00, 0xb4, 0xe4, 0xff, 0xff, 0x08, 0x00, 0x00, 0x00,
  0x4c, 0x00, 0x00, 0x00, 0x08, 0x00, 0x00, 0x00, 0x00, 0x00, 0x00, 0x00, 0x00, 0x00, 0x00, 0x00, 0x00, 0x00, 0x00, 0x00,
  0x00, 0x00, 0x00, 0x00, 0x00, 0x00, 0x00, 0x00, 0x00, 0x00, 0x00, 0x00, 0x00, 0x00, 0x00, 0x00, 0x00, 0x00, 0x00, 0x00,
  0x00, 0x00, 0x00, 0x00, 0x00, 0x00, 0x00, 0x00, 0x00, 0x00, 0x00, 0x00, 0x00, 0x00, 0x00, 0x00, 0x00, 0x00, 0x00, 0x00,
  0x00, 0x00, 0x00, 0x00, 0x00, 0x00, 0x00, 0x00, 0x00, 0x00, 0x00, 0x00, 0x00, 0x00, 0x00, 0x00, 0x08, 0x00, 0x00, 0x00,
  0xa0, 0x2f, 0x78, 0x38, 0x69, 0x3f, 0x84, 0x38, 0x67, 0x30, 0x2f, 0x38, 0x29, 0xfc, 0x43, 0x38, 0xf3, 0xb5, 0x7e, 0x38,
  0x6e, 0x65, 0xf5, 0x38, 0x41, 0xfd, 0xbe, 0x38, 0x79, 0x79, 0x62, 0x37, 0x13, 0x00, 0x00, 0x00, 0x74, 0x66, 0x6c, 0x2e,
  0x70, 0x73, 0x65, 0x75, 0x64, 0x6f, 0x5f, 0x71, 0x63, 0x6f, 0x6e, 0x73, 0x74, 0x33, 0x31, 0x00, 0x01, 0x00, 0x00, 0x00,
  0x08, 0x00, 0x00, 0x00, 0xda, 0xe2, 0xff, 0xff, 0x00, 0x00, 0x00, 0x01, 0x14, 0x00, 0x00, 0x00, 0x8c, 0x00, 0x00, 0x00,
