#ifndef __ECG_DENOISE_FLATBUFFER_H
#define __ECG_DENOISE_FLATBUFFER_H
const unsigned char ecg_denoise_flatbuffer[] = {
  0x1c, 0x00, 0x00, 0x00, 0x54, 0x46, 0x4c, 0x33, 0x14, 0x00, 0x20, 0x00, 0x1c, 0x00, 0x18, 0x00, 0x14, 0x00, 0x10, 0x00,
  0x0c, 0x00, 0x00, 0x00, 0x08, 0x00, 0x04, 0x00, 0x14, 0x00, 0x00, 0x00, 0x1c, 0x00, 0x00, 0x00, 0x84, 0x00, 0x00, 0x00,
  0xdc, 0x00, 0x00, 0x00, 0x14, 0x33, 0x00, 0x00, 0x24, 0x33, 0x00, 0x00, 0xd0, 0x59, 0x00, 0x00, 0x03, 0x00, 0x00, 0x00,
  0x01, 0x00, 0x00, 0x00, 0x04, 0x00, 0x00, 0x00, 0xe2, 0xc7, 0xff, 0xff, 0x0c, 0x00, 0x00, 0x00, 0x1c, 0x00, 0x00, 0x00,
  0x3c, 0x00, 0x00, 0x00, 0x0f, 0x00, 0x00, 0x00, 0x73, 0x65, 0x72, 0x76, 0x69, 0x6e, 0x67, 0x5f, 0x64, 0x65, 0x66, 0x61,
  0x75, 0x6c, 0x74, 0x00, 0x01, 0x00, 0x00, 0x00, 0x04, 0x00, 0x00, 0x00, 0x98, 0xff, 0xff, 0xff, 0x42, 0x00, 0x00, 0x00,
  0x04, 0x00, 0x00, 0x00, 0x08, 0x00, 0x00, 0x00, 0x6f, 0x75, 0x74, 0x70, 0x75, 0x74, 0x5f, 0x30, 0x00, 0x00, 0x00, 0x00,
  0x01, 0x00, 0x00, 0x00, 0x04, 0x00, 0x00, 0x00, 0x72, 0xcd, 0xff, 0xff, 0x04, 0x00, 0x00, 0x00, 0x06, 0x00, 0x00, 0x00,
  0x61, 0x72, 0x67, 0x73, 0x5f, 0x30, 0x00, 0x00, 0x02, 0x00, 0x00, 0x00, 0x34, 0x00, 0x00, 0x00, 0x04, 0x00, 0x00, 0x00,
  0xdc, 0xff, 0xff, 0xff, 0x45, 0x00, 0x00, 0x00, 0x04, 0x00, 0x00, 0x00, 0x13, 0x00, 0x00, 0x00, 0x43, 0x4f, 0x4e, 0x56,
  0x45, 0x52, 0x53, 0x49, 0x4f, 0x4e, 0x5f, 0x4d, 0x45, 0x54, 0x41, 0x44, 0x41, 0x54, 0x41, 0x00, 0x08, 0x00, 0x0c, 0x00,
  0x08, 0x00, 0x04, 0x00, 0x08, 0x00, 0x00, 0x00, 0x44, 0x00, 0x00, 0x00, 0x04, 0x00, 0x00, 0x00, 0x13, 0x00, 0x00, 0x00,
  0x6d, 0x69, 0x6e, 0x5f, 0x72, 0x75, 0x6e, 0x74, 0x69, 0x6d, 0x65, 0x5f, 0x76, 0x65, 0x72, 0x73, 0x69, 0x6f, 0x6e, 0x00,
  0x46, 0x00, 0x00, 0x00, 0x34, 0x32, 0x00, 0x00, 0x2c, 0x32, 0x00, 0x00, 0x18, 0x32, 0x00, 0x00, 0xfc, 0x31, 0x00, 0x00,
  0xcc, 0x31, 0x00, 0x00, 0x9c, 0x31, 0x00, 0x00, 0x7c, 0x31, 0x00, 0x00, 0x4c, 0x31, 0x00, 0x00, 0xfc, 0x30, 0x00, 0x00,
  0xac, 0x30, 0x00, 0x00, 0x7c, 0x30, 0x00, 0x00, 0x2c, 0x30, 0x00, 0x00, 0xbc, 0x2f, 0x00, 0x00, 0x4c, 0x2f, 0x00, 0x00,
  0x0c, 0x2f, 0x00, 0x00, 0x9c, 0x2e, 0x00, 0x00, 0x0c, 0x2e, 0x00, 0x00, 0xe0, 0x2d, 0x00, 0x00, 0xb4, 0x2d, 0x00, 0x00,
  0xc4, 0x2c, 0x00, 0x00, 0xf4, 0x2a, 0x00, 0x00, 0x44, 0x28, 0x00, 0x00, 0x30, 0x28, 0x00, 0x00, 0x00, 0x28, 0x00, 0x00,
  0x70, 0x27, 0x00, 0x00, 0xe0, 0x26, 0x00, 0x00, 0xd0, 0x24, 0x00, 0x00, 0xc0, 0x22, 0x00, 0x00, 0xb0, 0x20, 0x00, 0x00,
  0xa0, 0x1a, 0x00, 0x00, 0x10, 0x16, 0x00, 0x00, 0x80, 0x11, 0x00, 0x00, 0x70, 0x05, 0x00, 0x00, 0xe0, 0x01, 0x00, 0x00,
  0xc4, 0x01, 0x00, 0x00, 0xa4, 0x01, 0x00, 0x00, 0x90, 0x01, 0x00, 0x00, 0x78, 0x01, 0x00, 0x00, 0x70, 0x01, 0x00, 0x00,
  0x68, 0x01, 0x00, 0x00, 0x60, 0x01, 0x00, 0x00, 0x58, 0x01, 0x00, 0x00, 0x50, 0x01, 0x00, 0x00, 0x48, 0x01, 0x00, 0x00,
  0x40, 0x01, 0x00, 0x00, 0x38, 0x01, 0x00, 0x00, 0x30, 0x01, 0x00, 0x00, 0x28, 0x01, 0x00, 0x00, 0x20, 0x01, 0x00, 0x00,
  0x18, 0x01, 0x00, 0x00, 0x10, 0x01, 0x00, 0x00, 0x08, 0x01, 0x00, 0x00, 0x00, 0x01, 0x00, 0x00, 0xf8, 0x00, 0x00, 0x00,
  0xf0, 0x00, 0x00, 0x00, 0xe8, 0x00, 0x00, 0x00, 0xe0, 0x00, 0x00, 0x00, 0xd8, 0x00, 0x00, 0x00, 0xd0, 0x00, 0x00, 0x00,
  0xc8, 0x00, 0x00, 0x00, 0xc0, 0x00, 0x00, 0x00, 0xb8, 0x00, 0x00, 0x00, 0xb0, 0x00, 0x00, 0x00, 0xa8, 0x00, 0x00, 0x00,
  0xa0, 0x00, 0x00, 0x00, 0x98, 0x00, 0x00, 0x00, 0x90, 0x00, 0x00, 0x00, 0x88, 0x00, 0x00, 0x00, 0x68, 0x00, 0x00, 0x00,
  0x04, 0x00, 0x00, 0x00, 0xfe, 0xce, 0xff, 0xff, 0x04, 0x00, 0x00, 0x00, 0x54, 0x00, 0x00, 0x00, 0x0c, 0x00, 0x00, 0x00,
  0x08, 0x00, 0x0e, 0x00, 0x08, 0x00, 0x04, 0x00, 0x08, 0x00, 0x00, 0x00, 0x10, 0x00, 0x00, 0x00, 0x24, 0x00, 0x00, 0x00,
  0x00, 0x00, 0x06, 0x00, 0x08, 0x00, 0x04, 0x00, 0x06, 0x00, 0x00, 0x00, 0x04, 0x00, 0x00, 0x00, 0x00, 0x00, 0x00, 0x00,
  0x00, 0x00, 0x0a, 0x00, 0x10, 0x00, 0x0c, 0x00, 0x08, 0x00, 0x04, 0x00, 0x0a, 0x00, 0x00, 0x00, 0x03, 0x00, 0x00, 0x00,
  0x02, 0x00, 0x00, 0x00, 0x04, 0x00, 0x00, 0x00, 0x06, 0x00, 0x00, 0x00, 0x32, 0x2e, 0x31, 0x35, 0x2e, 0x30, 0x00, 0x00,
  0x5e, 0xcf, 0xff, 0xff, 0x04, 0x00, 0x00, 0x00, 0x10, 0x00, 0x00, 0x00, 0x31, 0x2e, 0x31, 0x34, 0x2e, 0x30, 0x00, 0x00,
  0x00, 0x00, 0x00, 0x00, 0x00, 0x00, 0x00, 0x00, 0xd0, 0xa8, 0xff, 0xff, 0xd4, 0xa8, 0xff, 0xff, 0xd8, 0xa8, 0xff, 0xff,
  0xdc, 0xa8, 0xff, 0xff, 0xe0, 0xa8, 0xff, 0xff, 0xe4, 0xa8, 0xff, 0xff, 0xe8, 0xa8, 0xff, 0xff, 0xec, 0xa8, 0xff, 0xff,
  0xf0, 0xa8, 0xff, 0xff, 0xf4, 0xa8, 0xff, 0xff, 0xf8, 0xa8, 0xff, 0xff, 0xfc, 0xa8, 0xff, 0xff, 0x00, 0xa9, 0xff, 0xff,
  0x04, 0xa9, 0xff, 0xff, 0x08, 0xa9, 0xff, 0xff, 0x0c, 0xa9, 0xff, 0xff, 0x10, 0xa9, 0xff, 0xff, 0x14, 0xa9, 0xff, 0xff,
  0x18, 0xa9, 0xff, 0xff, 0x1c, 0xa9, 0xff, 0xff, 0x20, 0xa9, 0xff, 0xff, 0x24, 0xa9, 0xff, 0xff, 0x28, 0xa9, 0xff, 0xff,
  0x2c, 0xa9, 0xff, 0xff, 0x30, 0xa9, 0xff, 0xff, 0x34, 0xa9, 0xff, 0xff, 0x38, 0xa9, 0xff, 0xff, 0x3c, 0xa9, 0xff, 0xff,
  0x40, 0xa9, 0xff, 0xff, 0x44, 0xa9, 0xff, 0xff, 0xf2, 0xcf, 0xff, 0xff, 0x04, 0x00, 0x00, 0x00, 0x08, 0x00, 0x00, 0x00,
  0x01, 0x00, 0x00, 0x00, 0x02, 0x00, 0x00, 0x00, 0x06, 0xd0, 0xff, 0xff, 0x04, 0x00, 0x00, 0x00, 0x04, 0x00, 0x00, 0x00,
  0x00, 0x00, 0x80, 0x3f, 0x16, 0xd0, 0xff, 0xff, 0x04, 0x00, 0x00, 0x00, 0x10, 0x00, 0x00, 0x00, 0x01, 0x00, 0x00, 0x00,
  0x01, 0x00, 0x00, 0x00, 0x00, 0x01, 0x00, 0x00, 0x01, 0x00, 0x00, 0x00, 0x32, 0xd0, 0xff, 0xff, 0x04, 0x00, 0x00, 0x00,
  0x0c, 0x00, 0x00, 0x00, 0x01, 0x00, 0x00, 0x00, 0x00, 0x01, 0x00, 0x00, 0x01, 0x00, 0x00, 0x00, 0x4a, 0xd0, 0xff, 0xff,
  0x04, 0x00, 0x00, 0x00, 0x80, 0x03, 0x00, 0x00, 0x93, 0x44, 0xaf, 0x3d, 0x61, 0x3e, 0x99, 0xbd, 0xdb, 0xf1, 0x22, 0xbc,
  0x50, 0x80, 0x46, 0xbc, 0xde, 0x7f, 0x9e, 0x3d, 0x5f, 0xd3, 0x0f, 0xbd, 0xfb, 0x4a, 0xd7, 0xbb, 0x35, 0x4a, 0xdd, 0x3d,
  0x74, 0xa8, 0x3d, 0x3c, 0xb0, 0xc2, 0x00, 0xbd, 0xe3, 0xce, 0x9e, 0x3d, 0x61, 0x69, 0x97, 0xbc, 0x67, 0xc9, 0x1c, 0x3d,
  0x3e, 0xf6, 0xec, 0x3c, 0xd2, 0x20, 0x09, 0x3e, 0x05, 0x4c, 0x3b, 0x3d, 0xd3, 0xd6, 0xb7, 0xbd, 0xf8, 0x94, 0x56, 0xbd,
  0xc7, 0x7f, 0xc6, 0x3d, 0xdb, 0x73, 0xf5, 0xbc, 0x01, 0x13, 0x0a, 0x3b, 0x16, 0x78, 0x52, 0xbc, 0xd1, 0x73, 0xbe, 0xbd,
  0xb4, 0x86, 0x82, 0xbd, 0xb6, 0xdc, 0x5b, 0xbd, 0x1f, 0xd6, 0x9b, 0xbd, 0xf4, 0x3e, 0x6b, 0x3d, 0x73, 0x7e, 0xa2, 0x3d,
  0xb5, 0x03, 0x42, 0x3c, 0x21, 0x4c, 0x6a, 0x3b, 0x0d, 0x75, 0xc3, 0xbd, 0x0e, 0x87, 0x26, 0x3c, 0x79, 0x55, 0xb5, 0x3d,
  0xaa, 0x1e, 0x34, 0xbc, 0x31, 0x82, 0xb3, 0x3d, 0x5a, 0x23, 0xd2, 0xbd, 0xb8, 0x00, 0x94, 0x3d, 0x6a, 0x8a, 0x6a, 0xbd,
  0xa0, 0xf5, 0x08, 0xbe, 0x68, 0xc6, 0xc6, 0x3d, 0x05, 0x09, 0x06, 0x3d, 0xa8, 0xef, 0x18, 0xbd, 0xff, 0xeb, 0x12, 0x3e,
  0x1d, 0x3a, 0xa4, 0x3d, 0xc7, 0x4d, 0x78, 0x3d, 0xf3, 0x59, 0xb3, 0xbb, 0x19, 0x7b, 0xad, 0x3d, 0x0c, 0x85, 0x63, 0xbd,
  0x9d, 0x98, 0x93, 0xbd, 0x54, 0xfb, 0x02, 0x3d, 0x6a, 0xd8, 0x6a, 0x3d, 0x01, 0xbb, 0xc7, 0xbc, 0x9e, 0x2b, 0x6e, 0x3b,
  0x29, 0x46, 0x3f, 0xbd, 0xe9, 0x91, 0xf4, 0xbd, 0x6b, 0xb5, 0x9c, 0xbd, 0x23, 0x50, 0xcf, 0xbd, 0xfe, 0xe4, 0x53, 0xbd,
  0x79, 0x7e, 0x80, 0x3c, 0x9d, 0x8d, 0x01, 0x3e, 0x46, 0x7d, 0xa2, 0xbd, 0x86, 0xee, 0x04, 0x3e, 0xf9, 0x79, 0x89, 0xbd,
  0xf5, 0x15, 0x93, 0x3c, 0x2b, 0x64, 0x8d, 0x3d, 0x07, 0x59, 0xde, 0x3c, 0xa5, 0xdf, 0x11, 0x3d, 0x33, 0x00, 0xa5, 0xbd,
  0xa4, 0xe4, 0x85, 0x3d, 0x06, 0xb2, 0xac, 0xbd, 0x36, 0x81, 0xb5, 0xbd, 0xcd, 0xf7, 0xbf, 0x3d, 0xb1, 0xe1, 0xa0, 0x3d,
  0xb9, 0x12, 0x54, 0xbd, 0x5b, 0xfd, 0xf4, 0x3d, 0x08, 0x3f, 0x1a, 0xbc, 0xd7, 0xa0, 0xa0, 0xbc, 0xe3, 0xbf, 0xa0, 0x3d,
  0xff, 0x94, 0x89, 0x3d, 0x77, 0x0a, 0x0e, 0x3b, 0x20, 0xd7, 0x3a, 0xbd, 0x76, 0x9f, 0x53, 0xbd, 0x1f, 0x74, 0xd3, 0x3c,
  0xc3, 0xa0, 0x2b, 0xbd, 0x84, 0x1b, 0x87, 0x3d, 0x67, 0x53, 0x5c, 0xbd, 0x83, 0xf8, 0xd3, 0xbd, 0xd5, 0xda, 0xc4, 0xbd,
  0xf4, 0x64, 0x5d, 0xbd, 0x4e, 0x1b, 0x37, 0xbd, 0xc4, 0x6f, 0x34, 0xbd, 0x9d, 0xa0, 0x1d, 0x3e, 0xfd, 0x23, 0xd1, 0x3d,
  0x49, 0x97, 0x95, 0xbd, 0x6a, 0xc9, 0x97, 0xbd, 0x64, 0xee, 0x59, 0xbd, 0x03, 0x1b, 0xf7, 0x3c, 0x6b, 0x29, 0x45, 0xbd,
  0x81, 0xd0, 0x08, 0x3e, 0x3a, 0x5d, 0x8c, 0xbd, 0x9e, 0xa6, 0xbb, 0x3d, 0xee, 0x66, 0xa4, 0xbd, 0xb3, 0xdf, 0xb1, 0x3c,
  0x45, 0xef, 0x1b, 0x3e, 0xe1, 0x23, 0xc2, 0x3d, 0x06, 0xc8, 0xaf, 0xbd, 0xda, 0x3a, 0x4f, 0x3d, 0x39, 0x6e, 0x7f, 0xbd,
  0x7c, 0x8f, 0xc6, 0xbd, 0xba, 0x7a, 0xdf, 0x3d, 0xbf, 0xa2, 0xce, 0x3d, 0x56, 0x42, 0xd1, 0x3c, 0xcd, 0x74, 0x48, 0xbd,
  0x65, 0xae, 0xf8, 0x3c, 0x57, 0x01, 0xdc, 0x3c, 0xf3, 0xf7, 0x98, 0xbd, 0x3a, 0x0d, 0xa5, 0xbc, 0xd4, 0xcf, 0x3c, 0xbd,
  0x70, 0x64, 0xef, 0xbd, 0x0e, 0xf8, 0x52, 0xbd, 0xe0, 0xcf, 0xa2, 0x39, 0x22, 0x3c, 0xc5, 0xbd, 0x3e, 0x0b, 0x00, 0xbe,
  0x96, 0xb1, 0xd2, 0x3d, 0xe5, 0x4e, 0x19, 0xbe, 0x62, 0x29, 0xfa, 0xbd, 0x31, 0x55, 0x79, 0xbd, 0x9b, 0xd1, 0xc5, 0xbd,
  0x6f, 0xba, 0xd1, 0xbc, 0xbf, 0x45, 0x4b, 0xbd, 0x35, 0x9f, 0x31, 0xbd, 0xe6, 0x43, 0x0e, 0xbc, 0x63, 0x0b, 0x14, 0x3d,
  0x8b, 0x87, 0x91, 0xbd, 0x3e, 0xaa, 0x5c, 0x3d, 0x97, 0x90, 0x91, 0x3d, 0xfc, 0x56, 0xdb, 0x3d, 0x5f, 0x4d, 0x34, 0xbd,
  0x8e, 0x66, 0xee, 0x3d, 0xde, 0x2b, 0x37, 0x3e, 0xba, 0xe8, 0x3c, 0xbd, 0x59, 0xbd, 0xa5, 0x3d, 0x07, 0x9d, 0x3c, 0xbc,
  0xe2, 0x13, 0x55, 0xbd, 0x3e, 0xba, 0x8b, 0xbd, 0x1c, 0x33, 0x8b, 0x3d, 0x8c, 0x8d, 0xd9, 0xbb, 0xbd, 0xc5, 0xdb, 0x3c,
  0x77, 0x00, 0x2a, 0x3d, 0x0c, 0x5e, 0xd3, 0xbc, 0x8e, 0x5c, 0x31, 0xbd, 0xaf, 0xa7, 0xac, 0xbd, 0x32, 0x6c, 0xe2, 0x3d,
  0xb5, 0x61, 0x9d, 0xbd, 0x69, 0x9f, 0xef, 0xbd, 0x09, 0x0c, 0x56, 0x3d, 0xa9, 0x0e, 0x88, 0xbd, 0xf2, 0xf2, 0x23, 0xbe,
  0x16, 0xa2, 0x7d, 0x3c, 0xbf, 0x0f, 0xcd, 0xbc, 0x77, 0xa0, 0x96, 0x3c, 0xef, 0x94, 0x99, 0xbd, 0x07, 0x6b, 0xa2, 0xbd,
  0xeb, 0xc5, 0x76, 0xbd, 0xe5, 0x09, 0xe1, 0x3b, 0x2e, 0x5f, 0x8e, 0xbd, 0x33, 0xc5, 0x41, 0x3d, 0x2d, 0x09, 0x9c, 0x3b,
  0x05, 0x2a, 0x59, 0x3d, 0xae, 0x4c, 0x75, 0xbd, 0xa4, 0x55, 0xa6, 0x3d, 0x65, 0x55, 0x90, 0xbd, 0x74, 0xc2, 0x66, 0xbc,
  0x7c, 0xa9, 0x02, 0x3c, 0x22, 0xc4, 0x5b, 0x3d, 0x1f, 0xf5, 0x0e, 0x3e, 0x3d, 0xd4, 0x1c, 0xbd, 0xc5, 0xb6, 0xb6, 0x3d,
  0x21, 0xcd, 0xf1, 0x3a, 0x71, 0xa4, 0xbe, 0x3d, 0xa4, 0xef, 0xdf, 0x3d, 0x69, 0x81, 0x75, 0xbd, 0x03, 0x02, 0x9c, 0xbb,
  0x4e, 0x09, 0xc0, 0x3d, 0x94, 0xf1, 0x7a, 0x3d, 0x9a, 0xa7, 0x24, 0x3b, 0x08, 0x4e, 0x08, 0xbc, 0xb8, 0x61, 0x93, 0x3d,
  0x70, 0xd3, 0x1b, 0x3d, 0x3b, 0x15, 0x9d, 0xbd, 0xb9, 0x7a, 0x06, 0xbc, 0xb2, 0x49, 0xf9, 0xbc, 0xa9, 0x25, 0xf4, 0x3a,
  0x13, 0xd4, 0x7b, 0xbd, 0x4e, 0x6a, 0x45, 0x3d, 0x29, 0x07, 0x86, 0xbd, 0xee, 0xb8, 0xc8, 0x3c, 0x34, 0x51, 0x80, 0xbd,
  0x60, 0x76, 0xeb, 0x3c, 0x30, 0xdf, 0xb5, 0x3c, 0x40, 0xe1, 0xb1, 0x3c, 0x2f, 0xbf, 0x0a, 0xbd, 0xb1, 0x17, 0x23, 0x3d,
  0x20, 0xc8, 0x63, 0xbd, 0x09, 0x1d, 0x29, 0xbc, 0x81, 0x73, 0x5f, 0x3d, 0x3e, 0x33, 0x49, 0x3d, 0xdb, 0x70, 0x8a, 0xbd,
  0x95, 0x58, 0xf9, 0xbc, 0x19, 0x9a, 0xac, 0x3d, 0xf5, 0xa4, 0xdd, 0x3d, 0x63, 0x9d, 0x64, 0x3d, 0x99, 0xc0, 0x80, 0x3d,
  0x03, 0xf2, 0x19, 0xbd, 0x8c, 0xa8, 0xe0, 0xbb, 0x05, 0x53, 0x0a, 0x3e, 0x47, 0xab, 0x15, 0xbd, 0x0c, 0x01, 0xf3, 0xbb,
  0x9a, 0x5c, 0x4c, 0xbd, 0xdc, 0xd9, 0xf2, 0x3a, 0xd8, 0x2c, 0xe9, 0x3c, 0x4d, 0xeb, 0x02, 0x3d, 0x8a, 0xb2, 0x30, 0xbc,
  0x8a, 0xda, 0x60, 0xbd, 0xd6, 0xd3, 0xff, 0xff, 0x04, 0x00, 0x00, 0x00, 0x00, 0x0c, 0x00, 0x00, 0xa6, 0xf4, 0xe4, 0xbd,
  0x72, 0x14, 0xb9, 0x3f, 0xb8, 0x47, 0xb2, 0x3e, 0x8b, 0xcc, 0xeb, 0xbe, 0xff, 0x5f, 0xea, 0x3d, 0xea, 0xb8, 0x02, 0xbf,
  0x8f, 0x67, 0xc2, 0xbe, 0xa8, 0x99, 0x24, 0xbf, 0x57, 0x5d, 0xa2, 0xbe, 0x94, 0x63, 0xa4, 0x3f, 0x56, 0x3c, 0x92, 0x3e,
  0x24, 0x9c, 0x92, 0x3f, 0x9b, 0x22, 0x61, 0xbf, 0x06, 0x3c, 0x14, 0x3f, 0x16, 0x0a, 0x23, 0xbf, 0x47, 0xb5, 0x3c, 0x3f,
  0x57, 0x53, 0xae, 0x3f, 0x7a, 0x75, 0x93, 0x3e, 0x90, 0x7b, 0xe3, 0x3d, 0x83, 0xf8, 0x66, 0xbe, 0xc9, 0x39, 0xee, 0x3f,
  0xa9, 0x65, 0xb7, 0xbf, 0xa1, 0xb2, 0xe5, 0x3e, 0xe4, 0x89, 0x8b, 0xbf, 0x1e, 0x18, 0xef, 0xbd, 0xcd, 0xe0, 0x21, 0x3e,
  0x6f, 0xc6, 0x32, 0xbe, 0xf9, 0x2c, 0xa4, 0xbd, 0x31, 0x65, 0x82, 0xbe, 0x82, 0xe3, 0x3e, 0xbf, 0x0f, 0x22, 0x69, 0xbe,
  0xd2, 0x45, 0x85, 0x3e, 0x46, 0x4a, 0x92, 0xbe, 0x22, 0x8c, 0x86, 0x3f, 0xf0, 0x42, 0x51, 0x3f, 0x18, 0xda, 0x4f, 0x3f,
  0x38, 0x8e, 0xad, 0xbe, 0xbe, 0xe5, 0x58, 0x3f, 0xac, 0xb5, 0x57, 0x3e, 0xb3, 0x82, 0x2f, 0x3e, 0x26, 0x0c, 0xca, 0x3d,
  0x84, 0x88, 0x72, 0xbe, 0x16, 0xc4, 0xb4, 0x3f, 0xda, 0x8a, 0x29, 0xbe, 0xeb, 0x69, 0x6d, 0x3f, 0x3e, 0xdd, 0x8a, 0xbf,
  0x6d, 0x50, 0x06, 0x3e, 0x82, 0x76, 0x62, 0x3e, 0x53, 0x3b, 0x95, 0x3e, 0x4b, 0x19, 0xc1, 0x3d, 0x34, 0x87, 0x46, 0x3e,
  0x76, 0xd5, 0x0d, 0x3d, 0xa9, 0xfb, 0x37, 0x3f, 0x98, 0x29, 0x90, 0x3e, 0x09, 0xab, 0x16, 0x3f, 0x0c, 0xc1, 0x0b, 0xbf,
  0xa9, 0x68, 0x9a, 0x3e, 0x93, 0x34, 0x62, 0x3e, 0x7b, 0xd3, 0x3c, 0xbf, 0xec, 0x43, 0xae, 0x3d, 0xef, 0x75, 0x87, 0xbd,
  0xc8, 0x56, 0xe4, 0x3e, 0xff, 0xee, 0xc0, 0x3e, 0x11, 0x35, 0x3c, 0x3f, 0x68, 0x7a, 0xde, 0x3e, 0x14, 0x2f, 0x98, 0x3c,
  0xa8, 0x38, 0x97, 0x3f, 0xb6, 0x93, 0xbe, 0xbe, 0xeb, 0xbb, 0xb3, 0x3d, 0x53, 0x1e, 0x7b, 0xbe, 0x75, 0x16, 0xb9, 0xbd,
  0x80, 0x29, 0xaa, 0xbe, 0xeb, 0x9e, 0x9c, 0x3d, 0x61, 0xe3, 0x1e, 0x3e, 0x86, 0x86, 0xb9, 0x3c, 0xac, 0x5c, 0xa1, 0xbe,
  0xb5, 0x29, 0xb4, 0x3f, 0x78, 0xb9, 0x36, 0x3f, 0x90, 0x84, 0x0c, 0x3f, 0xa6, 0x7b, 0x52, 0xbd, 0x08, 0xc7, 0xba, 0x3d,
  0x36, 0x12, 0xed, 0xbe, 0xa5, 0x81, 0xec, 0xbe, 0xe6, 0x3c, 0x02, 0xbf, 0xf4, 0xeb, 0xb3, 0x3e, 0xf3, 0xcf, 0xb9, 0x3e,
  0x93, 0xc0, 0xd5, 0xbe, 0x47, 0xbe, 0xa8, 0xbf, 0xe8, 0x1f, 0x91, 0x3d, 0xc6, 0xfa, 0xb0, 0x3f, 0x6f, 0xae, 0x88, 0x3f,
  0x6a, 0x31, 0xd5, 0xbe, 0xe8, 0x7e, 0x92, 0xbf, 0xdd, 0xfb, 0x47, 0xbf, 0x0d, 0x05, 0x21, 0xbe, 0x05, 0x33, 0x9f, 0x3e,
  0xa6, 0x6f, 0x95, 0xbe, 0xee, 0xda, 0xcf, 0x3d, 0x14, 0x96, 0xec, 0xbe, 0x97, 0x9c, 0xe7, 0x3c, 0xbe, 0xc0, 0xce, 0xbe,
  0x3e, 0x3b, 0xa8, 0xbe, 0x10, 0x17, 0xbe, 0x3f, 0xf8, 0x15, 0xe3, 0x3d, 0xd4, 0x54, 0x36, 0x3d, 0x7e, 0x3c, 0x9c, 0xbe,
  0xae, 0x3b, 0xbd, 0xbe, 0xe0, 0x0e, 0x96, 0x3d, 0xa7, 0xd2, 0xfd, 0x3d, 0xa5, 0x29, 0x19, 0xbd, 0x92, 0x0b, 0xa4, 0x3e,
  0xfd, 0x71, 0xb9, 0x3f, 0xb2, 0xd2, 0xce, 0xbd, 0x6a, 0xaa, 0x47, 0x3e, 0x38, 0xba, 0x3a, 0xbf, 0xc5, 0x2d, 0xb5, 0x3e,
  0xc9, 0x48, 0x3d, 0xbf, 0x8c, 0x3c, 0x4c, 0x3e, 0x5c, 0xe3, 0x33, 0x3f, 0xaa, 0xcb, 0xcc, 0xbd, 0x91, 0x5f, 0x79, 0xbe,
  0xbc, 0xf5, 0x27, 0xbf, 0x21, 0xc2, 0x44, 0x3f, 0x9e, 0xe5, 0x2e, 0x3f, 0x39, 0x05, 0x87, 0xbf, 0xd5, 0x37, 0xab, 0xbf,
  0x53, 0xad, 0x0c, 0xbf, 0xce, 0xe4, 0x89, 0x3f, 0x40, 0xc8, 0x5b, 0xbf, 0x21, 0xb0, 0xc4, 0x3f, 0xd6, 0x26, 0x9c, 0x3d,
  0xd4, 0x53, 0x14, 0x3f, 0xb0, 0x48, 0x7b, 0xbe, 0x2d, 0xa0, 0xa7, 0xbe, 0x76, 0xae, 0x91, 0xbe, 0x95, 0x13, 0x78, 0x3f,
  0xc3, 0xd7, 0x47, 0xbe, 0x07, 0xb4, 0x63, 0x3f, 0x04, 0xfa, 0x41, 0xbf, 0x1e, 0x06, 0xaa, 0xbe, 0x0a, 0xe8, 0x49, 0x3f,
  0x3a, 0xda, 0x10, 0xbf, 0x3e, 0xb2, 0xcf, 0x3d, 0xa7, 0x12, 0xcd, 0x3c, 0x47, 0x82, 0xa3, 0x3d, 0xf0, 0xdd, 0x61, 0x3f,
  0xd1, 0x74, 0xb6, 0x3e, 0x74, 0xb3, 0xf5, 0x3d, 0x99, 0x8d, 0xa9, 0x3e, 0x84, 0x0d, 0x91, 0xbf, 0x04, 0x49, 0x48, 0xbf,
  0x25, 0x99, 0xa7, 0x3d, 0x91, 0xd0, 0xd7, 0x3e, 0x45, 0xa7, 0x84, 0x3f, 0x3e, 0x15, 0xcf, 0x3e, 0xb2, 0xcf, 0x8d, 0x3f,
  0xfd, 0xbd, 0x33, 0xbf, 0x43, 0x36, 0xb2, 0x3f, 0xd7, 0xf0, 0xa6, 0xbe, 0x6b, 0x67, 0x31, 0x3f, 0xaa, 0x11, 0x28, 0x3f,
  0xd9, 0x55, 0xd4, 0x3e, 0x86, 0x8f, 0xab, 0x3f, 0x61, 0x92, 0xaf, 0xbe, 0xed, 0xf5, 0x82, 0xbf, 0x24, 0xdc, 0xaa, 0xbd,
  0x66, 0x4c, 0xcd, 0xbe, 0x27, 0x3f, 0x29, 0xbf, 0xff, 0x72, 0x75, 0xbe, 0x2e, 0x5d, 0x27, 0x3f, 0x61, 0x3a, 0x98, 0xbc,
  0x92, 0x87, 0x32, 0xbc, 0xf2, 0x45, 0x1d, 0xc0, 0x6b, 0xa6, 0xb4, 0xbe, 0xae, 0xaa, 0xd4, 0x3e, 0xa2, 0x7a, 0x4d, 0xbf,
  0xc3, 0xf7, 0x15, 0xbf, 0x5f, 0x27, 0x61, 0x3e, 0x4b, 0x1c, 0x95, 0x3d, 0x50, 0xcc, 0x97, 0xbf, 0x98, 0xbb, 0xfc, 0xbe,
  0x22, 0x00, 0x15, 0x3f, 0xfa, 0x6d, 0x8f, 0xbe, 0xf1, 0xc9, 0x10, 0xbf, 0x88, 0xa6, 0xcf, 0x3f, 0xef, 0xa9, 0xb2, 0xbf,
  0x04, 0xc1, 0xf3, 0x3c, 0x95, 0xca, 0x9b, 0xbe, 0x1f, 0x34, 0x08, 0x40, 0xa6, 0x6a, 0x10, 0xbf, 0x67, 0x1c, 0xab, 0xbe,
  0x77, 0x21, 0xa5, 0x3e, 0x3f, 0x0b, 0x89, 0xbd, 0xb7, 0xa6, 0x1c, 0x3f, 0x80, 0x0f, 0xdd, 0xbc, 0x84, 0xdc, 0x32, 0xbe,
  0xf8, 0xae, 0x66, 0xbf, 0xc4, 0xc3, 0x8e, 0x3f, 0x93, 0xd3, 0x5b, 0x3e, 0x86, 0x07, 0x46, 0xbf, 0x41, 0x42, 0xb5, 0x3e,
  0xaa, 0xac, 0x07, 0x3f, 0x5e, 0x74, 0x3c, 0x3f, 0x38, 0xba, 0x33, 0xbe, 0x8b, 0x65, 0x38, 0xbf, 0x97, 0x4e, 0x66, 0x3f,
  0x4f, 0x95, 0x5b, 0x3e, 0xea, 0x2a, 0xb7, 0xbf, 0x99, 0x59, 0x91, 0x3e, 0x38, 0xf7, 0x21, 0xbf, 0x3d, 0xe7, 0xb2, 0x3d,
  0x92, 0x22, 0x8d, 0xbe, 0x84, 0xc3, 0x44, 0x3f, 0x9e, 0x31, 0x60, 0x3f, 0x01, 0x81, 0xd0, 0xbf, 0xa7, 0xb0, 0x31, 0xbf,
  0xde, 0xc8, 0x74, 0xbf, 0x20, 0xf3, 0x68, 0xbe, 0xf9, 0xbf, 0x87, 0x3d, 0xb3, 0x3b, 0x35, 0x3f, 0xbf, 0x28, 0xc4, 0xbf,
  0xd6, 0xa1, 0xe7, 0x3e, 0x37, 0x90, 0x20, 0xbe, 0x8e, 0x12, 0x5e, 0xbe, 0x88, 0x3d, 0x15, 0xbf, 0x7c, 0xde, 0x10, 0x3d,
  0x74, 0x33, 0x45, 0xbf, 0x4e, 0x2e, 0x01, 0xbf, 0xe2, 0x88, 0x0f, 0xbf, 0x26, 0x19, 0x28, 0x3e, 0x2c, 0x7e, 0x0a, 0x3f,
  0xb7, 0xce, 0x02, 0xbe, 0xfb, 0x45, 0x66, 0x3c, 0x6a, 0x0c, 0x89, 0x3f, 0xdd, 0x03, 0x2f, 0x3f, 0x92, 0x7a, 0xf5, 0x3d,
  0xb8, 0x58, 0x20, 0xbf, 0x58, 0xe8, 0x0a, 0x40, 0x5c, 0x2e, 0x85, 0xbf, 0xd6, 0x81, 0x50, 0x3f, 0x97, 0x9a, 0x8f, 0xbe,
  0xd1, 0x54, 0xa7, 0x3f, 0x28, 0x74, 0x93, 0x3e, 0x07, 0x33, 0xc2, 0xbe, 0xe2, 0x4d, 0x27, 0x3e, 0x0a, 0xf6, 0x3c, 0xbf,
  0x04, 0xd2, 0x7c, 0x3e, 0xd2, 0xd7, 0x7b, 0xbe, 0x7a, 0x36, 0xaa, 0x3e, 0x84, 0x57, 0x83, 0x3f, 0x3c, 0xd0, 0x91, 0x3f,
  0xec, 0xc8, 0x9b, 0x3f, 0x7c, 0xbe, 0xef, 0xbe, 0x73, 0x39, 0x3b, 0x3f, 0xff, 0x4b, 0xae, 0xbe, 0x2a, 0xf5, 0xb8, 0xbe,
  0x74, 0x89, 0xa5, 0x3f, 0xcf, 0x99, 0x05, 0x3e, 0x49, 0x7f, 0xb8, 0x3f, 0x40, 0x8c, 0x88, 0xbd, 0x4c, 0x1b, 0x13, 0x3f,
  0x0b, 0x83, 0xbf, 0xbf, 0x27, 0x95, 0xad, 0x3e, 0x96, 0x1b, 0x35, 0xbf, 0xfd, 0x65, 0x8d, 0xbe, 0x69, 0x1c, 0x8d, 0x3e,
  0x2b, 0x9f, 0x19, 0x3e, 0x9e, 0x6d, 0x6f, 0x3e, 0x59, 0x63, 0x68, 0xbf, 0x19, 0xaa, 0xdc, 0xbd, 0xbe, 0x04, 0x01, 0xbe,
  0x66, 0x32, 0xd7, 0x3e, 0x3f, 0x99, 0xd9, 0x3d, 0xd3, 0xc7, 0xe0, 0x3e, 0x4c, 0xa3, 0x06, 0x40, 0x7d, 0x7c, 0x9b, 0xbd,
  0xb2, 0x09, 0x1e, 0xbe, 0xd4, 0xa3, 0x07, 0x3f, 0xf2, 0x9b, 0x97, 0xbf, 0xac, 0x25, 0x0a, 0x3f, 0xdf, 0xde, 0x31, 0x3f,
  0xd0, 0xc8, 0xae, 0x3e, 0x8d, 0x54, 0x6b, 0x3e, 0x4c, 0x33, 0x68, 0xbe, 0x63, 0xe9, 0x04, 0x3f, 0x82, 0x35, 0x1a, 0xbe,
  0x47, 0xfd, 0x5b, 0x3e, 0x3d, 0xdf, 0x18, 0x3d, 0xd9, 0x3e, 0x13, 0x3f, 0xbb, 0xbf, 0x9f, 0xbf, 0xfe, 0xac, 0xe0, 0xbb,
  0x6f, 0x0d, 0x1e, 0xbf, 0xa9, 0x54, 0x79, 0xbf, 0x63, 0xe0, 0xe6, 0x3d, 0x46, 0xcc, 0x9c, 0x3e, 0x28, 0xee, 0x8b, 0xbd,
  0x99, 0x61, 0x09, 0xbf, 0xdd, 0xa6, 0x91, 0x3f, 0x70, 0x02, 0xd7, 0x3f, 0x39, 0x5d, 0x17, 0x3b, 0xe6, 0x85, 0x27, 0xbf,
  0xec, 0x3e, 0x8f, 0xbe, 0xc2, 0x08, 0xb9, 0xbe, 0x08, 0x37, 0x2e, 0xbe, 0xe0, 0xcb, 0x47, 0x3f, 0xfb, 0x57, 0x8f, 0xbe,
  0x1d, 0x54, 0xcb, 0x3e, 0x94, 0x3f, 0x3d, 0xbe, 0x41, 0xb8, 0x04, 0x40, 0xc8, 0xfd, 0x84, 0xbe, 0xe5, 0xdb, 0xeb, 0x3d,
  0x59, 0x93, 0x1f, 0x3f, 0x4a, 0xd9, 0x31, 0x3a, 0x7b, 0x64, 0x71, 0x3f, 0x0b, 0x61, 0x24, 0x3e, 0x03, 0x1e, 0x2b, 0x3d,
  0x6a, 0xe1, 0x53, 0x3e, 0x07, 0xe1, 0x23, 0xbf, 0x91, 0x7d, 0x0b, 0xbf, 0xdc, 0x2b, 0x08, 0xbe, 0x6c, 0x03, 0xf1, 0xbc,
  0xfb, 0x70, 0x35, 0x3f, 0xc2, 0x4b, 0x31, 0x3f, 0xe5, 0xb3, 0x7b, 0x3f, 0x72, 0x11, 0x55, 0x3e, 0x25, 0x61, 0xc0, 0x3e,
  0x22, 0x9c, 0x71, 0x3e, 0x38, 0x88, 0xd9, 0x3e, 0x8c, 0x1f, 0xb3, 0x3e, 0xc8, 0xb5, 0x6e, 0xbd, 0x35, 0xd7, 0xe6, 0xbf,
  0x37, 0xfd, 0xf9, 0x3d, 0x63, 0x53, 0x8b, 0x3f, 0x1f, 0xf8, 0x8e, 0xbe, 0xe7, 0x83, 0x3b, 0xbe, 0x18, 0x8d, 0xc0, 0xbe,
  0xf5, 0xf1, 0x4f, 0xbc, 0xa0, 0xc4, 0xa5, 0x3e, 0x20, 0x06, 0xcb, 0x3d, 0x49, 0xe2, 0xde, 0xbd, 0x45, 0xfb, 0xca, 0xbe,
  0xf4, 0x76, 0x37, 0x3e, 0x3d, 0xb5, 0xd9, 0xbd, 0x3e, 0xc1, 0x7c, 0xbe, 0x47, 0xe1, 0x25, 0xbf, 0x30, 0x38, 0xcc, 0x3e,
  0x1c, 0x72, 0x8c, 0x3d, 0x34, 0x7e, 0x18, 0x3e, 0x66, 0x04, 0x09, 0xbe, 0x2a, 0xbd, 0x31, 0x3e, 0xed, 0x9d, 0x96, 0x3e,
  0x4e, 0x63, 0x5e, 0xbf, 0xa9, 0x61, 0xa3, 0x3e, 0xaa, 0xf2, 0x21, 0xbf, 0x94, 0x2d, 0xc4, 0x3f, 0xb5, 0x43, 0x90, 0x3e,
  0xa5, 0xa8, 0x11, 0xbf, 0xbb, 0xcd, 0x29, 0xbe, 0xb7, 0xb7, 0xef, 0xbe, 0xef, 0x03, 0x02, 0xbd, 0x38, 0xb6, 0x3c, 0x3e,
  0x2b, 0xd4, 0x3f, 0x3f, 0x2c, 0x99, 0x08, 0x3e, 0xa1, 0x9c, 0xf6, 0x3e, 0xb1, 0xa3, 0xc8, 0xbe, 0xd1, 0x33, 0xe0, 0x3d,
  0x07, 0x31, 0xc0, 0x3e, 0xc5, 0xe0, 0xee, 0x3d, 0xef, 0x8c, 0x31, 0x3f, 0x99, 0x99, 0x81, 0xbd, 0xcb, 0xd0, 0xeb, 0xbd,
  0x41, 0x9b, 0xd2, 0x3c, 0x26, 0x25, 0xd8, 0xbe, 0xab, 0x2f, 0xf1, 0x3e, 0x9a, 0xed, 0x25, 0xbf, 0xe2, 0x7f, 0x16, 0x3f,
  0xb0, 0x8f, 0x6b, 0x3d, 0x1b, 0x63, 0x0b, 0xbf, 0xea, 0x08, 0x92, 0x3d, 0x44, 0x22, 0xd7, 0xbd, 0xa1, 0xc5, 0x57, 0x3f,
  0x16, 0xce, 0x87, 0xbe, 0x21, 0x08, 0xc4, 0x3e, 0x7e, 0x56, 0x96, 0xbd, 0x57, 0xc1, 0xf3, 0xbd, 0xfa, 0xbc, 0xd8, 0xbd,
  0x0f, 0xe4, 0xc5, 0x3d, 0xe0, 0x55, 0x09, 0x3f, 0x9f, 0xab, 0x33, 0xbf, 0x12, 0x45, 0xbf, 0xbe, 0xeb, 0xdb, 0x53, 0x3e,
  0xa5, 0xb1, 0x8b, 0xbe, 0x44, 0xd1, 0x8d, 0xbd, 0x91, 0x74, 0x83, 0x3e, 0x76, 0xa1, 0xd1, 0xbe, 0x3b, 0x7a, 0x8b, 0xbe,
  0x5a, 0xb9, 0x07, 0x3f, 0x1a, 0x71, 0xba, 0xbd, 0x67, 0xf9, 0x21, 0x3e, 0x4a, 0xe2, 0xc3, 0x3f, 0x97, 0x58, 0x1f, 0x3c,
  0xc9, 0xcf, 0x70, 0x3e, 0x8b, 0x56, 0x68, 0xbf, 0x9e, 0xc8, 0x99, 0x3d, 0xb9, 0xe9, 0x2a, 0xbf, 0x52, 0xdc, 0x9f, 0x3d,
  0x38, 0x2c, 0x30, 0x3e, 0x93, 0xdf, 0xd4, 0xbd, 0x8e, 0x6e, 0x96, 0x3d, 0xdc, 0xb5, 0x22, 0xbf, 0x6b, 0x2c, 0x8f, 0x3e,
  0x0c, 0x5a, 0x93, 0x3e, 0xfd, 0x86, 0x13, 0x3c, 0xec, 0x93, 0x73, 0x3f, 0xa0, 0x30, 0x7c, 0x3e, 0xec, 0x04, 0xb4, 0xbe,
  0x1a, 0x80, 0xff, 0x3e, 0x05, 0xef, 0x17, 0xbe, 0xaa, 0xf7, 0x94, 0xbd, 0xb9, 0xfb, 0x74, 0x3e, 0x16, 0x69, 0x28, 0xbe,
  0x48, 0x59, 0x0b, 0x3f, 0x8e, 0xe9, 0x92, 0xbe, 0x74, 0xd0, 0x60, 0xbf, 0xe6, 0xe6, 0x29, 0x3e, 0x05, 0x40, 0xec, 0xbd,
  0xc9, 0x13, 0xba, 0x3e, 0xfe, 0xff, 0xc4, 0x3e, 0x2c, 0x3c, 0x07, 0x3f, 0x90, 0x28, 0x42, 0xbe, 0xe7, 0x47, 0xf0, 0x3e,
  0xf3, 0x5a, 0x94, 0x3e, 0x7e, 0xa7, 0x4d, 0xbe, 0x2a, 0x2b, 0x34, 0xbf, 0x4b, 0x22, 0xd0, 0x3e, 0xd3, 0xb7, 0x44, 0x3d,
  0x96, 0xed, 0x88, 0xbe, 0x49, 0x6d, 0x5e, 0x3d, 0x20, 0xae, 0x29, 0xbf, 0xa0, 0x0e, 0x9a, 0xbf, 0xa9, 0x52, 0x56, 0xbd,
  0xb9, 0x71, 0x11, 0x3f, 0x56, 0xb8, 0x7f, 0xbf, 0xd5, 0xc1, 0xff, 0x3e, 0x49, 0x49, 0xd5, 0x3d, 0x98, 0x1e, 0xa8, 0x3c,
  0x22, 0xbe, 0x24, 0x3f, 0x8d, 0xa1, 0x9d, 0xbd, 0xf2, 0xe0, 0x23, 0xbf, 0x9c, 0xf4, 0xe2, 0xbf, 0xe4, 0x9f, 0xa6, 0xbe,
  0xd2, 0xb6, 0xb4, 0xbe, 0x8a, 0x18, 0xd6, 0xbd, 0x98, 0x16, 0x59, 0x3f, 0xb4, 0xb4, 0xf3, 0x3d, 0x7a, 0xed, 0x78, 0xbe,
  0xd6, 0x09, 0x60, 0xbe, 0x0d, 0x01, 0x4a, 0xbf, 0x61, 0xc2, 0xa1, 0x3e, 0xdc, 0x8d, 0x38, 0xbe, 0x1a, 0x2a, 0x3f, 0x3f,
  0x58, 0x0d, 0xbe, 0xbe, 0x19, 0xb3, 0x2d, 0x3f, 0x7c, 0x43, 0x44, 0x3e, 0x4a, 0xb3, 0xeb, 0x3e, 0xab, 0x50, 0x8a, 0x3d,
  0x29, 0x51, 0x84, 0x3f, 0x21, 0x5f, 0x47, 0x3c, 0x01, 0x05, 0x02, 0x3e, 0x76, 0x4c, 0xe9, 0x3c, 0x0f, 0x72, 0x39, 0x3d,
  0x9b, 0xa6, 0xec, 0x3e, 0x76, 0xc8, 0x68, 0x3f, 0x45, 0x9d, 0xfc, 0xbe, 0x92, 0xe0, 0x72, 0xbf, 0x9e, 0x6a, 0x44, 0x3d,
  0x02, 0xf2, 0xae, 0xbf, 0xc4, 0xe3, 0xa6, 0x3e, 0x02, 0x01, 0x85, 0xbf, 0x47, 0xf3, 0x8d, 0x3e, 0x51, 0x8c, 0x88, 0xbe,
  0x87, 0x40, 0x07, 0x3d, 0x3e, 0x77, 0x86, 0x3e, 0x31, 0xfd, 0x20, 0x3e, 0x34, 0x03, 0x84, 0xbf, 0x6e, 0x98, 0xe9, 0xbe,
  0xe0, 0xbf, 0x20, 0x3f, 0x18, 0x66, 0xf8, 0x3e, 0x03, 0xd9, 0xd1, 0x3e, 0xaa, 0x14, 0x17, 0x3e, 0x7f, 0xd1, 0x88, 0x3f,
  0x8a, 0xee, 0x36, 0xbf, 0xca, 0xd5, 0x63, 0x3e, 0x16, 0x34, 0x14, 0x3f, 0xae, 0xa6, 0xef, 0x3d, 0xd7, 0x70, 0xa4, 0x3e,
  0x92, 0xf3, 0x9b, 0xbd, 0x32, 0x20, 0x1f, 0x3f, 0x9f, 0x42, 0x41, 0x3f, 0xe4, 0xc7, 0x81, 0xbd, 0x74, 0x4f, 0x42, 0x3e,
  0xd6, 0xec, 0xa8, 0x3f, 0x4e, 0x8c, 0x54, 0x3f, 0xd7, 0x1b, 0xe3, 0xbe, 0x5a, 0x6c, 0x89, 0x3c, 0x83, 0x0f, 0xc4, 0x3e,
  0xf3, 0xd0, 0x92, 0x3d, 0x3f, 0xca, 0x26, 0x3f, 0xbd, 0xe6, 0x9c, 0xbf, 0x42, 0x1c, 0x6d, 0x3f, 0xa0, 0x47, 0x55, 0xbe,
  0xa5, 0x81, 0xca, 0x3f, 0x4e, 0x6e, 0x92, 0x3e, 0xc0, 0xc3, 0xe8, 0xbe, 0xb0, 0xdd, 0x31, 0x3f, 0xfa, 0x05, 0x51, 0x3d,
  0xf8, 0x19, 0x9c, 0x3f, 0xfe, 0x5d, 0x31, 0xbf, 0x57, 0xa9, 0x92, 0x3e, 0xf5, 0x1d, 0x38, 0x3f, 0xb1, 0xaf, 0x69, 0x3e,
  0x6a, 0x7c, 0xda, 0xbf, 0x94, 0x2d, 0xa7, 0xbe, 0x80, 0xd5, 0x2d, 0xbe, 0xa6, 0xd8, 0x84, 0x3e, 0xf1, 0x92, 0xa2, 0xbf,
  0xec, 0xcf, 0xd3, 0x3d, 0x26, 0xc1, 0xeb, 0xbd, 0xad, 0x7c, 0x8d, 0xbe, 0x2c, 0x41, 0xe3, 0xbd, 0x74, 0xea, 0xcd, 0xbd,
  0xcc, 0x28, 0x0c, 0x3f, 0x30, 0x0d, 0x95, 0xbc, 0x43, 0x29, 0x31, 0xbf, 0xe6, 0x96, 0x56, 0xbe, 0x99, 0xd8, 0x21, 0xbf,
  0x6a, 0x29, 0x0f, 0xbf, 0x1b, 0xf8, 0xb8, 0x3e, 0x3d, 0xe7, 0xdb, 0xbe, 0x8b, 0x07, 0x5f, 0xbf, 0xe8, 0xf8, 0xfe, 0xbd,
  0x6a, 0xf1, 0xad, 0x3e, 0x6d, 0xe4, 0x30, 0xbf, 0xfb, 0xb2, 0x26, 0xbf, 0x52, 0x07, 0x57, 0xbe, 0x4a, 0x32, 0x1c, 0x3f,
  0xff, 0x67, 0xb4, 0xbf, 0xa7, 0x5a, 0x38, 0x3f, 0xb5, 0xd7, 0x53, 0x3f, 0xdd, 0x04, 0x3d, 0x3f, 0x6c, 0x15, 0xfe, 0xbd,
  0x87, 0x38, 0x4d, 0x3e, 0xea, 0xca, 0x1a, 0xbf, 0x29, 0xfb, 0x06, 0x3e, 0x63, 0x36, 0xe8, 0xbd, 0xba, 0xb3, 0xf0, 0xbd,
  0x56, 0xb7, 0x00, 0x3f, 0x88, 0xb9, 0xb4, 0xbd, 0xd9, 0x61, 0x08, 0x3f, 0xe0, 0x5d, 0xae, 0xbe, 0x29, 0x75, 0xe3, 0xbe,
  0xac, 0xaa, 0x8d, 0x3e, 0x52, 0x1f, 0x9b, 0xbf, 0x55, 0x74, 0x0d, 0xbd, 0x73, 0x29, 0xa2, 0xbb, 0x59, 0x9c, 0xb4, 0xbd,
  0xf6, 0x22, 0x0b, 0x3f, 0x82, 0x88, 0xce, 0x3e, 0x84, 0x15, 0x1c, 0xbe, 0xd3, 0xe5, 0x5d, 0x3e, 0x40, 0xd8, 0xc8, 0xbf,
  0xd9, 0xac, 0xc4, 0x3e, 0x92, 0x52, 0xbd, 0x3f, 0x41, 0x22, 0x6c, 0x3e, 0xcb, 0x58, 0x71, 0x3f, 0x67, 0xf9, 0x82, 0x3d,
  0xa8, 0x5b, 0xdc, 0xbe, 0x18, 0x03, 0xd8, 0x3f, 0xd9, 0x54, 0x29, 0xbe, 0x67, 0xb0, 0x2d, 0xbe, 0x46, 0xb5, 0x80, 0xbe,
  0x7b, 0x12, 0xe3, 0xbe, 0xb3, 0x1e, 0x89, 0x3f, 0x39, 0x87, 0x25, 0xbf, 0xf4, 0xeb, 0x4b, 0x3e, 0x72, 0x25, 0xfe, 0xbd,
  0x8a, 0x6b, 0xa4, 0x3f, 0xb1, 0x60, 0x5b, 0x3e, 0x11, 0xf5, 0xef, 0xba, 0x31, 0xe7, 0x30, 0x3f, 0x58, 0x02, 0x0a, 0xbd,
  0x70, 0xe9, 0x34, 0x3d, 0x6b, 0x2e, 0xae, 0x3f, 0xb3, 0xb9, 0x85, 0xbe, 0x50, 0xc2, 0x8c, 0xbe, 0x38, 0x64, 0xbe, 0xbd,
  0x88, 0x75, 0x4d, 0xbf, 0xf9, 0x5e, 0xc1, 0xbe, 0x4d, 0x2a, 0x58, 0x3f, 0xfb, 0x6d, 0x91, 0xbe, 0x98, 0xd3, 0x4d, 0x3d,
  0xaa, 0xe5, 0xd0, 0x3d, 0x55, 0xaa, 0xd4, 0xbe, 0x86, 0xbf, 0x50, 0x3e, 0xc5, 0x64, 0xc7, 0xbe, 0x58, 0x18, 0xa2, 0x3f,
  0x6a, 0xe0, 0xb3, 0x3f, 0xab, 0x17, 0xcc, 0xbe, 0xa5, 0x51, 0xc9, 0xbe, 0x7d, 0xfe, 0xb6, 0xbf, 0x50, 0x46, 0xec, 0x3d,
  0xe1, 0x95, 0x16, 0xbf, 0xe9, 0xaa, 0x22, 0x3e, 0x48, 0x73, 0xf7, 0x3d, 0xae, 0x46, 0x92, 0xbf, 0xc7, 0xec, 0xad, 0xbe,
  0x4b, 0x31, 0x1b, 0x3f, 0xd4, 0x45, 0x93, 0x3f, 0x9e, 0xd3, 0x65, 0xbf, 0x2d, 0xb5, 0x82, 0xbf, 0xee, 0xe7, 0x17, 0x40,
  0x73, 0xc4, 0xb9, 0x3e, 0x15, 0x7e, 0x7c, 0x3f, 0xd0, 0x4c, 0x09, 0xbf, 0x74, 0x35, 0x3f, 0xbe, 0x61, 0x05, 0x98, 0xbf,
  0xcc, 0x19, 0x4b, 0x3d, 0x38, 0x03, 0x08, 0x3f, 0x89, 0x26, 0x32, 0xbe, 0xc7, 0xae, 0x24, 0xbe, 0x31, 0x26, 0x10, 0x3f,
  0xe0, 0xe1, 0x03, 0x3d, 0x45, 0x43, 0x9b, 0xbe, 0x15, 0xb9, 0x17, 0x3d, 0xe0, 0xc5, 0xad, 0xbe, 0x1a, 0x38, 0x4c, 0x3e,
  0xa8, 0xed, 0x9f, 0xbe, 0xb6, 0x3c, 0x53, 0xbe, 0x35, 0xb1, 0x3e, 0x3d, 0x15, 0x2b, 0x9e, 0x3e, 0x1e, 0x39, 0x65, 0x3e,
  0xce, 0x97, 0xda, 0xbe, 0xe0, 0xb1, 0x9d, 0x3f, 0x5a, 0x31, 0xa9, 0x3e, 0xf5, 0x20, 0x41, 0x3f, 0x37, 0xdb, 0x15, 0x3f,
  0xb7, 0x4f, 0x9e, 0x3e, 0x90, 0x67, 0x3b, 0x3e, 0xbb, 0xd1, 0x90, 0xbe, 0xa3, 0x6b, 0x11, 0x3f, 0x2a, 0xae, 0x13, 0x3f,
  0xf9, 0x5c, 0x04, 0x3f, 0x77, 0xab, 0x67, 0xbf, 0x62, 0xe8, 0xe9, 0x3d, 0xad, 0x05, 0xa9, 0xbd, 0x66, 0x75, 0xff, 0x3d,
  0x9f, 0x4b, 0xa2, 0xbe, 0x35, 0x40, 0x80, 0x3f, 0x2b, 0x5c, 0xb8, 0x3d, 0xc0, 0x37, 0x24, 0xbc, 0xe4, 0x46, 0x72, 0x3e,
  0x7d, 0x25, 0x0d, 0x3d, 0x3e, 0xc0, 0xd9, 0xbc, 0x8c, 0x10, 0xc0, 0x3e, 0xc4, 0x84, 0xde, 0xbf, 0x4f, 0x25, 0x83, 0xbf,
  0xa5, 0x7f, 0x6f, 0xbf, 0x2a, 0x99, 0xe3, 0xbd, 0x20, 0xd6, 0x85, 0xbf, 0x94, 0x8c, 0x94, 0xbe, 0x89, 0x4b, 0xc0, 0x3c,
  0x21, 0x13, 0xbe, 0x3c, 0xc9, 0xa7, 0xa0, 0x3e, 0xb2, 0xcd, 0xb6, 0xbf, 0x87, 0xc5, 0x2c, 0x3e, 0xe7, 0x84, 0x05, 0x3e,
  0x7a, 0x8a, 0x5b, 0x3f, 0x94, 0x68, 0x03, 0x3f, 0x69, 0x13, 0xeb, 0x3e, 0xcc, 0x1e, 0xec, 0x3e, 0x38, 0x95, 0xe6, 0x3e,
  0xaa, 0x31, 0x91, 0x3d, 0xe8, 0x73, 0x0d, 0x3f, 0x82, 0x3f, 0x08, 0xbf, 0xb3, 0xab, 0x27, 0xbe, 0xe9, 0x4d, 0xeb, 0xbe,
  0x6e, 0x88, 0x78, 0xbe, 0xd5, 0x13, 0xe8, 0x3e, 0x37, 0x81, 0x0c, 0xbb, 0xea, 0x3d, 0x01, 0xbf, 0x91, 0xf1, 0x96, 0xbe,
  0x18, 0x7d, 0x54, 0xbd, 0x0f, 0x6f, 0xcf, 0x3e, 0x44, 0xd9, 0xe0, 0x3c, 0xfe, 0x28, 0xb6, 0x3e, 0x7a, 0x0b, 0xcc, 0xbe,
  0x38, 0x7e, 0x0d, 0xbf, 0x10, 0xa0, 0xf9, 0x3e, 0x0a, 0x8e, 0xc2, 0x3e, 0x25, 0x62, 0x9b, 0x3d, 0x8b, 0x53, 0xae, 0x3e,
  0x8d, 0xd0, 0x49, 0xbf, 0xb0, 0x44, 0xe2, 0x3e, 0x39, 0xe5, 0x2d, 0xbd, 0x11, 0x9d, 0xd0, 0xbe, 0x58, 0x5f, 0x0b, 0x3f,
  0xc6, 0xda, 0x4b, 0x3d, 0x57, 0x7e, 0x77, 0x3f, 0x6b, 0xa9, 0x9a, 0xbe, 0x41, 0x84, 0x1c, 0xbe, 0x7f, 0x89, 0xb6, 0xbe,
  0x7d, 0x40, 0xed, 0x3e, 0xd1, 0x61, 0x94, 0x3f, 0x63, 0x4a, 0xa7, 0xbe, 0x07, 0x81, 0xb2, 0xbe, 0x7d, 0xdc, 0x30, 0xbc,
  0x08, 0xd2, 0xea, 0x3f, 0xc6, 0x89, 0x74, 0x3e, 0x34, 0x31, 0x31, 0x3e, 0x9c, 0x68, 0x27, 0xbf, 0x5b, 0x0e, 0xd2, 0xbe,
  0x2f, 0xd4, 0xb5, 0xbe, 0x64, 0x5d, 0x1e, 0xbe, 0x30, 0xc4, 0xc8, 0x3e, 0xa8, 0x35, 0x47, 0x3f, 0xc9, 0xcd, 0x54, 0xbf,
  0x65, 0xb8, 0x8f, 0xbf, 0x80, 0xf3, 0xb1, 0xbe, 0x2d, 0x5c, 0x58, 0xbb, 0xe2, 0x01, 0x09, 0x3e, 0x7a, 0x0d, 0xa6, 0x3f,
  0x68, 0xbb, 0x97, 0x3f, 0x30, 0xb3, 0x63, 0x3d, 0xc5, 0x46, 0x5f, 0x3f, 0x9c, 0x1d, 0x14, 0xbf, 0x19, 0xad, 0xe5, 0xbe,
  0xd0, 0xd3, 0x1b, 0x3f, 0xe2, 0xbb, 0x22, 0xbf, 0xd6, 0x7d, 0x63, 0x3f, 0x4d, 0xc4, 0xb6, 0x3e, 0x4d, 0x7a, 0x73, 0xbf,
  0xb7, 0xc1, 0x5b, 0x3f, 0x62, 0xce, 0xcf, 0xbd, 0x27, 0x10, 0x5e, 0xbf, 0xa8, 0x83, 0x8c, 0xbf, 0x01, 0xee, 0x57, 0xbf,
  0x8c, 0xdd, 0x4b, 0xbe, 0x6d, 0x1e, 0xbb, 0x3e, 0x7b, 0x29, 0x93, 0xbf, 0x9b, 0xfa, 0xcb, 0x3e, 0x8b, 0xe5, 0x05, 0x3c,
  0x85, 0x27, 0x80, 0xbe, 0xd7, 0x85, 0xf3, 0xbc, 0xbd, 0xd4, 0xb0, 0x3e, 0xe4, 0x34, 0x87, 0x3f, 0x51, 0x27, 0x15, 0x3e,
  0x56, 0x2e, 0x13, 0xbf, 0x4c, 0x71, 0x77, 0x3e, 0x75, 0xa3, 0x4b, 0xbf, 0x70, 0x86, 0x72, 0x3f, 0x8d, 0xc8, 0xee, 0x3e,
  0x03, 0x53, 0x31, 0xbf, 0xe5, 0x0b, 0x06, 0x3f, 0x1a, 0x53, 0x30, 0x3f, 0x80, 0x69, 0x2c, 0x3f, 0x8c, 0x4e, 0xe6, 0x3f,
  0x17, 0x8e, 0x67, 0x3f, 0x68, 0xa9, 0x71, 0xbe, 0xe2, 0xdf, 0xff, 0xff, 0x04, 0x00, 0x00, 0x00, 0x80, 0x04, 0x00, 0x00,
  0x5b, 0x27, 0x08, 0x3e, 0xa8, 0x5a, 0x2c, 0xbd, 0x9b, 0x82, 0x08, 0x3b, 0x1a, 0xe3, 0xf0, 0x3c, 0xa3, 0x4b, 0x16, 0x3e,
  0xf0, 0x4e, 0xae, 0x3d, 0x8d, 0xe5, 0x49, 0x3d, 0x07, 0xe0, 0x82, 0xbc, 0x3a, 0x15, 0x71, 0xbd, 0xd6, 0x94, 0x82, 0xbd,
  0xbf, 0x7b, 0x6d, 0x3e, 0x82, 0xd3, 0xf0, 0xbb, 0xc3, 0x73, 0xa3, 0xbd, 0x8b, 0x0a, 0x0e, 0x3e, 0xf7, 0xe3, 0xbe, 0xbd,
  0x81, 0x37, 0x33, 0xbe, 0xe3, 0x3a, 0xeb, 0xbd, 0x83, 0xb7, 0x2d, 0xbc, 0x2a, 0x9c, 0x3f, 0xbc, 0x1f, 0x58, 0xa1, 0xbd,
  0xef, 0xd1, 0x2b, 0xbd, 0x63, 0xdd, 0xae, 0xbc, 0x5c, 0x1c, 0xa8, 0xbc, 0x2b, 0x61, 0xad, 0xbc, 0x30, 0x12, 0xdf, 0xbd,
  0x4a, 0xd2, 0x29, 0x3c, 0xa1, 0xa2, 0x8c, 0xbe, 0x85, 0x1c, 0xd8, 0x3c, 0x42, 0xfb, 0x6d, 0xbd, 0xdf, 0x95, 0xf4, 0x3d,
  0x02, 0x8f, 0xaf, 0xbd, 0xa5, 0x34, 0x58, 0xbd, 0x4a, 0xa0, 0xa4, 0x3d, 0x6b, 0x10, 0x57, 0x3d, 0xb7, 0x1e, 0x7a, 0xbc,
  0x6f, 0x2f, 0xd5, 0xbd, 0xbf, 0x38, 0xc9, 0x3d, 0x43, 0x6e, 0x81, 0x3d, 0xdd, 0xac, 0x1c, 0x3b, 0x7e, 0xdf, 0x01, 0xbe,
  0xbc, 0x13, 0x07, 0xbe, 0x71, 0x06, 0xbb, 0x3d, 0xf7, 0xe6, 0xc0, 0x3d, 0xbb, 0x3a, 0x96, 0xbc, 0xa9, 0x9c, 0x1c, 0xbd,
  0x8e, 0xfc, 0x92, 0x3d, 0x8e, 0xcd, 0x2a, 0xbe, 0x4b, 0xf8, 0xa7, 0xbd, 0x7b, 0x63, 0x9a, 0x3c, 0xbc, 0x98, 0x8f, 0xbd,
  0xb9, 0x20, 0x18, 0xbe, 0x4c, 0x29, 0x13, 0x3d, 0x81, 0x04, 0xaf, 0x3d, 0x3f, 0x04, 0x50, 0xbc, 0x38, 0x99, 0x64, 0x3c,
  0xbe, 0xe0, 0xac, 0xbd, 0xd5, 0x54, 0xf1, 0xbc, 0xf5, 0xca, 0x46, 0xbd, 0xab, 0xc5, 0x5b, 0xbd, 0xc2, 0xa6, 0x74, 0x3d,
  0xfa, 0xb2, 0xcd, 0x3d, 0x3f, 0x12, 0x01, 0xbe, 0xe0, 0xd7, 0xd7, 0xbc, 0xd4, 0x62, 0x98, 0x3d, 0xf0, 0x4f, 0x8b, 0x3d,
  0xbf, 0x8e, 0x17, 0x3e, 0x97, 0x81, 0xf5, 0xbc, 0xe3, 0x49, 0x2a, 0x3e, 0xc4, 0x6c, 0x45, 0xbc, 0x86, 0x8a, 0xa0, 0x3b,
  0xb0, 0x7b, 0x4d, 0x3e, 0xa0, 0xfa, 0x41, 0xbe, 0x6a, 0xa8, 0xa6, 0x3c, 0xa3, 0x07, 0x74, 0xbe, 0x01, 0xf8, 0x92, 0xbb,
  0xad, 0xfc, 0x7b, 0xbd, 0xfd, 0xaf, 0xcd, 0xbd, 0x4b, 0xfe, 0xf6, 0xbc, 0x37, 0x68, 0x0a, 0xbe, 0x13, 0xf2, 0x49, 0x3e,
  0x1b, 0x1a, 0x6b, 0x3c, 0xc6, 0xf9, 0x95, 0xbd, 0xf6, 0x33, 0xc0, 0xbd, 0xab, 0xc2, 0xc3, 0x3d, 0x6e, 0x9e, 0xa2, 0x3d,
  0xe8, 0x6a, 0x6a, 0xba, 0x4b, 0xd9, 0x37, 0xbe, 0xdd, 0x08, 0x95, 0xbd, 0x30, 0x55, 0xd8, 0xbc, 0x25, 0x20, 0xe3, 0xbc,
  0x65, 0x5c, 0x1e, 0x3e, 0x4f, 0x33, 0xef, 0x3d, 0x8f, 0xef, 0x5c, 0xbd, 0x16, 0xeb, 0x92, 0x3d, 0x3f, 0x0a, 0xb9, 0xbd,
  0xd7, 0x14, 0xa0, 0xbd, 0x8f, 0x0a, 0x83, 0xbd, 0x43, 0x9d, 0xe7, 0x3c, 0x43, 0xff, 0x04, 0x3d, 0x3b, 0xbb, 0x2a, 0xbe,
  0xd0, 0x8e, 0xf2, 0x3c, 0xa4, 0x86, 0xb2, 0xbc, 0x22, 0xef, 0x6f, 0x3d, 0xff, 0x4b, 0xaa, 0x3d, 0xbf, 0x4a, 0x64, 0x3d,
  0xb7, 0x52, 0x8b, 0x3d, 0x32, 0xe3, 0xca, 0x3d, 0x92, 0x15, 0xd5, 0xbc, 0x18, 0x23, 0xd8, 0x3d, 0xa5, 0xcf, 0x1f, 0x3c,
  0xe8, 0x04, 0x81, 0xbe, 0x5d, 0x21, 0x3b, 0x3d, 0xcf, 0xc9, 0x4d, 0xbd, 0xc2, 0xfe, 0x00, 0xbe, 0x9a, 0xdd, 0x41, 0xbd,
  0x0b, 0xe6, 0x5c, 0xbd, 0x03, 0xe4, 0x78, 0xbd, 0xa4, 0xe2, 0xa8, 0x3d, 0x4f, 0x8b, 0x85, 0x3d, 0x7b, 0x4d, 0xc2, 0xbd,
  0xd2, 0x6c, 0x1f, 0xbd, 0xfa, 0xd9, 0x58, 0x3d, 0x35, 0x43, 0xc7, 0xbd, 0xe5, 0x85, 0xa2, 0x3d, 0xcd, 0x01, 0x3f, 0x3d,
  0x6c, 0xc3, 0x94, 0x3c, 0x38, 0x6e, 0x78, 0x3e, 0x65, 0x70, 0x9a, 0xbd, 0x80, 0x52, 0x05, 0xbd, 0xfb, 0xf3, 0x8b, 0xbd,
  0x34, 0xf4, 0x80, 0x3d, 0xb6, 0x06, 0xba, 0xbd, 0x5f, 0x1f, 0xe8, 0xbd, 0x40, 0xb4, 0xdd, 0x3c, 0x83, 0x8a, 0x8b, 0xbd,
  0x40, 0xc4, 0x15, 0xbd, 0x43, 0x11, 0x4a, 0xbd, 0xb7, 0xc4, 0x43, 0x3e, 0x33, 0xa2, 0x15, 0xbe, 0xf3, 0x43, 0x48, 0xbe,
  0xa1, 0x29, 0x02, 0xbe, 0xff, 0xc1, 0x03, 0xbd, 0x7e, 0x35, 0xbe, 0xbd, 0xd7, 0x96, 0x06, 0x3e, 0x9a, 0x92, 0xbb, 0xbc,
  0xb8, 0x32, 0x0d, 0x3d, 0x07, 0xdf, 0x32, 0xbe, 0x51, 0x51, 0x94, 0xbd, 0x36, 0xf3, 0x0c, 0x3c, 0x28, 0x6b, 0x18, 0x3d,
  0x95, 0xbe, 0x89, 0x3e, 0x57, 0x36, 0x2f, 0xbc, 0xb7, 0xa3, 0x0c, 0x3c, 0xfb, 0xfa, 0x53, 0x3d, 0xef, 0xe2, 0xa8, 0x3d,
  0x09, 0x6f, 0x31, 0xbd, 0x88, 0x07, 0x6c, 0x3d, 0x1c, 0xdd, 0x9a, 0x3d, 0xc0, 0x30, 0x0b, 0x3d, 0xda, 0xef, 0x1d, 0x3d,
  0x7d, 0xd2, 0x46, 0xbd, 0xd9, 0x8a, 0x0f, 0xbc, 0xa7, 0x8a, 0x09, 0x3e, 0x60, 0xf1, 0x40, 0x3d, 0x43, 0x58, 0xa0, 0xbd,
  0x32, 0x41, 0x17, 0xbd, 0x57, 0x3c, 0x9f, 0x3b, 0x7d, 0x0f, 0xbc, 0xbd, 0x0d, 0xa7, 0xbc, 0xbc, 0x1d, 0xaf, 0x5a, 0x3d,
  0x4c, 0x5d, 0xbc, 0x3d, 0x7e, 0x41, 0x49, 0xbe, 0xdf, 0xc3, 0x0d, 0xbe, 0xc4, 0xdf, 0xb4, 0x3c, 0xea, 0x64, 0x52, 0x3e,
  0xa3, 0x1a, 0x91, 0x3d, 0xe3, 0x0a, 0x3e, 0xbd, 0xd8, 0x92, 0x38, 0xbd, 0x82, 0x86, 0x44, 0x3e, 0xb7, 0x4a, 0x58, 0x3c,
  0x79, 0xf8, 0x26, 0x3e, 0x7f, 0x59, 0x21, 0x3d, 0xf3, 0x12, 0x41, 0x3e, 0x9a, 0xb7, 0xd6, 0x3d, 0xdf, 0xa4, 0x1e, 0xbe,
  0x9d, 0x0d, 0xcc, 0x3b, 0xab, 0x2d, 0x37, 0x3d, 0x6b, 0x27, 0x99, 0x3c, 0x33, 0xec, 0x4b, 0xbe, 0xbf, 0xef, 0xcd, 0x3c,
  0xab, 0x50, 0x02, 0x3e, 0x17, 0xf3, 0xea, 0x3d, 0xf3, 0x2c, 0x3d, 0xbd, 0xd2, 0x95, 0x53, 0x3e, 0x7a, 0x30, 0x86, 0xbd,
  0xf7, 0xf2, 0x2e, 0xbe, 0x93, 0xa5, 0x20, 0x3d, 0xb3, 0x15, 0xdd, 0x3d, 0x26, 0xff, 0x18, 0x3e, 0x7b, 0x05, 0x34, 0x3e,
  0x21, 0xdb, 0x07, 0xbe, 0xed, 0x0c, 0xcb, 0x3d, 0x12, 0x5f, 0x66, 0x3d, 0xb7, 0xba, 0x02, 0xbe, 0x56, 0xb6, 0xc5, 0xbd,
  0xbe, 0x3c, 0x2c, 0x3e, 0x3f, 0x6a, 0x47, 0xbe, 0xd0, 0x2b, 0xe8, 0xbc, 0xa7, 0x83, 0xd1, 0xbd, 0x27, 0x09, 0xc0, 0xbc,
  0xb2, 0x32, 0x9e, 0xbd, 0x6d, 0x63, 0x96, 0xbd, 0x8b, 0x68, 0xa5, 0x3d, 0xcb, 0xc5, 0x10, 0x3d, 0x10, 0x21, 0xe2, 0x3b,
  0x23, 0x76, 0x52, 0xbe, 0xb7, 0x80, 0xf1, 0xbd, 0xb8, 0xe2, 0xd7, 0x3d, 0x56, 0xcc, 0x86, 0xbd, 0x70, 0x5e, 0x94, 0x3d,
  0x92, 0xc8, 0x11, 0xbd, 0x23, 0xb5, 0x01, 0x3d, 0x46, 0xd9, 0x04, 0x3e, 0x67, 0xc6, 0x95, 0x3d, 0x1b, 0x89, 0x44, 0x3b,
  0x68, 0xcb, 0x98, 0x3c, 0x65, 0xe9, 0xad, 0x3d, 0x83, 0xf7, 0x15, 0x3e, 0xf6, 0x8c, 0xcb, 0xbc, 0x2a, 0x19, 0x12, 0xbd,
  0x58, 0x07, 0xb1, 0xbc, 0x5b, 0xc2, 0x00, 0xbe, 0x52, 0x8d, 0xe3, 0x3c, 0x8f, 0x70, 0xce, 0xbd, 0xc2, 0x43, 0x7e, 0x3e,
  0x23, 0x18, 0x54, 0xbd, 0x25, 0x71, 0x8d, 0xbd, 0x88, 0x33, 0xa3, 0xbd, 0xa3, 0xc7, 0xa7, 0x3c, 0x85, 0x25, 0xf6, 0x3d,
  0x87, 0x39, 0x00, 0xbd, 0x12, 0x73, 0xf8, 0x3d, 0x89, 0xef, 0xbe, 0xbd, 0xe4, 0xd5, 0x1d, 0xbd, 0x7f, 0xe7, 0x67, 0x3d,
  0xb6, 0xd9, 0xb0, 0xbc, 0x13, 0x0f, 0x2b, 0x3e, 0xb3, 0xe1, 0xde, 0x3d, 0x0f, 0xbc, 0x55, 0xbb, 0xdf, 0x3f, 0x06, 0xbd,
  0xe9, 0x97, 0xa4, 0x3e, 0x36, 0xfe, 0x86, 0x3d, 0xdc, 0x59, 0x02, 0xbe, 0x3b, 0x23, 0x70, 0xbd, 0xaa, 0x51, 0x61, 0x3d,
  0x0f, 0x90, 0xb5, 0x3b, 0x5e, 0x77, 0x3b, 0xbd, 0x1b, 0xbd, 0xea, 0x3b, 0x73, 0x7a, 0x9a, 0xbc, 0xf4, 0x81, 0x3d, 0xbd,
  0x73, 0xcb, 0x3d, 0xbe, 0x7d, 0xaa, 0x08, 0x3e, 0x3b, 0x00, 0x17, 0x3c, 0x6a, 0xdc, 0xc4, 0xbb, 0x2a, 0xb7, 0xc3, 0xbd,
  0xf8, 0xaf, 0xa4, 0x3d, 0xe7, 0x31, 0x9b, 0xbd, 0x2a, 0x4c, 0x97, 0xbc, 0x50, 0x49, 0xd0, 0x3d, 0x6b, 0x04, 0x0c, 0x3d,
  0xeb, 0xfa, 0x0c, 0x3e, 0xb3, 0xa2, 0xaa, 0x3d, 0xbc, 0xeb, 0x8d, 0x3a, 0x45, 0x28, 0xce, 0xbd, 0x0e, 0xf5, 0x81, 0x3e,
  0x55, 0xd9, 0x6a, 0xbb, 0x6e, 0x4d, 0xbe, 0xbc, 0x45, 0xaa, 0x01, 0xbd, 0xcd, 0x3f, 0xba, 0xbd, 0x0d, 0x30, 0x55, 0x3d,
  0x20, 0x87, 0x85, 0x3d, 0x9f, 0x0f, 0x0a, 0xbe, 0xe7, 0xa6, 0x41, 0x3d, 0xaa, 0x4d, 0x33, 0xbc, 0x4f, 0x48, 0xa7, 0xbd,
  0xd7, 0xd6, 0x0c, 0xbe, 0xa3, 0x5f, 0xd4, 0xbd, 0xcc, 0x4d, 0x08, 0xbe, 0x6e, 0xe4, 0xff, 0xff, 0x04, 0x00, 0x00, 0x00,
  0x80, 0x04, 0x00, 0x00, 0xfb, 0x45, 0x90, 0xbe, 0x94, 0x0b, 0x94, 0x3d, 0xa6, 0xc6, 0xea, 0xbd, 0x29, 0x5c, 0x19, 0xbd,
  0x8e, 0x89, 0x1a, 0xbf, 0x16, 0x4b, 0x97, 0x3e, 0xed, 0x01, 0xd5, 0xbe, 0xfb, 0x61, 0x82, 0x3e, 0xf4, 0xa7, 0x04, 0xbe,
  0x86, 0x01, 0x55, 0xbe, 0x7d, 0xcd, 0x8c, 0xbe, 0x43, 0xf1, 0xb8, 0x3e, 0x17, 0xd0, 0x82, 0x3e, 0x42, 0x57, 0x06, 0xbe,
  0xdf, 0xcb, 0x79, 0xbd, 0xc7, 0x77, 0xa8, 0x3e, 0x41, 0x34, 0x2a, 0x3d, 0x01, 0x54, 0xeb, 0xbe, 0xe9, 0xf4, 0x86, 0xbe,
  0xa9, 0xb1, 0x84, 0xbe, 0x03, 0x42, 0xa3, 0xbe, 0x3f, 0xa1, 0x11, 0xbf, 0xd6, 0x48, 0x7a, 0x3c, 0x43, 0x2a, 0x37, 0x3d,
  0x84, 0x45, 0x9f, 0xbe, 0x71, 0x16, 0x2d, 0x3f, 0xd3, 0xf7, 0x2c, 0xbe, 0x28, 0x73, 0xab, 0xbe, 0x63, 0xba, 0x5a, 0xbf,
  0xe7, 0x53, 0x14, 0x3f, 0x82, 0x2b, 0x34, 0x3e, 0xe6, 0x80, 0x49, 0xbe, 0x5f, 0xf1, 0x0e, 0x3e, 0x18, 0x7a, 0x2f, 0xbe,
  0xcf, 0x93, 0x5e, 0xbe, 0x92, 0xf4, 0xc9, 0x3d, 0x95, 0x0d, 0x83, 0x3e, 0xff, 0xf5, 0x35, 0x3e, 0x4b, 0x7d, 0x27, 0xbf,
  0x3e, 0x30, 0x3d, 0x3e, 0x4c, 0x2b, 0x26, 0x3e, 0x3d, 0xbb, 0xd9, 0x3e, 0xe9, 0xc8, 0xb9, 0xbe, 0x76, 0xb1, 0x8f, 0xbe,
  0x35, 0xe0, 0x8d, 0x3d, 0xf0, 0xc4, 0x7c, 0xbf, 0x43, 0xa1, 0xbe, 0xbe, 0x75, 0xc2, 0xfc, 0x3d, 0x29, 0xb8, 0x52, 0x3e,
  0xb1, 0x45, 0x45, 0xbe, 0x5e, 0xfb, 0xfd, 0x3e, 0xe5, 0xef, 0xe1, 0x3e, 0xc5, 0x1c, 0x29, 0xbe, 0xa1, 0xe3, 0xad, 0x3e,
  0x82, 0xd1, 0xde, 0x3e, 0xed, 0x73, 0x3d, 0xbe, 0xca, 0x1c, 0xbf, 0xbe, 0xbc, 0x22, 0xae, 0xbe, 0x18, 0xbc, 0x21, 0xbe,
  0x2d, 0xbb, 0xd0, 0x3d, 0x88, 0x60, 0x35, 0x3e, 0x72, 0x4f, 0xae, 0xbe, 0x81, 0xde, 0x88, 0x3e, 0x23, 0x96, 0x4f, 0x3f,
  0x4a, 0x9a, 0x33, 0xbf, 0x4d, 0xf8, 0x11, 0xbd, 0x69, 0x9c, 0xbf, 0x3d, 0x2f, 0x54, 0x6e, 0x3c, 0x15, 0x9a, 0x5c, 0x3c,
  0x71, 0xa2, 0x18, 0x3f, 0x12, 0xd1, 0x03, 0xbf, 0x03, 0x38, 0x1d, 0x3f, 0x7f, 0x0a, 0x7d, 0x3e, 0xa0, 0xa9, 0x8d, 0xbe,
  0xaf, 0x4d, 0x00, 0x3f, 0x22, 0xba, 0x28, 0xbd, 0x9e, 0xc9, 0xcd, 0xbc, 0x64, 0x9c, 0x31, 0x3f, 0xc2, 0x83, 0xa6, 0xbe,
  0xcc, 0x61, 0xd4, 0x3d, 0x86, 0xd1, 0xbf, 0x3e, 0x28, 0x35, 0xb3, 0x3d, 0x7d, 0x12, 0x10, 0xbd, 0x71, 0xb5, 0x2d, 0x3e,
  0x1a, 0x37, 0x06, 0x3f, 0x11, 0x5c, 0x0f, 0x3f, 0xc1, 0x04, 0xf8, 0xbc, 0x67, 0x5b, 0x99, 0x3d, 0x74, 0xa3, 0x03, 0x3f,
  0x9b, 0xfd, 0xad, 0x3e, 0x9c, 0x7c, 0x2f, 0x3e, 0xd5, 0x3f, 0xaa, 0xbe, 0xe7, 0xb3, 0xbe, 0x3e, 0x0d, 0x42, 0x4e, 0x3e,
  0x71, 0x71, 0x2a, 0x3f, 0x86, 0x86, 0x9e, 0xbd, 0xe3, 0x31, 0x12, 0xbe, 0xa2, 0xe0, 0xe0, 0xbe, 0x9b, 0xa5, 0x1b, 0xbf,
  0x58, 0xd2, 0xac, 0xbd, 0xef, 0xa1, 0x25, 0x3e, 0x28, 0x81, 0xa1, 0xbd, 0x68, 0x05, 0x9f, 0xbd, 0x89, 0x9c, 0x03, 0xbe,
  0x84, 0x70, 0x40, 0x3c, 0x0c, 0xbd, 0xd6, 0xbe, 0x22, 0x7d, 0x07, 0x3d, 0x18, 0xd2, 0x0d, 0xbf, 0xfb, 0x27, 0x43, 0x3e,
  0xce, 0xad, 0x14, 0xbf, 0xea, 0x0f, 0x16, 0x3d, 0x3a, 0x34, 0x68, 0xbe, 0xdd, 0xf2, 0x11, 0xbd, 0x8d, 0xe6, 0xf9, 0xbc,
  0xff, 0x6a, 0x97, 0x3e, 0x84, 0x24, 0xd4, 0x3d, 0x80, 0x54, 0xf0, 0x3d, 0x95, 0xe8, 0xc4, 0xbc, 0xef, 0x8c, 0xc4, 0x3e,
  0x6a, 0x8e, 0x68, 0x3e, 0xbc, 0xb8, 0x0f, 0x3e, 0x6e, 0x9d, 0x5a, 0x3e, 0xd4, 0x52, 0x72, 0x3e, 0xc4, 0xe2, 0x0c, 0x3f,
  0xaa, 0x67, 0x45, 0xbe, 0x2a, 0x38, 0x45, 0x3e, 0xae, 0xc7, 0x9a, 0xbc, 0xc0, 0xce, 0x2f, 0x3d, 0xe4, 0xce, 0x36, 0xbe,
  0x79, 0x3d, 0x29, 0xbe, 0x78, 0x70, 0xda, 0xbe, 0xcd, 0xc5, 0x3d, 0x3c, 0x25, 0x43, 0x1c, 0x3f, 0xef, 0x4f, 0xf4, 0xbd,
  0xe6, 0x45, 0x10, 0xbd, 0x5b, 0x40, 0xcd, 0xbe, 0x44, 0xae, 0x5f, 0xbd, 0x26, 0x9f, 0xc1, 0xbe, 0xac, 0x25, 0x47, 0xbe,
  0xc4, 0xa5, 0xe3, 0xbd, 0x8d, 0xca, 0x0c, 0x3e, 0xac, 0x9e, 0x37, 0xbe, 0x04, 0x03, 0xa3, 0xbe, 0x71, 0xcf, 0x72, 0xbe,
  0x56, 0x38, 0x52, 0xbe, 0x73, 0x34, 0x31, 0xbf, 0x9f, 0x1f, 0x16, 0x3f, 0x0e, 0x7a, 0xff, 0x3b, 0xcf, 0x58, 0x54, 0x3c,
  0xfb, 0x06, 0x14, 0x3c, 0xef, 0x9a, 0x53, 0xbe, 0x59, 0x70, 0x69, 0x3e, 0xb9, 0xfb, 0x0f, 0xbd, 0x17, 0x58, 0xab, 0xbe,
  0x91, 0x5b, 0x3b, 0x3f, 0x71, 0xde, 0x16, 0x3f, 0x8b, 0x09, 0x12, 0x3e, 0x76, 0xe2, 0x89, 0x3e, 0x05, 0x4a, 0xc1, 0x3b,
  0x62, 0xf9, 0x1d, 0xbf, 0xb8, 0x2e, 0x33, 0xbf, 0x1c, 0x86, 0xdb, 0x3e, 0x89, 0xf6, 0xa6, 0x3d, 0xb0, 0x55, 0xa8, 0x3e,
  0x39, 0x7a, 0xbf, 0xbe, 0x60, 0xea, 0xfe, 0xbd, 0x56, 0x5b, 0xd6, 0xbe, 0x13, 0x11, 0xaa, 0xbd, 0xab, 0xd3, 0xb3, 0x3b,
  0xd1, 0xa4, 0xb5, 0xbe, 0x73, 0x3b, 0x1c, 0x3f, 0x58, 0xfe, 0x17, 0xbf, 0x38, 0xea, 0x07, 0x3f, 0x18, 0x20, 0xe6, 0xbd,
  0x5c, 0x61, 0x88, 0x3d, 0x7b, 0x32, 0xfb, 0x3d, 0x95, 0x6d, 0xcd, 0x3e, 0x36, 0xd9, 0x39, 0xbe, 0xde, 0xea, 0x8f, 0xbe,
  0xb1, 0x23, 0x28, 0xbe, 0x4c, 0x81, 0x15, 0xbd, 0x89, 0x85, 0x37, 0x3f, 0x44, 0x66, 0xc8, 0xbe, 0xa8, 0xf2, 0x2f, 0xbe,
  0xf7, 0xa9, 0x24, 0x3e, 0xf6, 0xa8, 0x43, 0x3e, 0x84, 0x1d, 0x69, 0xbd, 0x50, 0xf4, 0xa1, 0x3d, 0xf7, 0x76, 0x7d, 0x3c,
  0x26, 0x2d, 0x72, 0xbe, 0x0c, 0x92, 0xb1, 0x3e, 0xa4, 0x8b, 0x91, 0x3e, 0xa0, 0x81, 0xd6, 0x3e, 0x1d, 0x1f, 0x0c, 0x3f,
  0x1f, 0xd5, 0x53, 0x3e, 0x7a, 0xa0, 0x92, 0xbd, 0xb9, 0x1e, 0x12, 0x3f, 0xd2, 0xd5, 0x0d, 0x3e, 0x5d, 0x74, 0x67, 0xbe,
  0x3a, 0x55, 0xca, 0x3e, 0x76, 0xb0, 0x06, 0xbe, 0x12, 0x1a, 0x05, 0x3e, 0x0a, 0x8c, 0x09, 0x3e, 0x47, 0xc8, 0xad, 0x3d,
  0x72, 0x9a, 0xbc, 0x3e, 0xb4, 0xcb, 0xe8, 0x3d, 0xa3, 0x13, 0x82, 0x3e, 0x77, 0xf6, 0x69, 0x3e, 0x3b, 0x28, 0x76, 0x3e,
  0x71, 0x6a, 0x81, 0xbe, 0xe6, 0xda, 0x0d, 0x3f, 0xc7, 0x0d, 0xd5, 0x3e, 0xde, 0xb4, 0xaa, 0x3e, 0x0c, 0x44, 0xf3, 0xbe,
  0x4b, 0x0f, 0xc5, 0x3e, 0x7d, 0xd7, 0x24, 0xbc, 0x7f, 0xae, 0xbb, 0xbe, 0xc2, 0x31, 0x94, 0x3e, 0xcd, 0xbe, 0x19, 0xbe,
  0x97, 0xd4, 0xb5, 0xbe, 0xdc, 0x5f, 0x8c, 0x3e, 0x6c, 0xc3, 0xc5, 0x3d, 0x83, 0x1a, 0xae, 0x3d, 0x59, 0x61, 0x12, 0xbe,
  0xea, 0xef, 0x85, 0xbe, 0x09, 0x88, 0xd3, 0xbe, 0xdd, 0xa9, 0xd7, 0xbe, 0x94, 0x55, 0x07, 0xbe, 0x67, 0x2c, 0x02, 0x3f,
  0xd1, 0xbb, 0xae, 0xbd, 0xf5, 0x2a, 0x0f, 0xbe, 0xc0, 0xc4, 0xa9, 0xbd, 0x6f, 0x12, 0x91, 0x3e, 0x0a, 0xb7, 0x8e, 0xbc,
  0xca, 0xbd, 0xd5, 0xbe, 0x72, 0xa9, 0xd5, 0xbd, 0x19, 0x60, 0x89, 0xbe, 0x87, 0x35, 0xbf, 0x3d, 0xaf, 0x3f, 0x0b, 0x3f,
  0x41, 0xe2, 0x97, 0xbe, 0xba, 0xa7, 0xe2, 0x3e, 0x03, 0x07, 0x97, 0x3e, 0x40, 0x7b, 0x5e, 0x3f, 0x65, 0x1d, 0x43, 0xbf,
  0x92, 0x05, 0xf1, 0xbe, 0x63, 0xda, 0xe8, 0xbe, 0x4f, 0xf9, 0xf4, 0x3e, 0xa9, 0xb1, 0xb2, 0xbd, 0xad, 0xdf, 0xb7, 0x3e,
  0x85, 0x09, 0x2e, 0xbf, 0xcc, 0x89, 0x1d, 0xbd, 0x52, 0x3b, 0x33, 0x3e, 0x9d, 0x30, 0x6a, 0xbd, 0xf6, 0xb9, 0x29, 0x3e,
  0x4a, 0xf6, 0x6b, 0xbe, 0x63, 0xca, 0x84, 0x3d, 0x4a, 0x7b, 0x04, 0x3e, 0x45, 0xd7, 0x74, 0x3e, 0x7f, 0xad, 0x47, 0xbe,
  0xb5, 0x00, 0x8d, 0xbe, 0x7f, 0x19, 0xab, 0x3e, 0xfd, 0x0b, 0x90, 0xbe, 0x03, 0x97, 0x61, 0xbd, 0x2c, 0x79, 0x92, 0x3e,
  0xf8, 0x18, 0x15, 0x3d, 0x0f, 0xdb, 0x1a, 0xbf, 0xb4, 0x18, 0x03, 0xbd, 0xb3, 0x03, 0x05, 0x3f, 0x5b, 0x90, 0x01, 0xbe,
  0x83, 0x3f, 0xa7, 0x3e, 0x71, 0x5a, 0xe3, 0xbe, 0xcf, 0x46, 0x1b, 0x3f, 0xff, 0xc7, 0xa1, 0xbe, 0x5d, 0x24, 0xae, 0xbe,
  0xde, 0x5f, 0x84, 0x3e, 0x8c, 0x24, 0xe6, 0x3d, 0xb1, 0xa9, 0xea, 0xbe, 0x05, 0xd9, 0x85, 0x3d, 0x01, 0x92, 0x06, 0x3f,
  0x6b, 0x39, 0xe2, 0x3e, 0xaa, 0xdb, 0xab, 0xbe, 0x42, 0xfd, 0xd5, 0x3e, 0x19, 0x05, 0x2a, 0xbe, 0x11, 0x96, 0xab, 0x3e,
  0x68, 0x00, 0x51, 0x3e, 0x65, 0xff, 0xa2, 0x3e, 0x2f, 0x9e, 0x26, 0x3f, 0x6f, 0xe3, 0xa2, 0x3e, 0xfa, 0xe8, 0xff, 0xff,
  0x04, 0x00, 0x00, 0x00, 0x00, 0x06, 0x00, 0x00, 0x06, 0x46, 0x97, 0x3f, 0xad, 0x2d, 0x59, 0x3f, 0x71, 0xa3, 0xff, 0xbd,
  0x66, 0x51, 0x69, 0x3f, 0x9f, 0x37, 0x14, 0xbf, 0x87, 0xde, 0x83, 0x3f, 0x53, 0xa0, 0x98, 0x3d, 0xfd, 0x5e, 0x0c, 0xbf,
  0x5c, 0xb5, 0x48, 0xbf, 0x64, 0xcc, 0x43, 0xbd, 0x9f, 0xb6, 0x5a, 0x3c, 0x57, 0x07, 0x60, 0x3f, 0x6f, 0xe6, 0x4c, 0x3f,
  0x19, 0x13, 0xe6, 0xbe, 0x88, 0xc3, 0x52, 0x3f, 0x2e, 0xdb, 0xd2, 0xbd, 0xfb, 0x4c, 0x15, 0x3d, 0xdb, 0xdd, 0xf2, 0x3f,
  0xe0, 0xbb, 0x83, 0x3e, 0x59, 0x15, 0x8a, 0x3d, 0xec, 0x3a, 0xc7, 0x3f, 0xab, 0xb6, 0x13, 0xbf, 0xfc, 0x27, 0x5a, 0xbd,
  0x03, 0xb7, 0xa4, 0x3d, 0xe6, 0xa9, 0x96, 0x3f, 0x94, 0x66, 0x01, 0x40, 0x00, 0xf1, 0x4a, 0xbf, 0x2a, 0x11, 0x91, 0xbd,
  0x27, 0xf3, 0x1d, 0xbf, 0x89, 0x08, 0x27, 0x3d, 0x68, 0x93, 0x4e, 0xc0, 0xe3, 0xaa, 0x5d, 0xbf, 0xf3, 0xb3, 0x4b, 0xbf,
  0x8c, 0x6b, 0xb8, 0xbf, 0xf3, 0xee, 0x66, 0xbe, 0xc4, 0x52, 0xdf, 0xbe, 0x8a, 0xc3, 0xa3, 0x3e, 0x28, 0xdc, 0x80, 0xbf,
  0x58, 0xe8, 0x6a, 0x3f, 0x3d, 0xcb, 0x78, 0x3f, 0xa4, 0xf6, 0x67, 0x3f, 0xef, 0xa8, 0x68, 0xbf, 0xbe, 0x4e, 0x19, 0x3f,
  0xaf, 0x2b, 0xe6, 0xbe, 0xb7, 0x4c, 0x6f, 0xbf, 0xc1, 0x66, 0xf6, 0xbf, 0x76, 0xf2, 0x0b, 0x3f, 0x20, 0x99, 0x66, 0x3f,
  0x97, 0x2b, 0x88, 0xbe, 0x4a, 0x86, 0x24, 0x3f, 0x3c, 0xc9, 0xe7, 0x3e, 0x37, 0xc8, 0xa0, 0xbe, 0x63, 0x87, 0xec, 0xbd,
  0xba, 0x10, 0x79, 0xbf, 0x8e, 0x38, 0x48, 0x3c, 0xd8, 0xb9, 0x58, 0x3e, 0x20, 0xbd, 0x58, 0x3f, 0xc7, 0x70, 0x80, 0x3e,
  0xc9, 0x5a, 0x0e, 0xbf, 0x2a, 0xac, 0xff, 0xbe, 0xaa, 0xf3, 0xba, 0xbe, 0x3b, 0x8d, 0x94, 0x3f, 0xe4, 0x33, 0x01, 0xbf,
  0xb3, 0x2e, 0x0e, 0x3d, 0x10, 0xf7, 0xa4, 0xbe, 0x4f, 0x2e, 0x89, 0x3e, 0x47, 0x7f, 0x06, 0x40, 0xd1, 0x2b, 0x96, 0x3f,
  0x06, 0x37, 0x27, 0xbf, 0x05, 0x33, 0x5b, 0xbf, 0xd6, 0xf5, 0x6f, 0x3d, 0x28, 0x79, 0x56, 0x3e, 0xa7, 0x4e, 0xc2, 0x3d,
  0x96, 0x55, 0xdd, 0x3f, 0xfc, 0x04, 0x4f, 0x3e, 0xa8, 0xf6, 0xd3, 0x3e, 0x76, 0xb0, 0x84, 0x3e, 0xae, 0xb8, 0x9c, 0x3d,
  0x99, 0xa4, 0x8c, 0xbd, 0x2b, 0x14, 0x04, 0xbd, 0xd1, 0xdd, 0xbf, 0xbd, 0xb5, 0x86, 0x7a, 0x3e, 0x3d, 0x89, 0xbd, 0xbf,
  0xe6, 0x76, 0x76, 0xbf, 0xa9, 0x28, 0x99, 0x3f, 0x7e, 0xe8, 0x18, 0x3e, 0x37, 0xc3, 0x82, 0x3f, 0xd1, 0x0d, 0xcd, 0x3e,
  0x5e, 0x77, 0xcc, 0xbe, 0x7e, 0x94, 0xe2, 0xbd, 0x6c, 0xe5, 0xec, 0xbd, 0x48, 0xc2, 0x30, 0xbf, 0xbc, 0x38, 0x78, 0xbf,
  0xcd, 0x8e, 0xf0, 0x3c, 0x79, 0xd7, 0x17, 0x3f, 0x9f, 0x93, 0xbd, 0xbe, 0xab, 0x89, 0xbf, 0x3f, 0x0e, 0x62, 0x52, 0x3d,
  0x3c, 0x6f, 0x70, 0x3f, 0x3b, 0xd6, 0x55, 0x3f, 0xad, 0x94, 0xbf, 0x3e, 0x3a, 0xe6, 0x9e, 0x3f, 0x10, 0xe0, 0x86, 0xbf,
  0x92, 0x88, 0xd2, 0xbd, 0xbb, 0x3c, 0x2c, 0xbe, 0xd5, 0x37, 0x99, 0x3f, 0x3d, 0xf2, 0xa7, 0x3e, 0x00, 0x1c, 0xb0, 0xbe,
  0xb0, 0x43, 0xa8, 0xbe, 0xa4, 0x86, 0x37, 0x3e, 0x5a, 0x6c, 0xf9, 0xbd, 0xa4, 0x56, 0x69, 0xbd, 0x43, 0x01, 0x44, 0xbe,
  0xa5, 0x12, 0xb9, 0x3e, 0xba, 0x66, 0x38, 0xbf, 0x07, 0xdb, 0x53, 0x3e, 0x88, 0x6f, 0xbf, 0x3f, 0xf2, 0x87, 0x19, 0x40,
  0xc6, 0x48, 0x64, 0x3f, 0x23, 0xb5, 0x46, 0xbf, 0xb1, 0xf9, 0x18, 0xbf, 0xc2, 0xcf, 0x7c, 0x3f, 0xc0, 0x43, 0x0a, 0x3f,
  0x07, 0x38, 0x6e, 0xbf, 0x08, 0xc2, 0xcb, 0x3e, 0x9a, 0xf3, 0xe4, 0xbd, 0xe6, 0xe2, 0x8a, 0xbe, 0xf3, 0x3d, 0x2b, 0x3d,
  0x72, 0xb7, 0x12, 0xbe, 0x83, 0x53, 0x2c, 0xbe, 0xe6, 0xb8, 0x19, 0xbf, 0x0f, 0x0e, 0x6a, 0x3e, 0xc6, 0x74, 0x0b, 0x3e,
  0x49, 0x90, 0xde, 0x3e, 0xdd, 0x45, 0xe2, 0x3c, 0x98, 0x14, 0x81, 0xbc, 0xf4, 0xc8, 0x63, 0x3e, 0xef, 0x84, 0xad, 0xbe,
  0xf9, 0xa4, 0x2f, 0x3e, 0x73, 0x6f, 0x77, 0xbe, 0x1a, 0x82, 0x8d, 0xbb, 0x71, 0x72, 0xa8, 0x3f, 0x52, 0x46, 0x51, 0x3d,
  0x04, 0xe9, 0xbd, 0xbe, 0xca, 0xc4, 0x87, 0xbf, 0x98, 0x44, 0x14, 0xbf, 0x9f, 0xa1, 0xca, 0xbe, 0x2e, 0x48, 0x2b, 0xbf,
  0xbe, 0x54, 0x02, 0xc0, 0xea, 0xd1, 0x97, 0xbf, 0x16, 0xe4, 0xab, 0x3d, 0xd0, 0xeb, 0xa6, 0x3f, 0x3d, 0xbe, 0xa3, 0xbf,
  0x00, 0x5d, 0x22, 0xc0, 0x46, 0x67, 0xfb, 0xbd, 0xe3, 0xb2, 0x94, 0x3f, 0xbc, 0x1d, 0x6f, 0x3e, 0x18, 0x22, 0x65, 0xbf,
  0x42, 0x21, 0xbf, 0xbd, 0xf7, 0xe2, 0x46, 0xbf, 0x7d, 0xf2, 0xc9, 0xbe, 0xa3, 0x7d, 0x12, 0xbf, 0x8c, 0x24, 0xe4, 0x3e,
  0xde, 0x19, 0x50, 0xbd, 0x95, 0xce, 0x42, 0x3e, 0xbb, 0x1f, 0x8a, 0x3e, 0x2c, 0xb1, 0x64, 0x3e, 0x31, 0x9d, 0xfa, 0x3b,
  0x3b, 0xab, 0xf6, 0x3f, 0x00, 0x34, 0x76, 0x3f, 0xaf, 0xfd, 0x15, 0xbe, 0x08, 0x6a, 0x32, 0xbd, 0x76, 0xc4, 0xaa, 0x3e,
  0x83, 0xb5, 0xb0, 0xbe, 0xe6, 0xde, 0xb6, 0xbe, 0x5c, 0xc7, 0x47, 0xbe, 0xd4, 0xf3, 0x19, 0xbf, 0x40, 0x65, 0x3b, 0xbf,
  0xcd, 0x3a, 0x4c, 0x3e, 0xff, 0xa1, 0x37, 0xbf, 0xed, 0x17, 0xc8, 0xbd, 0x39, 0x60, 0x4c, 0x3f, 0x6e, 0xda, 0x94, 0x3e,
  0x7b, 0x1a, 0x6f, 0xbf, 0xbe, 0xe7, 0x17, 0xbf, 0x20, 0x9f, 0x48, 0x3e, 0x6f, 0x34, 0xc9, 0x3d, 0xf9, 0xc0, 0xf6, 0x3e,
  0xe3, 0x65, 0x58, 0x3f, 0x87, 0x2e, 0x84, 0x3e, 0x6b, 0x96, 0x2f, 0x3f, 0x0a, 0x67, 0x91, 0xbf, 0x4d, 0xf1, 0x3c, 0xbe,
  0x99, 0x71, 0xc2, 0x3e, 0xe7, 0x47, 0x28, 0x3e, 0x76, 0x03, 0x25, 0x3f, 0x26, 0x63, 0xae, 0xbf, 0x5e, 0x22, 0xf2, 0x3f,
  0x83, 0x6f, 0x13, 0x3e, 0x4f, 0x10, 0x66, 0x3f, 0x7a, 0xa2, 0x9b, 0xbf, 0x7d, 0x61, 0x2b, 0x40, 0x77, 0x00, 0x24, 0x3f,
  0xbf, 0x50, 0x96, 0x3e, 0xdf, 0x15, 0x81, 0x3f, 0xc9, 0x78, 0xa7, 0xbe, 0xda, 0x22, 0x6f, 0xbe, 0x58, 0xfe, 0xbe, 0xbe,
  0xbb, 0xb6, 0xc3, 0xbe, 0x9c, 0x97, 0xa3, 0xbe, 0x3a, 0x61, 0xb9, 0xbf, 0xa6, 0xa8, 0x44, 0xbf, 0xf5, 0x0e, 0x6b, 0x3f,
  0x40, 0x0c, 0x8d, 0x3f, 0x18, 0x92, 0x45, 0xbf, 0xc0, 0x1c, 0x72, 0xbf, 0x30, 0xb0, 0xc9, 0x3e, 0xd2, 0x2a, 0x62, 0xbf,
  0x31, 0xeb, 0xbd, 0x3c, 0xa4, 0x69, 0xa2, 0x3e, 0xe1, 0xde, 0x45, 0xbf, 0x18, 0x7d, 0x01, 0xbd, 0x8f, 0x70, 0xda, 0x3e,
  0x77, 0x38, 0x8c, 0xbe, 0x87, 0xf4, 0xde, 0xbe, 0xf3, 0x64, 0x23, 0xbf, 0x31, 0xbc, 0xcc, 0x3f, 0x10, 0x95, 0xbb, 0x3d,
  0xce, 0xde, 0x55, 0xbe, 0x33, 0xbd, 0xcf, 0x3e, 0xca, 0x16, 0xa0, 0xbf, 0xac, 0x6a, 0x89, 0x3f, 0x36, 0x6f, 0x92, 0x3e,
  0xbb, 0xab, 0x0b, 0x40, 0xd3, 0x0f, 0x8c, 0x3e, 0x59, 0x93, 0xc9, 0x3d, 0xa7, 0x94, 0xf9, 0x3e, 0x9f, 0xa9, 0xe8, 0xbe,
  0xe7, 0x91, 0xc8, 0xbe, 0xbb, 0x9d, 0x92, 0x3d, 0xe2, 0xe8, 0x12, 0x40, 0x16, 0xb9, 0xca, 0xbf, 0x0d, 0x8a, 0x34, 0xbf,
  0x57, 0xce, 0x77, 0xbf, 0x95, 0x4d, 0xb5, 0x3e, 0x14, 0x23, 0x31, 0xbf, 0x17, 0x23, 0x1d, 0xbe, 0xa6, 0x1c, 0x9c, 0x3f,
  0xb2, 0x00, 0x43, 0xbf, 0x04, 0x32, 0x09, 0x3e, 0xe8, 0xc8, 0x66, 0xbe, 0x0a, 0x48, 0x40, 0xbf, 0x63, 0xc6, 0x38, 0xbe,
  0x10, 0x96, 0x11, 0xbf, 0xac, 0x96, 0x5a, 0x3e, 0x08, 0x66, 0x45, 0xbd, 0x99, 0xcc, 0x9c, 0x3f, 0x88, 0x58, 0x99, 0x3e,
  0xc2, 0x1e, 0xc1, 0xbd, 0xf9, 0xd5, 0xc1, 0xbf, 0x3f, 0x40, 0x6a, 0xbf, 0x0f, 0x9a, 0x45, 0x3d, 0x19, 0x02, 0x0f, 0xbf,
  0xe9, 0x01, 0xd5, 0x3e, 0x7f, 0xc1, 0x85, 0xbf, 0xc9, 0xd7, 0x6d, 0x3e, 0xb6, 0xe7, 0x3b, 0xbf, 0x62, 0x9d, 0x3c, 0xbf,
  0x9d, 0x5f, 0x3a, 0x3f, 0xb9, 0x5e, 0xaf, 0x3f, 0x01, 0x7b, 0x29, 0xbe, 0xd3, 0xe1, 0x47, 0xbf, 0x6f, 0x3d, 0xa8, 0x3f,
  0x2b, 0x59, 0x6d, 0x3e, 0xbd, 0x5c, 0x89, 0x3f, 0x5f, 0xfa, 0x43, 0x3f, 0xb1, 0x4b, 0x9b, 0x3f, 0x01, 0x30, 0x7d, 0x3d,
  0x22, 0xf8, 0x1c, 0xbf, 0x6c, 0x1e, 0xc7, 0xbe, 0xa4, 0x8a, 0x05, 0x3f, 0x08, 0x18, 0xde, 0x3f, 0x5a, 0x52, 0x8e, 0x3e,
  0x27, 0x16, 0xc2, 0xbe, 0x58, 0x8b, 0x14, 0x3f, 0x51, 0xa2, 0xb3, 0xbd, 0xde, 0xcf, 0xc5, 0xbe, 0x04, 0x95, 0xa1, 0xbd,
  0xe0, 0x0f, 0x9d, 0xbf, 0x17, 0x29, 0x48, 0xbe, 0x64, 0x0c, 0x36, 0x3f, 0x93, 0x8d, 0xbe, 0x3f, 0xab, 0x21, 0x2b, 0xbf,
  0x85, 0xb6, 0x90, 0xbf, 0xdc, 0x81, 0x62, 0x3f, 0xa7, 0x91, 0x69, 0x3e, 0x8d, 0xf7, 0x70, 0x3e, 0xbd, 0xaf, 0x3e, 0x3f,
  0x3b, 0xc4, 0xde, 0x3d, 0x2e, 0xa4, 0x37, 0x3e, 0x72, 0x19, 0x76, 0x3f, 0x55, 0xea, 0xa6, 0x3b, 0x9c, 0x78, 0xf2, 0xbe,
  0xd9, 0xa3, 0xa8, 0x3d, 0x98, 0x46, 0x5a, 0x3f, 0x37, 0x23, 0xd0, 0x3f, 0x4c, 0xdb, 0x8a, 0x3e, 0xc3, 0x29, 0xcb, 0x3c,
  0x08, 0xb4, 0x0e, 0xbe, 0x72, 0x2b, 0x36, 0x3f, 0x1d, 0xba, 0x7c, 0x3f, 0x23, 0xa5, 0xb2, 0xbf, 0xd2, 0x1c, 0xc0, 0x3e,
  0x84, 0x24, 0x9c, 0x3f, 0x7f, 0x89, 0x85, 0x3e, 0xbb, 0x45, 0x3f, 0x3f, 0x8c, 0x74, 0x08, 0xbf, 0x04, 0x7a, 0x4c, 0xbf,
  0xa9, 0xae, 0x78, 0x3e, 0x6d, 0x64, 0x79, 0xbe, 0x78, 0x95, 0x52, 0xbf, 0x28, 0x03, 0x43, 0x3d, 0x2d, 0x33, 0xa1, 0x3f,
  0x90, 0x89, 0xc9, 0xbd, 0x89, 0xd1, 0xa7, 0xbe, 0xf5, 0xdf, 0x20, 0xbf, 0xe2, 0x46, 0x4b, 0x3f, 0xbb, 0x65, 0x16, 0x3f,
  0x8a, 0x2f, 0x35, 0xbe, 0xc1, 0x98, 0x91, 0x3f, 0xb8, 0x3e, 0x75, 0x3d, 0x16, 0x6f, 0xed, 0x3e, 0x34, 0x29, 0x82, 0x3f,
  0x2a, 0x95, 0xfe, 0xba, 0xa3, 0x4c, 0x0c, 0xbf, 0xcc, 0x61, 0x6f, 0x3d, 0xc8, 0x63, 0x12, 0xbf, 0x64, 0x16, 0x90, 0xbf,
  0x7c, 0x06, 0xb2, 0x3f, 0x87, 0xae, 0x1b, 0x3e, 0x6d, 0x0f, 0x3f, 0xbd, 0x04, 0xee, 0x2f, 0x40, 0x15, 0xbc, 0x8e, 0x3f,
  0xeb, 0x6a, 0x6e, 0xbf, 0x67, 0x96, 0x3f, 0x3e, 0x7e, 0x5d, 0x19, 0x3f, 0x63, 0x4b, 0x1f, 0xbd, 0xc3, 0xab, 0x9c, 0xbf,
  0x27, 0xaf, 0xc1, 0x3f, 0x10, 0x05, 0x4f, 0xbf, 0xd4, 0xd9, 0x7d, 0xbf, 0xcd, 0xc7, 0x6c, 0x3f, 0xa3, 0xea, 0x83, 0xbe,
  0x30, 0xcc, 0xe6, 0x3d, 0xa5, 0xb4, 0xb9, 0x3e, 0xcc, 0x88, 0xab, 0x3e, 0xce, 0x90, 0x93, 0xbf, 0xd8, 0x28, 0x6d, 0x3f,
  0xa6, 0x1c, 0xce, 0x3f, 0x0d, 0x4c, 0xfa, 0x3e, 0xe9, 0x4a, 0x70, 0xbf, 0x84, 0x63, 0x1f, 0x40, 0x41, 0xf2, 0x8a, 0xbf,
  0xfd, 0xb4, 0x93, 0xbd, 0xb7, 0x1a, 0xc3, 0x3e, 0x52, 0x13, 0xe9, 0xbc, 0x24, 0x17, 0xd5, 0xbe, 0x64, 0x2a, 0x4c, 0xbf,
  0x93, 0x51, 0xa5, 0x3e, 0xac, 0xe4, 0xa1, 0xbf, 0x53, 0x1c, 0x22, 0xbe, 0x24, 0xf0, 0xc4, 0xbc, 0x5d, 0x55, 0x26, 0x3f,
  0x42, 0xed, 0x9b, 0x3f, 0xdb, 0x42, 0x13, 0xbf, 0x12, 0x07, 0xb0, 0x3f, 0xb0, 0xd3, 0x9c, 0xbe, 0x6f, 0x0f, 0x32, 0x3f,
  0x55, 0x82, 0x3e, 0x3e, 0xcd, 0x47, 0x1e, 0xbf, 0xe3, 0x40, 0x15, 0xbf, 0x44, 0xc3, 0x7d, 0xbf, 0x3f, 0x79, 0xaa, 0x3f,
  0x63, 0xa6, 0x18, 0xbf, 0x06, 0xef, 0xff, 0xff, 0x04, 0x00, 0x00, 0x00, 0x00, 0x02, 0x00, 0x00, 0xaf, 0xd0, 0xa4, 0xbd,
  0x05, 0x17, 0xa8, 0x3d, 0x2f, 0x34, 0x43, 0x3c, 0x38, 0x8f, 0xd4, 0xbd, 0x95, 0x5f, 0x1f, 0xbd, 0x99, 0x76, 0xb7, 0x3d,
  0x0a, 0x2d, 0x62, 0xbe, 0x0e, 0xd1, 0x24, 0x3d, 0xa1, 0x16, 0x15, 0xbe, 0x41, 0x3f, 0x84, 0x3c, 0x8e, 0x5f, 0x06, 0x3c,
  0x07, 0xe5, 0x5a, 0x3d, 0x37, 0xf5, 0x9c, 0xbd, 0x98, 0x4c, 0x40, 0x3e, 0xdf, 0x3f, 0x22, 0xbe, 0xcf, 0xf4, 0x16, 0x3e,
  0xd6, 0xdc, 0xc1, 0xbd, 0x14, 0xce, 0x93, 0x3c, 0xd2, 0x6e, 0xf0, 0xbc, 0xe3, 0x82, 0x2c, 0x3d, 0xae, 0xb3, 0x1d, 0x3d,
  0xb7, 0xf0, 0x26, 0x3e, 0x79, 0x3f, 0x8b, 0xbd, 0xc5, 0x2c, 0x5a, 0x3c, 0x6f, 0xd2, 0x19, 0xbe, 0x16, 0x16, 0x00, 0xbe,
  0xab, 0x13, 0x78, 0x3c, 0x56, 0x59, 0x26, 0x3e, 0xff, 0x6c, 0x30, 0x3e, 0xfb, 0x40, 0xea, 0xb9, 0x7c, 0x67, 0x00, 0xbd,
  0x79, 0xac, 0x30, 0xbc, 0x0f, 0x55, 0x1b, 0xbd, 0x62, 0xf8, 0x1f, 0x3e, 0xce, 0xd3, 0xae, 0xbd, 0x69, 0x95, 0xbd, 0xbd,
  0x13, 0x50, 0x74, 0x3d, 0xc4, 0x9f, 0x47, 0x3d, 0xd0, 0x05, 0x79, 0xbb, 0xf3, 0xab, 0xc7, 0xbd, 0xd7, 0x8e, 0x33, 0x3d,
  0x52, 0x7a, 0xd0, 0x3d, 0xa0, 0x9a, 0x5d, 0xbe, 0xd7, 0xae, 0x9a, 0xbd, 0xb4, 0xc2, 0xa6, 0xbd, 0x9f, 0x98, 0x45, 0xbc,
  0xb7, 0xf2, 0x23, 0x3e, 0x47, 0xcd, 0x03, 0x3d, 0x67, 0xfc, 0x21, 0xbd, 0x7d, 0x04, 0xf9, 0x3b, 0xf8, 0xb7, 0xa8, 0xbd,
  0xaf, 0x90, 0x4d, 0xbd, 0xf7, 0xee, 0x28, 0xbd, 0x2b, 0x3d, 0x4d, 0x3e, 0x00, 0x37, 0x10, 0xbd, 0x9f, 0xba, 0xc6, 0x3d,
  0xc9, 0x07, 0x1b, 0x3d, 0x7b, 0xe1, 0xa8, 0x3c, 0xaa, 0x22, 0x92, 0x3d, 0xeb, 0xfe, 0x03, 0xbd, 0x98, 0xe4, 0x7f, 0xbe,
  0x1b, 0xf1, 0xae, 0x3d, 0xa8, 0x62, 0xe4, 0xbd, 0xe2, 0xb3, 0xcf, 0xbd, 0xc0, 0xff, 0x7a, 0xbc, 0x09, 0x06, 0x2a, 0x3e,
  0x85, 0xf2, 0x64, 0xbd, 0x15, 0x78, 0x9c, 0x3b, 0x2d, 0x48, 0xdc, 0x3c, 0x72, 0x13, 0xfd, 0x3d, 0xff, 0xff, 0x70, 0xbd,
  0xef, 0xe3, 0xf0, 0xbc, 0x4a, 0x79, 0xd4, 0xbd, 0x27, 0xa2, 0xa7, 0xbd, 0x01, 0x64, 0x96, 0xbe, 0x4a, 0x36, 0xac, 0xbd,
  0x8a, 0xee, 0x32, 0x3c, 0x33, 0x0b, 0x26, 0x3d, 0xaf, 0xde, 0x68, 0xbe, 0xbd, 0x7c, 0x51, 0xbd, 0xe7, 0xd5, 0x2e, 0xbe,
  0x5a, 0xd9, 0xe2, 0x3d, 0xc5, 0xa7, 0xc1, 0x3c, 0xbe, 0x82, 0x0b, 0x3d, 0xd1, 0xda, 0x09, 0xbe, 0x5b, 0x52, 0x4d, 0x3d,
  0x60, 0xab, 0xa6, 0xbb, 0x22, 0x4c, 0x4d, 0xbd, 0x31, 0x0a, 0x01, 0xbe, 0x42, 0x75, 0xcc, 0xbd, 0x50, 0xdf, 0xcc, 0x3d,
  0x3e, 0x1c, 0xc7, 0xbd, 0x9a, 0x80, 0xf4, 0xbc, 0x02, 0xac, 0xab, 0xbd, 0xc5, 0x55, 0xd5, 0xbd, 0x83, 0xcf, 0x58, 0xbd,
  0x8e, 0xe0, 0x0b, 0xbe, 0x6f, 0x4d, 0x1b, 0x3d, 0x91, 0x26, 0x3d, 0xbc, 0xbb, 0x1c, 0x16, 0xbe, 0x9f, 0x83, 0x5f, 0x3d,
  0xc3, 0x5e, 0x2f, 0x3d, 0xb7, 0xd5, 0x11, 0x3e, 0xa7, 0xe9, 0x2a, 0xbd, 0x37, 0x0b, 0xb5, 0xbd, 0xfa, 0xb5, 0x0a, 0x3e,
  0xba, 0x31, 0xe5, 0xbc, 0x5b, 0xf3, 0x04, 0xbe, 0xf8, 0x72, 0xa9, 0x3d, 0x97, 0x1b, 0x1d, 0x3e, 0x6b, 0x1d, 0x1e, 0xbd,
  0xdb, 0x77, 0xf9, 0xbc, 0x58, 0x8d, 0x17, 0xbe, 0xde, 0x2c, 0x4b, 0xbe, 0x07, 0x13, 0xf2, 0x3d, 0xf6, 0xcb, 0x00, 0xbe,
  0xbc, 0xa9, 0xaf, 0xbd, 0x45, 0xb2, 0xd4, 0xbd, 0xc8, 0x8f, 0x20, 0x3e, 0xec, 0x65, 0x10, 0xbe, 0x6a, 0xf7, 0x14, 0x3d,
  0x30, 0x97, 0x76, 0x3d, 0xc5, 0xe1, 0x3b, 0xbe, 0x4e, 0x30, 0xa7, 0xbd, 0x45, 0x27, 0x31, 0x3e, 0x91, 0x3d, 0x1b, 0xbd,
  0x4e, 0xe1, 0x0a, 0xbe, 0xf3, 0x2f, 0x00, 0x3e, 0x12, 0xf1, 0xff, 0xff, 0x04, 0x00, 0x00, 0x00, 0x00, 0x02, 0x00, 0x00,
  0x15, 0xcc, 0x19, 0x3e, 0xcf, 0x12, 0x1f, 0x3d, 0xa4, 0xf3, 0xaf, 0x3d, 0x03, 0x55, 0x08, 0xbe, 0xfc, 0xea, 0x9d, 0x3e,
  0x12, 0x60, 0x35, 0x3f, 0xb2, 0xe4, 0x44, 0x3f, 0x49, 0x39, 0xaf, 0x3e, 0x54, 0xde, 0x2e, 0xbc, 0xd9, 0x15, 0xee, 0x3e,
  0x30, 0xcc, 0x87, 0x3f, 0xab, 0x18, 0xd4, 0xbe, 0xa4, 0x2b, 0xeb, 0x3d, 0x64, 0x11, 0x19, 0x3e, 0x2f, 0xe8, 0xdc, 0xbe,
  0x74, 0x9c, 0x86, 0x3d, 0xb4, 0x8c, 0xbb, 0xbd, 0xc5, 0x9e, 0x0d, 0x3d, 0x6c, 0x16, 0x47, 0xbe, 0x5a, 0xc2, 0xb2, 0xbe,
  0x6b, 0xf4, 0x08, 0xbe, 0xd0, 0x08, 0x8c, 0xbe, 0x64, 0xb2, 0x83, 0xbc, 0x10, 0x3f, 0x6b, 0xbe, 0x47, 0x39, 0x1a, 0x3e,
  0x30, 0x11, 0x8d, 0xbe, 0x1e, 0xff, 0x99, 0xbe, 0x75, 0x21, 0x19, 0xbf, 0x85, 0x06, 0x5e, 0xbe, 0x45, 0x75, 0x87, 0xbe,
  0x99, 0x7f, 0x04, 0xbe, 0x90, 0x31, 0xcf, 0x3e, 0x32, 0xe4, 0xba, 0x3e, 0x4b, 0x68, 0x14, 0xbf, 0x59, 0xee, 0xa9, 0xbc,
  0xec, 0xfa, 0x1b, 0x3f, 0x9d, 0x27, 0xcf, 0xbd, 0xe3, 0x87, 0x8a, 0x3f, 0xf3, 0x70, 0x4d, 0xbe, 0x14, 0x65, 0xac, 0xbe,
  0x69, 0x0c, 0x48, 0xbe, 0x6a, 0xba, 0x3d, 0xbe, 0xdf, 0xd3, 0x5a, 0x3f, 0xb8, 0x50, 0xec, 0x3d, 0x5c, 0x72, 0x09, 0xbe,
  0x8e, 0x50, 0x50, 0xbe, 0x93, 0x2e, 0x31, 0x3f, 0x4a, 0x35, 0x86, 0x3e, 0x26, 0x98, 0x4d, 0xbe, 0xff, 0xac, 0x59, 0xbf,
  0x35, 0x46, 0xcd, 0xbe, 0xc8, 0x92, 0xc1, 0x3a, 0xed, 0xc7, 0x1f, 0x3f, 0x49, 0x73, 0x11, 0x3e, 0xa8, 0xdd, 0xab, 0x3d,
  0x11, 0x90, 0x9c, 0xbe, 0xe2, 0x30, 0xe1, 0x3e, 0xec, 0x10, 0xee, 0x3d, 0x89, 0x82, 0x2f, 0x3e, 0x65, 0x1e, 0x00, 0x3f,
  0x7e, 0xd7, 0x17, 0x3f, 0x45, 0xf4, 0x1e, 0xbe, 0x1f, 0xe3, 0xa0, 0x3d, 0x9e, 0xa3, 0x23, 0x3f, 0xf3, 0xd0, 0x94, 0xbd,
  0xef, 0xdd, 0x1a, 0x3f, 0xe0, 0xee, 0x38, 0x3e, 0xb9, 0x70, 0xc4, 0x3d, 0xd2, 0x16, 0x11, 0xbf, 0x82, 0x69, 0x20, 0x3d,
  0xbb, 0x43, 0x83, 0x3d, 0x43, 0xec, 0x41, 0xbe, 0x86, 0xab, 0xdc, 0x3d, 0x57, 0xae, 0xa1, 0xbd, 0x4e, 0x45, 0x03, 0x3e,
  0x7c, 0x9d, 0x0e, 0x3f, 0x78, 0x58, 0x26, 0x3e, 0x78, 0x76, 0x51, 0x3f, 0x41, 0xf8, 0xd9, 0x3e, 0xf9, 0xeb, 0xaa, 0x3d,
  0x9f, 0x7a, 0x39, 0xbf, 0xb5, 0xeb, 0x64, 0x3e, 0x88, 0xf9, 0xe5, 0xbe, 0x77, 0x0d, 0x1c, 0xbf, 0xc2, 0x96, 0x61, 0x3d,
  0x1c, 0xec, 0xc9, 0xbd, 0x37, 0x04, 0x30, 0xbe, 0x63, 0xbf, 0xb9, 0xbe, 0xa2, 0x34, 0x35, 0x3f, 0x87, 0x8e, 0x08, 0xbf,
  0x56, 0x92, 0xe1, 0x3e, 0x18, 0xcf, 0xd1, 0x3e, 0x2a, 0xf4, 0x03, 0x3e, 0xd4, 0x00, 0x30, 0x3e, 0xa8, 0xdd, 0x5a, 0xbe,
  0x49, 0x0e, 0xcc, 0xbe, 0xa5, 0xc3, 0xec, 0xbe, 0xd6, 0x2c, 0x39, 0xbf, 0x8f, 0x41, 0x85, 0xbe, 0xc4, 0x71, 0x0e, 0x3e,
  0x70, 0x7c, 0x14, 0x3e, 0x2d, 0x26, 0x9e, 0x3e, 0x8a, 0xeb, 0x15, 0x3e, 0x4f, 0x82, 0x09, 0x3d, 0x8b, 0x6f, 0x08, 0x3f,
  0x08, 0x26, 0x11, 0x3f, 0x7c, 0x47, 0x38, 0x3f, 0x21, 0x51, 0x4c, 0x3d, 0x29, 0x86, 0x8e, 0xbe, 0x05, 0x31, 0x89, 0x3c,
  0x0e, 0xb4, 0xa5, 0xbe, 0x5f, 0x1b, 0x81, 0x3e, 0x1b, 0xcf, 0xde, 0xbe, 0xbd, 0x58, 0x31, 0xbe, 0x61, 0xe3, 0x1e, 0x3f,
  0x7b, 0x11, 0x1b, 0xbf, 0xb7, 0x01, 0x25, 0x3f, 0xeb, 0x10, 0x08, 0xbf, 0x45, 0x26, 0x62, 0xbe, 0xef, 0x42, 0x22, 0xbf,
  0xa9, 0x83, 0xe3, 0x3e, 0xf2, 0x1d, 0x09, 0x3e, 0xf5, 0x97, 0x29, 0xbe, 0x1a, 0x4f, 0x61, 0x3e, 0xd1, 0x67, 0x83, 0xbe,
  0xab, 0x57, 0x15, 0xbf, 0x1f, 0x22, 0x03, 0xbe, 0xa2, 0x7e, 0x0a, 0xbf, 0x1e, 0xf3, 0xff, 0xff, 0x04, 0x00, 0x00, 0x00,
  0x00, 0x02, 0x00, 0x00, 0xf7, 0xb1, 0x68, 0xbf, 0x49, 0xae, 0x19, 0x40, 0xbc, 0x8f, 0x27, 0xc0, 0xce, 0x91, 0x1c, 0x40,
  0x87, 0xa9, 0x4f, 0x3f, 0x96, 0xab, 0x9b, 0xbe, 0x9a, 0x4f, 0x7c, 0xbe, 0xdd, 0x5b, 0xa6, 0xbf, 0x81, 0x0e, 0xe8, 0xbc,
  0xdc, 0xa3, 0x21, 0x40, 0xda, 0x94, 0xf5, 0x3e, 0x70, 0x5e, 0xb3, 0xbd, 0xe2, 0xa0, 0xe4, 0xbe, 0x9c, 0x9a, 0x3a, 0xbe,
  0xc6, 0x16, 0x59, 0xbe, 0x58, 0xfd, 0xf2, 0xbe, 0x4c, 0xa4, 0x33, 0x3f, 0x79, 0xe8, 0x13, 0x3f, 0x19, 0x2b, 0xb1, 0xbd,
  0x7a, 0xbf, 0xd9, 0xbe, 0xd1, 0xb9, 0x88, 0x3d, 0x91, 0x51, 0x1c, 0x3f, 0x13, 0x77, 0x98, 0x3f, 0x40, 0xac, 0x76, 0x3e,
  0xaa, 0x55, 0xe1, 0x3e, 0x06, 0xe6, 0x2f, 0x3f, 0xee, 0xc8, 0x8e, 0x3d, 0xf5, 0xd6, 0x15, 0xbf, 0x55, 0x07, 0x42, 0xbe,
  0xd4, 0x84, 0x8a, 0xbe, 0x6d, 0xa7, 0xc8, 0x3f, 0x0c, 0x94, 0x18, 0x3f, 0x72, 0x8e, 0x9b, 0xbe, 0x76, 0xe8, 0x8f, 0x3f,
  0xec, 0xac, 0x54, 0xbe, 0x6f, 0xfc, 0x3d, 0xbf, 0xe6, 0x5f, 0x91, 0xbe, 0xee, 0x10, 0x89, 0x3f, 0x8c, 0xd7, 0x89, 0xbd,
  0x0e, 0x98, 0xc1, 0x3e, 0x61, 0x45, 0x8c, 0x3e, 0x29, 0xf3, 0x92, 0x3f, 0x5f, 0xa5, 0xd2, 0xbe, 0x6e, 0xbf, 0x94, 0x3f,
  0x47, 0x6a, 0x94, 0x3f, 0xdc, 0xa8, 0x97, 0xbe, 0x1a, 0x9b, 0xe5, 0x3f, 0x52, 0xaa, 0x10, 0xbf, 0xca, 0xcd, 0x06, 0xbe,
  0x19, 0xba, 0xb2, 0xbf, 0x35, 0xb8, 0xc6, 0x3f, 0xe8, 0xec, 0x0a, 0xbf, 0xea, 0x18, 0x7a, 0x3e, 0xa3, 0xb9, 0x9c, 0x3d,
  0x15, 0x25, 0x4d, 0xbf, 0x6a, 0xeb, 0x0e, 0x3f, 0x67, 0xd3, 0x7e, 0x3e, 0x59, 0x07, 0xbe, 0x3f, 0xef, 0x50, 0xa2, 0x3f,
  0x7a, 0xec, 0x8f, 0x3f, 0x05, 0x74, 0xde, 0xbe, 0x56, 0x23, 0xba, 0xbf, 0xca, 0xe0, 0x1b, 0xbf, 0xaa, 0x7c, 0xc9, 0x3e,
  0x7f, 0x9a, 0xc2, 0xbe, 0xc8, 0x64, 0x06, 0x40, 0x48, 0xa6, 0x6e, 0x3d, 0x52, 0x8e, 0xa7, 0x3e, 0xa8, 0xd2, 0xa5, 0x3d,
  0x7e, 0xb3, 0xd0, 0xbd, 0x8e, 0x19, 0x45, 0x3f, 0xfb, 0x55, 0x15, 0xbe, 0x25, 0x33, 0x01, 0xc0, 0x70, 0xc7, 0x96, 0xbf,
  0x8b, 0x7e, 0x12, 0x40, 0x9a, 0x60, 0xa8, 0xbe, 0x79, 0x1e, 0xf5, 0x3e, 0x37, 0x31, 0x7d, 0x3f, 0x65, 0xff, 0xe6, 0xbf,
  0xe6, 0xaa, 0xa5, 0xbe, 0x2c, 0x8a, 0x13, 0xc0, 0xca, 0xf0, 0xbc, 0xbf, 0xe3, 0x38, 0x9d, 0x3f, 0xb9, 0x99, 0x42, 0x3f,
  0x20, 0xbb, 0x26, 0x40, 0xdf, 0xcb, 0x7e, 0xbd, 0xb2, 0x47, 0x88, 0x3f, 0x83, 0x4b, 0x3b, 0x40, 0x02, 0x36, 0x8f, 0x3e,
  0x53, 0x41, 0x12, 0xbd, 0x52, 0x94, 0x25, 0x3f, 0x0c, 0x3a, 0x2f, 0x3f, 0x93, 0xe0, 0x00, 0xbf, 0x6b, 0xa2, 0x95, 0x3f,
  0xaf, 0xa9, 0xb0, 0x3e, 0xb1, 0x88, 0x4b, 0x3f, 0xfc, 0xd9, 0x13, 0xbf, 0x39, 0xda, 0x36, 0xbf, 0xc4, 0x1d, 0x1e, 0xbf,
  0x7d, 0x67, 0x32, 0xbe, 0x3d, 0xe4, 0x2c, 0xbf, 0xcc, 0x52, 0x89, 0x3f, 0xe2, 0xbc, 0x92, 0x3f, 0xbd, 0x68, 0x34, 0xbf,
  0x6f, 0xd1, 0x1a, 0x3f, 0x8f, 0x42, 0x91, 0xbf, 0xe5, 0xb4, 0xb3, 0xbe, 0xac, 0x27, 0xfd, 0x3e, 0x72, 0x70, 0xdf, 0x3f,
  0x48, 0xf7, 0xf5, 0xbf, 0x89, 0x90, 0xeb, 0x3d, 0x5e, 0xd9, 0x80, 0x3d, 0x73, 0xbd, 0x07, 0xbf, 0x86, 0xa0, 0x80, 0xbe,
  0x93, 0xe3, 0x1f, 0xbf, 0x1f, 0x3a, 0x9a, 0xbf, 0x37, 0xf1, 0x9e, 0xbf, 0x45, 0xdd, 0x65, 0xbf, 0xf2, 0x4f, 0x4f, 0xbe,
  0x9b, 0x4b, 0x96, 0xbf, 0x98, 0x68, 0xb1, 0xbe, 0xa2, 0x79, 0x22, 0x3f, 0x4e, 0xaf, 0x71, 0x3f, 0x38, 0xce, 0xd9, 0x3d,
  0xb6, 0x62, 0x93, 0xbe, 0x6e, 0xe4, 0x0f, 0x40, 0xca, 0xad, 0x3a, 0xbe, 0xae, 0x49, 0x14, 0x3f, 0x2a, 0xf5, 0xff, 0xff,
  0x04, 0x00, 0x00, 0x00, 0x80, 0x00, 0x00, 0x00, 0xad, 0xb6, 0xe9, 0xbc, 0x55, 0x83, 0x62, 0x3e, 0x73, 0xca, 0xbc, 0xbd,
  0xf3, 0x21, 0x70, 0x3d, 0x9b, 0x1e, 0x0c, 0x3e, 0x82, 0x5c, 0x00, 0x3c, 0xd7, 0xa4, 0x54, 0xbd, 0x12, 0x87, 0x8d, 0x3e,
  0x18, 0x71, 0x31, 0xbd, 0xb3, 0xe4, 0x9b, 0xbd, 0x49, 0x9e, 0x3e, 0xbd, 0x25, 0x53, 0x32, 0x3d, 0x95, 0x7f, 0x6d, 0x3e,
  0x7f, 0x4f, 0xf6, 0xbd, 0xcc, 0xfa, 0x0b, 0x3e, 0xca, 0x2a, 0x3b, 0x3e, 0x8d, 0x01, 0xc2, 0x3b, 0x96, 0x29, 0x02, 0x3e,
  0xd2, 0x4e, 0x71, 0x3d, 0x46, 0x83, 0x26, 0xbd, 0xc3, 0x89, 0xec, 0xbd, 0x2b, 0xc7, 0x52, 0xbe, 0x00, 0x5c, 0x9e, 0xbb,
  0xd7, 0x27, 0x90, 0x3d, 0x31, 0x89, 0x0d, 0x3e, 0x84, 0x6c, 0x18, 0xbe, 0x12, 0x32, 0x53, 0x3d, 0x83, 0xc3, 0x0d, 0x3e,
  0x3b, 0xb5, 0x32, 0x3d, 0xc6, 0x36, 0x82, 0x3d, 0x93, 0x72, 0x1e, 0xbe, 0x01, 0xd3, 0xac, 0x3e, 0xb6, 0xf5, 0xff, 0xff,
  0x04, 0x00, 0x00, 0x00, 0x80, 0x00, 0x00, 0x00, 0x3f, 0x87, 0x9c, 0xbe, 0xf4, 0x6f, 0x33, 0xbe, 0xa9, 0x15, 0xb0, 0x3e,
  0xa3, 0xed, 0x2f, 0x3e, 0x25, 0x33, 0x4e, 0x3f, 0x38, 0x9d, 0x62, 0x3f, 0x4e, 0x78, 0x86, 0xbf, 0xd1, 0xa7, 0x61, 0xbf,
  0xe7, 0x20, 0x1f, 0x3f, 0xea, 0x40, 0x48, 0xbe, 0x29, 0xa8, 0x14, 0x3c, 0x34, 0x31, 0x60, 0xbb, 0xe2, 0x30, 0x91, 0x3e,
  0xec, 0x23, 0x4f, 0x3e, 0x5f, 0xed, 0x0d, 0xbe, 0x59, 0x76, 0x00, 0xbf, 0xe8, 0xd4, 0xe7, 0xbd, 0x7c, 0x41, 0x2d, 0x3e,
  0x3a, 0x91, 0x40, 0xbf, 0xb5, 0xb6, 0x20, 0x3e, 0x8c, 0x1c, 0x61, 0xbf, 0x22, 0x74, 0x51, 0xbf, 0x1e, 0xc4, 0x64, 0x3e,
  0x92, 0x94, 0xb2, 0xbe, 0x9a, 0x59, 0x45, 0x3f, 0xef, 0x6d, 0x1c, 0xbe, 0xfb, 0x83, 0x38, 0xbf, 0x8f, 0xb2, 0x25, 0x3d,
  0x89, 0x47, 0x93, 0xbe, 0x5f, 0x40, 0x1d, 0xbf, 0xf2, 0xc1, 0xcf, 0x3e, 0xf0, 0xeb, 0xb6, 0xbd, 0x42, 0xf6, 0xff, 0xff,
  0x04, 0x00, 0x00, 0x00, 0x20, 0x00, 0x00, 0x00, 0x19, 0x66, 0x18, 0x40, 0x05, 0x00, 0xc6, 0xbf, 0x4f, 0xe0, 0x1a, 0xc0,
  0x37, 0xa5, 0x56, 0x40, 0x74, 0x16, 0x9a, 0x3f, 0xe2, 0x13, 0xe5, 0xbf, 0x5d, 0x51, 0x1d, 0x40, 0xa0, 0xfd, 0x3b, 0x40,
  0x6e, 0xf6, 0xff, 0xff, 0x04, 0x00, 0x00, 0x00, 0x04, 0x00, 0x00, 0x00, 0x03, 0x2f, 0xd2, 0xbc, 0x7e, 0xf6, 0xff, 0xff,
  0x04, 0x00, 0x00, 0x00, 0xa0, 0x02, 0x00, 0x00, 0xc9, 0xf2, 0x16, 0x3e, 0x0d, 0xd5, 0x14, 0x3f, 0xe2, 0x91, 0xdc, 0xbf,
  0x59, 0x45, 0xbe, 0xbf, 0x97, 0x6f, 0x8f, 0xbe, 0xb6, 0xa0, 0x89, 0xbd, 0x94, 0x84, 0xac, 0xbf, 0xd9, 0xa0, 0x2e, 0x3f,
  0x6b, 0xde, 0x4e, 0x3c, 0xa7, 0x89, 0x73, 0xbf, 0x2e, 0xe2, 0xe1, 0xbe, 0xa8, 0xe3, 0xa3, 0xbf, 0x54, 0x2d, 0x57, 0x3f,
  0x79, 0x37, 0x01, 0xbd, 0x0a, 0x90, 0x11, 0xbf, 0x89, 0xc8, 0x90, 0xbe, 0xbf, 0x39, 0xe2, 0x3e, 0x50, 0xd7, 0xa3, 0xbf,
  0x44, 0x91, 0xf7, 0xbd, 0xfa, 0xed, 0x3a, 0x3f, 0xa2, 0x41, 0xb5, 0xbd, 0x47, 0x25, 0x9d, 0xbd, 0xce, 0xb7, 0x84, 0xbe,
  0x00, 0xb8, 0x4e, 0xbe, 0xcf, 0xab, 0x28, 0xbe, 0x57, 0x12, 0x5d, 0x3e, 0x4b, 0x68, 0x4e, 0xbf, 0x33, 0x97, 0xd0, 0xbf,
  0xe7, 0x2f, 0x8c, 0x3e, 0x98, 0x17, 0xed, 0xbe, 0xcd, 0xa6, 0xf4, 0xbe, 0x76, 0xcb, 0x9d, 0x3e, 0xd5, 0x33, 0xa5, 0xbf,
  0xf8, 0xc0, 0x71, 0x3e, 0xe9, 0x1b, 0x62, 0xbf, 0xb6, 0x2a, 0x3e, 0xbe, 0xd7, 0x3e, 0xce, 0xbf, 0x19, 0x87, 0x03, 0xbf,
  0x52, 0xbe, 0xab, 0x3e, 0xc0, 0xb8, 0x70, 0xbf, 0x66, 0x09, 0xb9, 0xbe, 0x56, 0xa9, 0x19, 0xbf, 0x61, 0x50, 0x66, 0xbe,
  0x2f, 0x59, 0x1f, 0x3f, 0xcd, 0x33, 0x65, 0xbd, 0x6f, 0xca, 0x14, 0xbe, 0xa9, 0x9d, 0xb2, 0xbf, 0x92, 0x0e, 0x41, 0x3e,
  0x0a, 0x01, 0x14, 0x3f, 0x8d, 0x2e, 0xf9, 0x3d, 0x89, 0xec, 0x96, 0xbf, 0x52, 0x6f, 0x89, 0xbf, 0x26, 0x6b, 0x82, 0x3f,
  0x6f, 0xe9, 0x04, 0xbf, 0x51, 0x89, 0x09, 0xbf, 0x99, 0xca, 0x57, 0x3f, 0x2f, 0xd5, 0x47, 0xbf, 0xed, 0x52, 0xaf, 0x3f,
  0x9e, 0x3a, 0x8e, 0xbc, 0xeb, 0x12, 0x1e, 0xbf, 0x3b, 0xa1, 0x20, 0x3e, 0xe0, 0x43, 0xf7, 0xbe, 0x35, 0xed, 0xbc, 0x3f,
  0xdd, 0x57, 0x14, 0xbf, 0xcc, 0xac, 0x94, 0xbe, 0x2f, 0x65, 0x5a, 0xbe, 0x6a, 0x59, 0x53, 0xbe, 0x09, 0x1c, 0x09, 0x3f,
  0x15, 0xe8, 0xaa, 0x3e, 0x25, 0x24, 0x96, 0x3e, 0xfa, 0xe3, 0x59, 0x40, 0xaf, 0x72, 0xbf, 0x3e, 0xec, 0x5d, 0x70, 0xbf,
  0xa7, 0xd3, 0xc1, 0x3f, 0xc8, 0x97, 0x5a, 0xbf, 0x00, 0x95, 0x6d, 0xbf, 0xfa, 0x75, 0x4f, 0x3f, 0x2c, 0x03, 0xfb, 0x3e,
  0x73, 0xb6, 0xfc, 0x3e, 0x69, 0x15, 0x95, 0xbd, 0x0d, 0xe8, 0x2a, 0x3f, 0x10, 0x60, 0xb5, 0x3f, 0xcc, 0xa8, 0xb4, 0x3f,
  0xe4, 0xd5, 0xcd, 0xbf, 0x46, 0x12, 0xa8, 0xbe, 0x08, 0x60, 0xdd, 0x3f, 0x6d, 0xd5, 0x3b, 0x3e, 0xfe, 0xaf, 0x2a, 0xbe,
  0xa5, 0x1c, 0x7c, 0xbe, 0xe3, 0x34, 0xb7, 0xbf, 0x65, 0x07, 0x9c, 0x3f, 0xc1, 0x10, 0x85, 0x3e, 0x5a, 0x12, 0x90, 0x3f,
  0xf5, 0xa3, 0x84, 0x3f, 0xa7, 0x84, 0x6f, 0xbe, 0x5a, 0xd2, 0x00, 0xc0, 0xee, 0x03, 0x77, 0xbf, 0x8c, 0x6d, 0x5b, 0x3e,
  0x50, 0x9a, 0x2e, 0xbf, 0xe3, 0x5f, 0xc6, 0x3e, 0xbe, 0x4f, 0x0e, 0xbe, 0x91, 0x3d, 0xf8, 0x3f, 0x60, 0xc6, 0x35, 0xbf,
  0x1e, 0x6a, 0xea, 0xbd, 0xb3, 0x26, 0x88, 0xbf, 0x8e, 0x04, 0x2c, 0xbf, 0x3f, 0x26, 0xb2, 0xbe, 0x11, 0xe6, 0xa5, 0xbd,
  0x5c, 0xb5, 0x16, 0x40, 0x02, 0x96, 0x66, 0xbf, 0x70, 0x57, 0x33, 0xbe, 0xb7, 0xf7, 0xfa, 0x3e, 0xb7, 0x4b, 0x31, 0xbf,
  0x46, 0x04, 0x13, 0x3e, 0x36, 0x2f, 0xa4, 0x3e, 0xfe, 0x17, 0x74, 0xbf, 0x2a, 0xa3, 0xdc, 0xbd, 0x6b, 0x8b, 0x99, 0x3d,
  0xdc, 0xaf, 0x71, 0xbf, 0xcc, 0xd8, 0xf5, 0xbe, 0x99, 0x09, 0x89, 0x3f, 0xf7, 0x11, 0x1c, 0x3e, 0x7d, 0x6b, 0xc9, 0xbd,
  0x2d, 0x25, 0xdf, 0xbe, 0x17, 0x29, 0xc9, 0xbe, 0x48, 0xce, 0xd6, 0x3e, 0x0b, 0xdd, 0xe6, 0x3e, 0x82, 0x3a, 0xd0, 0xbe,
  0x9a, 0x5f, 0x5c, 0x3f, 0x6f, 0xf5, 0x9d, 0xbf, 0x79, 0x2d, 0xa2, 0xbe, 0x13, 0xc9, 0x6d, 0x3f, 0xa4, 0x02, 0xbd, 0xbf,
  0x58, 0xc3, 0x71, 0xbf, 0xeb, 0x39, 0xdb, 0x3e, 0xe7, 0x8f, 0x05, 0x40, 0xbc, 0x11, 0x03, 0x3f, 0x51, 0x1c, 0x26, 0x3f,
  0x72, 0x00, 0x3d, 0x3e, 0x85, 0xff, 0xa6, 0xbf, 0x84, 0xbc, 0x2f, 0xbe, 0x41, 0xc2, 0x3e, 0xbd, 0xe3, 0xdd, 0x93, 0x3e,
  0xc2, 0x1f, 0xff, 0xbd, 0x9c, 0x87, 0x8e, 0x3f, 0xb9, 0xd6, 0xa6, 0xbe, 0x20, 0x06, 0xb5, 0xbf, 0xaf, 0x49, 0xee, 0x3e,
  0xf1, 0x4e, 0x31, 0xbe, 0x0f, 0xd8, 0xae, 0x3e, 0x11, 0x7d, 0xdc, 0xbe, 0xa8, 0xf4, 0x2d, 0xbf, 0x40, 0xca, 0xdb, 0x3e,
  0x94, 0xe1, 0x59, 0xbf, 0x5f, 0xf8, 0xa8, 0xbe, 0x99, 0xec, 0xa0, 0x3f, 0xc5, 0xa9, 0x59, 0xbf, 0x96, 0xd5, 0x64, 0xbe,
  0xa3, 0x46, 0xd8, 0x3d, 0xd2, 0x57, 0x25, 0x3f, 0x45, 0xb4, 0x2c, 0x40, 0x53, 0x02, 0xbd, 0x3d, 0xe6, 0x09, 0x5f, 0x3d,
  0xf9, 0x9b, 0x26, 0xbf, 0x99, 0xc1, 0x4d, 0xbe, 0x91, 0xf9, 0x9c, 0x3e, 0xef, 0x8a, 0x6d, 0xbf, 0x6e, 0xa0, 0x8e, 0xbe,
  0x2a, 0xf9, 0xff, 0xff, 0x04, 0x00, 0x00, 0x00, 0xc0, 0x01, 0x00, 0x00, 0xc2, 0x02, 0x92, 0x3f, 0x13, 0xe2, 0x0a, 0x40,
  0x8a, 0x44, 0xaf, 0xbe, 0xbb, 0xb2, 0x04, 0x3f, 0xe2, 0xe0, 0x27, 0x3f, 0x9f, 0x6b, 0xea, 0x3e, 0xfb, 0x93, 0xd3, 0x3d,
  0x4b, 0x16, 0x34, 0xbd, 0xab, 0x5f, 0x29, 0x3f, 0x5e, 0xe0, 0x00, 0xbe, 0x35, 0xcd, 0xf2, 0x3f, 0x33, 0x1d, 0xfc, 0x3e,
  0xb5, 0xfc, 0x2f, 0x3e, 0x1b, 0xaf, 0xe9, 0x3f, 0xea, 0x72, 0x46, 0x3f, 0x36, 0x3e, 0x04, 0xbf, 0x17, 0x2a, 0x67, 0x3f,
  0xd9, 0xf0, 0xbd, 0xbf, 0x01, 0x24, 0x96, 0x3e, 0x0c, 0xe1, 0xc1, 0x3e, 0xdb, 0x0b, 0x17, 0x3f, 0xf9, 0xdc, 0xce, 0x3e,
  0xa9, 0xeb, 0x26, 0x3e, 0x52, 0x50, 0x44, 0x3d, 0x4e, 0x5f, 0xb5, 0xbe, 0x97, 0x9b, 0x0c, 0xbe, 0xfa, 0x40, 0xa3, 0x3f,
  0x15, 0x7b, 0x64, 0xbf, 0x89, 0x00, 0x65, 0x3f, 0xb4, 0x08, 0x3e, 0x3f, 0x05, 0x18, 0x9f, 0x3b, 0xdd, 0x71, 0x47, 0x3f,
  0x9f, 0x36, 0xcf, 0x3e, 0xde, 0x27, 0x53, 0x3f, 0x3f, 0x57, 0xde, 0xbe, 0x6e, 0xef, 0x4c, 0xbe, 0xa7, 0x8a, 0x9c, 0x3f,
  0xe0, 0x82, 0x69, 0xbd, 0xb1, 0x53, 0x2d, 0x3f, 0x0c, 0xde, 0x45, 0x3f, 0xe4, 0x4a, 0x45, 0xbf, 0x9e, 0x43, 0x85, 0x3e,
  0xd0, 0x28, 0x96, 0x3f, 0x1a, 0xe9, 0x44, 0x3e, 0xf1, 0x99, 0x28, 0x3e, 0xa9, 0xed, 0xf9, 0xbe, 0x43, 0x26, 0xac, 0x3e,
  0x16, 0x56, 0xd5, 0xbf, 0xd4, 0x36, 0xda, 0xbe, 0xd2, 0x1d, 0x3c, 0x3f, 0xd8, 0x57, 0xcb, 0x3f, 0x7b, 0x86, 0x03, 0xbf,
  0x3e, 0xad, 0x6a, 0xbf, 0x3c, 0xd2, 0xec, 0x3e, 0xcb, 0x53, 0x3b, 0xbf, 0xa3, 0x2c, 0xd5, 0x3e, 0xdd, 0x62, 0x92, 0x3f,
  0x6f, 0xed, 0xe5, 0xbf, 0x6e, 0xbe, 0xd1, 0x3e, 0xe9, 0xdc, 0x55, 0x3f, 0x09, 0x65, 0xaa, 0x3f, 0x36, 0x01, 0x4f, 0xbf,
  0x38, 0xe0, 0xa4, 0xbe, 0x04, 0x69, 0xb8, 0xbe, 0xa8, 0xb5, 0x3e, 0xbf, 0xbe, 0xad, 0x06, 0x3e, 0x7d, 0xb2, 0x74, 0xbe,
  0x91, 0x81, 0x85, 0x3d, 0x74, 0x0e, 0x82, 0xbf, 0x3f, 0xac, 0x7b, 0x3f, 0xb8, 0xc9, 0x8d, 0x3f, 0xb2, 0x34, 0x88, 0x3f,
  0x7d, 0x01, 0x88, 0x3f, 0xc5, 0x8a, 0x71, 0x3f, 0x4f, 0xe4, 0x17, 0xbf, 0xff, 0xcc, 0xb8, 0x3f, 0x1e, 0x29, 0x12, 0x3f,
  0xea, 0x3d, 0xc4, 0x3e, 0xbb, 0x4d, 0x49, 0x3f, 0x63, 0xd4, 0x96, 0x3f, 0xd9, 0x72, 0xd0, 0xbe, 0xd6, 0xc6, 0x11, 0x3f,
  0x17, 0x33, 0x90, 0x3e, 0x32, 0xca, 0xa7, 0xbe, 0x8b, 0x3b, 0x95, 0xbe, 0x60, 0xda, 0xd6, 0x3e, 0x7c, 0x99, 0xf3, 0xbf,
  0x92, 0xf6, 0x02, 0x3f, 0xe5, 0xf0, 0x14, 0xbe, 0xb5, 0x52, 0x21, 0xbf, 0xb9, 0xd3, 0x4e, 0xbf, 0xc5, 0x99, 0xfb, 0xbe,
  0xe2, 0xe7, 0x7c, 0xbe, 0x6d, 0x94, 0x95, 0xbd, 0xa8, 0x57, 0xf0, 0x3f, 0x86, 0xa3, 0x02, 0x3e, 0xb3, 0xb1, 0xaf, 0xbe,
  0xf9, 0x16, 0x61, 0xbf, 0x06, 0x1d, 0x37, 0x3e, 0xaf, 0xd2, 0x03, 0x40, 0x7e, 0xd3, 0x58, 0xbf, 0x7f, 0x8c, 0x3d, 0xbe,
  0x41, 0xd5, 0x81, 0xbf, 0x04, 0x70, 0xb4, 0x3d, 0x8e, 0x52, 0x94, 0x3d, 0x66, 0xb6, 0x44, 0xbf, 0xc6, 0xbd, 0xf6, 0x3e,
  0x7a, 0x3d, 0x0e, 0xc0, 0x93, 0xab, 0x39, 0xbe, 0xad, 0x03, 0xa0, 0xbf, 0x90, 0xae, 0x8f, 0x3f, 0x77, 0xf6, 0x71, 0x3e,
  0xf6, 0xfa, 0xff, 0xff, 0x04, 0x00, 0x00, 0x00, 0xe0, 0x00, 0x00, 0x00, 0xda, 0x5b, 0xbc, 0xbf, 0x1f, 0x67, 0x06, 0x3f,
  0x54, 0x93, 0x0c, 0x3f, 0xad, 0x12, 0x39, 0x3f, 0xa1, 0x11, 0xe3, 0x3e, 0xc3, 0x24, 0x25, 0xc0, 0xe6, 0x0d, 0xca, 0x3e,
  0x0e, 0xc9, 0x79, 0xbe, 0xb1, 0xe6, 0x39, 0xbf, 0xf9, 0x30, 0x8d, 0x3f, 0x42, 0x1c, 0x4c, 0x40, 0x45, 0xa8, 0xcb, 0x3f,
  0x3a, 0x46, 0x4a, 0xc0, 0x5e, 0x9f, 0x01, 0xc0, 0xf5, 0xbc, 0xb4, 0x3e, 0x08, 0xaf, 0xc2, 0xbf, 0x08, 0xd8, 0x52, 0xc0,
  0x8a, 0x4c, 0xe0, 0x3f, 0x4f, 0xac, 0xbe, 0xbf, 0xd2, 0xd0, 0x64, 0xbd, 0xca, 0x6b, 0xb9, 0x3f, 0xbf, 0xb1, 0xa3, 0x3f,
  0x91, 0x0f, 0x1f, 0xbe, 0x2e, 0x1d, 0x08, 0xbf, 0x88, 0x46, 0x75, 0x40, 0x07, 0x13, 0x6f, 0x40, 0x9a, 0x37, 0xef, 0x3f,
  0xc1, 0x0f, 0x2e, 0xc0, 0xfc, 0xf9, 0x11, 0xbd, 0xb2, 0xa0, 0x4b, 0xbf, 0x48, 0x32, 0x67, 0x3e, 0x90, 0xeb, 0x68, 0x3e,
  0xfd, 0x0e, 0xaa, 0xbe, 0xc7, 0x66, 0x28, 0xbf, 0xee, 0xab, 0x03, 0x40, 0x4f, 0x29, 0xe0, 0xbf, 0x5b, 0x4b, 0x82, 0x40,
  0xb6, 0x39, 0xeb, 0xbf, 0x89, 0xc3, 0x82, 0x40, 0x4e, 0x1f, 0x96, 0x3a, 0xdf, 0x27, 0x2f, 0x3f, 0xfa, 0x13, 0xf8, 0x3f,
  0xc0, 0x19, 0xf7, 0x3e, 0x98, 0xcd, 0x68, 0xbf, 0x20, 0x50, 0x03, 0xbf, 0x74, 0x7e, 0x35, 0x40, 0xfc, 0xba, 0xb5, 0x3e,
  0x2d, 0x35, 0xe6, 0xbf, 0x72, 0xe8, 0x01, 0xc0, 0xd5, 0x60, 0x8c, 0x3f, 0xf3, 0x7c, 0x85, 0xbf, 0x62, 0x8a, 0xab, 0xbe,
  0x74, 0x09, 0x93, 0x40, 0x76, 0xe7, 0x98, 0x40, 0x82, 0xa0, 0x24, 0xbe, 0x1c, 0xc2, 0xc0, 0xbf, 0xe2, 0xfb, 0xff, 0xff,
  0x04, 0x00, 0x00, 0x00, 0x1c, 0x00, 0x00, 0x00, 0x05, 0xfc, 0x5a, 0xbe, 0x19, 0xd4, 0x17, 0x3e, 0x18, 0x58, 0x42, 0xbe,
  0xb3, 0x01, 0xaa, 0x3e, 0x1e, 0xd2, 0x2e, 0xbd, 0xd2, 0x95, 0x9b, 0xbc, 0xa4, 0xfe, 0x52, 0x3c, 0x0a, 0xfc, 0xff, 0xff,
  0x04, 0x00, 0x00, 0x00, 0x1c, 0x00, 0x00, 0x00, 0x70, 0x4b, 0xd6, 0xbc, 0x3e, 0x16, 0xe1, 0xbd, 0xf7, 0x95, 0x60, 0xbe,
  0x68, 0x84, 0x85, 0x3b, 0xaf, 0x8d, 0x58, 0x3d, 0xb9, 0x7b, 0x24, 0xbd, 0x7f, 0xfb, 0xde, 0xbc, 0x32, 0xfc, 0xff, 0xff,
  0x04, 0x00, 0x00, 0x00, 0x80, 0x00, 0x00, 0x00, 0x8c, 0x6a, 0xf4, 0xbd, 0x55, 0x1d, 0xc0, 0xbe, 0x84, 0x35, 0xd0, 0xbe,
  0xb1, 0x51, 0x84, 0xbe, 0xd8, 0x35, 0xac, 0xbe, 0x7a, 0x31, 0x0e, 0x3e, 0x38, 0x93, 0xbf, 0xbe, 0x6b, 0xb9, 0x0a, 0x3f,
  0x1c, 0x91, 0xda, 0x3d, 0x4a, 0x41, 0xd0, 0x3d, 0x46, 0xf8, 0xbe, 0xbe, 0x02, 0x7c, 0xc4, 0xbe, 0x7e, 0x5b, 0xc1, 0xbe,
  0xb8, 0x60, 0x21, 0xbb, 0x24, 0x67, 0xe2, 0x3d, 0x12, 0x93, 0xdc, 0xbe, 0xc8, 0x30, 0x8a, 0x3c, 0xe9, 0x15, 0x21, 0xbf,
  0x7b, 0x03, 0xf0, 0x3e, 0x77, 0x66, 0xef, 0xbd, 0x35, 0x3b, 0x09, 0xbf, 0xbf, 0xd4, 0x19, 0xbe, 0xfa, 0x31, 0xaa, 0x3e,
  0xc1, 0xaf, 0x99, 0xbe, 0x8c, 0x0b, 0xbe, 0xbe, 0x48, 0xf5, 0xd4, 0xbd, 0xaa, 0x57, 0xe3, 0xbe, 0x32, 0xe5, 0xa0, 0x3e,
  0xd3, 0x6e, 0xc2, 0xbe, 0x02, 0x1a, 0x9f, 0xbe, 0x7c, 0x83, 0xe8, 0xbc, 0x3e, 0x97, 0xae, 0xbe, 0xbe, 0xfc, 0xff, 0xff,
  0x04, 0x00, 0x00, 0x00, 0x60, 0x00, 0x00, 0x00, 0x8f, 0x99, 0xf2, 0x3e, 0x09, 0x25, 0x04, 0x3f, 0xed, 0xe9, 0xe4, 0x3e,
  0x64, 0x3a, 0xfb, 0x3e, 0x2b, 0xeb, 0xf0, 0x3e, 0xa2, 0x21, 0xe0, 0x3e, 0x0a, 0x98, 0x05, 0x3f, 0xaa, 0x28, 0x03, 0x3f,
  0x81, 0x08, 0xfb, 0x3e, 0xe1, 0xc0, 0xf8, 0x3e, 0xb8, 0xcf, 0x00, 0x3f, 0x55, 0x8e, 0xfb, 0x3e, 0x84, 0xd7, 0x03, 0x3f,
  0x0b, 0x75, 0xf0, 0x3e, 0xf9, 0x0d, 0xe8, 0x3e, 0xf7, 0x77, 0xee, 0x3e, 0x99, 0xb7, 0xe3, 0x3e, 0x19, 0x3c, 0xed, 0x3e,
  0x95, 0x69, 0xf8, 0x3e, 0xfe, 0x7c, 0xfa, 0x3e, 0x88, 0xa1, 0x05, 0x3f, 0x78, 0x07, 0xf8, 0x3e, 0x3e, 0x5c, 0xf2, 0x3e,
  0xfe, 0x19, 0x0b, 0x3f, 0x2a, 0xfd, 0xff, 0xff, 0x04, 0x00, 0x00, 0x00, 0x30, 0x00, 0x00, 0x00, 0x00, 0x00, 0x00, 0x00,
  0x33, 0xda, 0x22, 0x3c, 0xa1, 0xc0, 0x90, 0x3c, 0x15, 0xbe, 0x9b, 0x3d, 0x00, 0x00, 0x00, 0x00, 0x6b, 0x95, 0x2f, 0x3d,
  0xaf, 0x9a, 0x0f, 0x3e, 0xca, 0xb3, 0x49, 0x3b, 0xcb, 0x9d, 0x07, 0x3e, 0x57, 0x37, 0x85, 0xbc, 0x8f, 0x75, 0x5f, 0xbd,
  0xde, 0xb9, 0x6e, 0x3d, 0x66, 0xfd, 0xff, 0xff, 0x04, 0x00, 0x00, 0x00, 0x60, 0x00, 0x00, 0x00, 0xb0, 0xdc, 0x06, 0xbe,
  0xa8, 0x2e, 0x00, 0xbf, 0x9a, 0x1d, 0x3d, 0x40, 0x00, 0xf8, 0x2c, 0x40, 0x98, 0x61, 0x12, 0x3d, 0x68, 0xc6, 0x3c, 0xbf,
  0xf7, 0x87, 0x31, 0x3f, 0x04, 0x8c, 0x39, 0x3e, 0x37, 0x67, 0x08, 0x3f, 0x4b, 0x27, 0x3e, 0x3e, 0xa0, 0x28, 0x02, 0xbc,
  0xae, 0x85, 0x80, 0x3f, 0xdc, 0x47, 0x8d, 0x3e, 0x18, 0x42, 0xee, 0x3e, 0x64, 0xdf, 0x4e, 0xbd, 0x8c, 0xe3, 0x41, 0xbe,
  0x9b, 0xd5, 0x28, 0xbf, 0x8c, 0x3d, 0x37, 0x3f, 0xb9, 0x3f, 0x80, 0xbe, 0xf8, 0x46, 0xe6, 0x3e, 0x33, 0xad, 0x6d, 0xbd,
  0x6d, 0xaa, 0x99, 0xbe, 0x72, 0x8e, 0x99, 0x3d, 0xa8, 0x25, 0xc9, 0x3f, 0xd2, 0xfd, 0xff, 0xff, 0x04, 0x00, 0x00, 0x00,
  0x60, 0x00, 0x00, 0x00, 0x56, 0x95, 0x31, 0xbe, 0xce, 0xe0, 0x9f, 0x3e, 0xfc, 0x64, 0x09, 0x3f, 0x7c, 0x32, 0x15, 0x3f,
  0x0b, 0x50, 0xa7, 0xbe, 0xa2, 0x9f, 0xcb, 0x3e, 0x64, 0x8e, 0x48, 0xbd, 0xc2, 0x44, 0x31, 0xbd, 0x16, 0x3f, 0x9d, 0x3e,
  0x13, 0x93, 0x3e, 0x3f, 0x52, 0x76, 0xbb, 0xbe, 0xc6, 0x10, 0x7e, 0x3e, 0xa6, 0xb6, 0x0c, 0xbf, 0xa6, 0x04, 0x5e, 0x3e,
  0xec, 0x3e, 0x99, 0xbe, 0x70, 0xee, 0xe5, 0xbc, 0xef, 0x7e, 0xa1, 0x3e, 0x8a, 0xd6, 0x07, 0xbf, 0xc4, 0x45, 0x3f, 0xbe,
  0xf6, 0x63, 0x19, 0x3e, 0xac, 0xb5, 0xd4, 0xbe, 0xfa, 0xe5, 0x43, 0xbe, 0x96, 0x87, 0xeb, 0xbe, 0x36, 0x8b, 0x8d, 0x3e,
  0x3e, 0xfe, 0xff, 0xff, 0x04, 0x00, 0x00, 0x00, 0x40, 0x00, 0x00, 0x00, 0x28, 0xaf, 0xfa, 0x3e, 0x75, 0xb1, 0xfe, 0x3e,
  0x4e, 0x7b, 0xff, 0x3e, 0xf8, 0xd8, 0xf0, 0x3e, 0xf4, 0xb0, 0xf4, 0x3e, 0x61, 0x6a, 0x00, 0x3f, 0x6a, 0xc6, 0x02, 0x3f,
  0xde, 0x2f, 0xf9, 0x3e, 0x1d, 0xbb, 0xfa, 0x3e, 0x25, 0xc3, 0xfc, 0x3e, 0xb5, 0x39, 0xee, 0x3e, 0xa3, 0x5a, 0x06, 0x3f,
  0x01, 0xe2, 0x06, 0x3f, 0x84, 0x66, 0xf8, 0x3e, 0x76, 0xc5, 0xfb, 0x3e, 0xbd, 0xef, 0x01, 0x3f, 0x8a, 0xfe, 0xff, 0xff,
  0x04, 0x00, 0x00, 0x00, 0x20, 0x00, 0x00, 0x00, 0xd7, 0xbe, 0x30, 0x3d, 0x00, 0x00, 0x00, 0x00, 0x5f, 0x77, 0x05, 0x3e,
  0x7c, 0x34, 0xe0, 0x3a, 0xf8, 0xdb, 0x14, 0xbc, 0x8b, 0xa9, 0x47, 0xbd, 0xe7, 0x0e, 0x68, 0x3d, 0x00, 0x00, 0x00, 0x00,
  0xb6, 0xfe, 0xff, 0xff, 0x04, 0x00, 0x00, 0x00, 0x40, 0x00, 0x00, 0x00, 0xd1, 0x85, 0x3f, 0x3e, 0xeb, 0x47, 0xc0, 0xbe,
  0x8e, 0x69, 0xef, 0xbe, 0x16, 0xc6, 0xf8, 0xbd, 0x87, 0x08, 0x40, 0x3e, 0x00, 0x6b, 0xf0, 0x3c, 0xb5, 0x93, 0x18, 0x3f,
  0x90, 0xe0, 0x72, 0xbe, 0x50, 0xe1, 0x8c, 0x3d, 0xcc, 0x90, 0x71, 0x3f, 0xb5, 0x11, 0x98, 0xbe, 0x68, 0x05, 0x21, 0x3f,
  0xa9, 0x81, 0x6a, 0xbf, 0xab, 0x4d, 0x66, 0x3e, 0x8e, 0x78, 0xb2, 0xbf, 0x13, 0xd8, 0x6d, 0x3d, 0x02, 0xff, 0xff, 0xff,
  0x04, 0x00, 0x00, 0x00, 0x40, 0x00, 0x00, 0x00, 0x95, 0x89, 0x20, 0xbe, 0x92, 0x12, 0x00, 0xbe, 0xcc, 0x4b, 0xc7, 0xbe,
  0xfa, 0xec, 0x48, 0xbf, 0x8b, 0x90, 0x20, 0x3e, 0x64, 0xa4, 0x45, 0xbf, 0x84, 0xf1, 0x06, 0x3f, 0x13, 0x07, 0x6d, 0xbe,
  0x47, 0x40, 0xa8, 0xbe, 0x46, 0x7a, 0x62, 0x3f, 0xc2, 0x58, 0xa3, 0xbe, 0x4c, 0xf0, 0x0b, 0xbe, 0xe6, 0x7e, 0x2a, 0x3f,
  0xde, 0x0a, 0x17, 0x3d, 0x49, 0xee, 0xab, 0x3f, 0x2e, 0xb7, 0x07, 0xbf, 0x4e, 0xff, 0xff, 0xff, 0x04, 0x00, 0x00, 0x00,
  0x20, 0x00, 0x00, 0x00, 0xd1, 0xd2, 0x00, 0x3f, 0x03, 0xeb, 0xf8, 0x3e, 0x35, 0xaa, 0xef, 0x3e, 0xef, 0x8f, 0xf8, 0x3e,
  0xf2, 0x69, 0x02, 0x3f, 0xc5, 0x78, 0x02, 0x3f, 0xe2, 0xde, 0x07, 0x3f, 0x9f, 0x12, 0x07, 0x3f, 0x7a, 0xff, 0xff, 0xff,
  0x04, 0x00, 0x00, 0x00, 0x10, 0x00, 0x00, 0x00, 0xf4, 0x32, 0x43, 0xbd, 0x98, 0xbf, 0x64, 0x3d, 0x00, 0x00, 0x00, 0x00,
  0xbd, 0xcd, 0x24, 0x3d, 0x96, 0xff, 0xff, 0xff, 0x04, 0x00, 0x00, 0x00, 0x20, 0x00, 0x00, 0x00, 0x2e, 0x33, 0x5b, 0x3f,
  0xc3, 0x80, 0xa3, 0x3e, 0x70, 0xe4, 0x94, 0xbf, 0xdf, 0x64, 0x0a, 0x3f, 0xd1, 0x05, 0x72, 0xbf, 0x56, 0x4c, 0x86, 0x3e,
  0xc5, 0x79, 0x18, 0xbf, 0x94, 0x1a, 0xdc, 0x3e, 0xc2, 0xff, 0xff, 0xff, 0x04, 0x00, 0x00, 0x00, 0x20, 0x00, 0x00, 0x00,
  0x7c, 0xef, 0x76, 0xbf, 0xa5, 0xa2, 0x2d, 0x3f, 0x72, 0xd2, 0xaa, 0x3f, 0x56, 0xd3, 0xb9, 0xbf, 0x2c, 0xae, 0xc4, 0xbe,
  0xb1, 0xf1, 0x51, 0x3f, 0xd5, 0xbf, 0x70, 0xbf, 0x30, 0xbe, 0xaa, 0xbf, 0xee, 0xff, 0xff, 0xff, 0x04, 0x00, 0x00, 0x00,
  0x04, 0x00, 0x00, 0x00, 0x27, 0xa9, 0xe6, 0x3e, 0x00, 0x00, 0x06, 0x00, 0x08, 0x00, 0x04, 0x00, 0x06, 0x00, 0x00, 0x00,
  0x04, 0x00, 0x00, 0x00, 0x04, 0x00, 0x00, 0x00, 0x4d, 0x3b, 0xd3, 0x3d, 0x6c, 0xd9, 0xff, 0xff, 0x70, 0xd9, 0xff, 0xff,
  0x0f, 0x00, 0x00, 0x00, 0x4d, 0x4c, 0x49, 0x52, 0x20, 0x43, 0x6f, 0x6e, 0x76, 0x65, 0x72, 0x74, 0x65, 0x64, 0x2e, 0x00,
  0x01, 0x00, 0x00, 0x00, 0x14, 0x00, 0x00, 0x00, 0x00, 0x00, 0x0e, 0x00, 0x18, 0x00, 0x14, 0x00, 0x10, 0x00, 0x0c, 0x00,
  0x08, 0x00, 0x04, 0x00, 0x0e, 0x00, 0x00, 0x00, 0x14, 0x00, 0x00, 0x00, 0x1c, 0x00, 0x00, 0x00, 0x3c, 0x07, 0x00, 0x00,
  0x40, 0x07, 0x00, 0x00, 0x44, 0x07, 0x00, 0x00, 0x04, 0x00, 0x00, 0x00, 0x6d, 0x61, 0x69, 0x6e, 0x00, 0x00, 0x00, 0x00,
  0x1e, 0x00, 0x00, 0x00, 0x00, 0x07, 0x00, 0x00, 0xa4, 0x06, 0x00, 0x00, 0x3c, 0x06, 0x00, 0x00, 0xec, 0x05, 0x00, 0x00,
  0xa4, 0x05, 0x00, 0x00, 0x64, 0x05, 0x00, 0x00, 0x20, 0x05, 0x00, 0x00, 0xe0, 0x04, 0x00, 0x00, 0xb8, 0x04, 0x00, 0x00,
  0x88, 0x04, 0x00, 0x00, 0x54, 0x04, 0x00, 0x00, 0x10, 0x04, 0x00, 0x00, 0xb4, 0x03, 0x00, 0x00, 0x7c, 0x03, 0x00, 0x00,
  0x38, 0x03, 0x00, 0x00, 0xf8, 0x02, 0x00, 0x00, 0xd0, 0x02, 0x00, 0x00, 0xac, 0x02, 0x00, 0x00, 0x78, 0x02, 0x00, 0x00,
  0x34, 0x02, 0x00, 0x00, 0xe8, 0x01, 0x00, 0x00, 0xb0, 0x01, 0x00, 0x00, 0x6c, 0x01, 0x00, 0x00, 0x2c, 0x01, 0x00, 0x00,
  0x04, 0x01, 0x00, 0x00, 0xe0, 0x00, 0x00, 0x00, 0xac, 0x00, 0x00, 0x00, 0x68, 0x00, 0x00, 0x00, 0x28, 0x00, 0x00, 0x00,
  0x04, 0x00, 0x00, 0x00, 0x82, 0xf9, 0xff, 0xff, 0x08, 0x00, 0x00, 0x00, 0x0c, 0x00, 0x00, 0x00, 0x01, 0x00, 0x00, 0x00,
  0x42, 0x00, 0x00, 0x00, 0x02, 0x00, 0x00, 0x00, 0x41, 0x00, 0x00, 0x00, 0x21, 0x00, 0x00, 0x00, 0xfe, 0xf9, 0xff, 0xff,
  0x14, 0x00, 0x00, 0x00, 0x00, 0x00, 0x00, 0x01, 0x18, 0x00, 0x00, 0x00, 0x1c, 0x00, 0x00, 0x00, 0x02, 0x00, 0x00, 0x00,
  0xba, 0xf9, 0xff, 0xff, 0x01, 0x00, 0x00, 0x00, 0x01, 0x00, 0x00, 0x00, 0x01, 0x00, 0x00, 0x00, 0x41, 0x00, 0x00, 0x00,
  0x03, 0x00, 0x00, 0x00, 0x40, 0x00, 0x00, 0x00, 0x20, 0x00, 0x00, 0x00, 0x15, 0x00, 0x00, 0x00, 0x3a, 0xfa, 0xff, 0xff,
  0x14, 0x00, 0x00, 0x00, 0x00, 0x00, 0x00, 0x01, 0x1c, 0x00, 0x00, 0x00, 0x20, 0x00, 0x00, 0x00, 0x02, 0x00, 0x00, 0x00,
  0xdc, 0xfa, 0xff, 0xff, 0x00, 0x00, 0x00, 0x03, 0x01, 0x00, 0x00, 0x00, 0x01, 0x00, 0x00, 0x00, 0x01, 0x00, 0x00, 0x00,
  0x40, 0x00, 0x00, 0x00, 0x03, 0x00, 0x00, 0x00, 0x3f, 0x00, 0x00, 0x00, 0x1f, 0x00, 0x00, 0x00, 0x0f, 0x00, 0x00, 0x00,
  0x7a, 0xfa, 0xff, 0xff, 0x14, 0x00, 0x00, 0x00, 0x00, 0x00, 0x00, 0x15, 0x10, 0x00, 0x00, 0x00, 0x14, 0x00, 0x00, 0x00,
  0x06, 0x00, 0x00, 0x00, 0xf4, 0xda, 0xff, 0xff, 0x01, 0x00, 0x00, 0x00, 0x3f, 0x00, 0x00, 0x00, 0x02, 0x00, 0x00, 0x00,
  0x39, 0x00, 0x00, 0x00, 0x3e, 0x00, 0x00, 0x00, 0x76, 0xfc, 0xff, 0xff, 0x0c, 0x00, 0x00, 0x00, 0x10, 0x00, 0x00, 0x00,
  0x05, 0x00, 0x00, 0x00, 0x01, 0x00, 0x00, 0x00, 0x3e, 0x00, 0x00, 0x00, 0x01, 0x00, 0x00, 0x00, 0x3d, 0x00, 0x00, 0x00,
  0x96, 0xfc, 0xff, 0xff, 0x0c, 0x00, 0x00, 0x00, 0x10, 0x00, 0x00, 0x00, 0x04, 0x00, 0x00, 0x00, 0x01, 0x00, 0x00, 0x00,
  0x3d, 0x00, 0x00, 0x00, 0x02, 0x00, 0x00, 0x00, 0x3c, 0x00, 0x00, 0x00, 0x23, 0x00, 0x00, 0x00, 0xee, 0xfa, 0xff, 0xff,
  0x14, 0x00, 0x00, 0x00, 0x00, 0x00, 0x00, 0x01, 0x18, 0x00, 0x00, 0x00, 0x1c, 0x00, 0x00, 0x00, 0x02, 0x00, 0x00, 0x00,
  0xaa, 0xfa, 0xff, 0xff, 0x01, 0x00, 0x00, 0x00, 0x01, 0x00, 0x00, 0x00, 0x01, 0x00, 0x00, 0x00, 0x3c, 0x00, 0x00, 0x00,
  0x03, 0x00, 0x00, 0x00, 0x3b, 0x00, 0x00, 0x00, 0x1e, 0x00, 0x00, 0x00, 0x0e, 0x00, 0x00, 0x00, 0x2a, 0xfb, 0xff, 0xff,
  0x14, 0x00, 0x00, 0x00, 0x00, 0x00, 0x00, 0x01, 0x1c, 0x00, 0x00, 0x00, 0x20, 0x00, 0x00, 0x00, 0x02, 0x00, 0x00, 0x00,
  0xcc, 0xfb, 0xff, 0xff, 0x00, 0x00, 0x00, 0x03, 0x01, 0x00, 0x00, 0x00, 0x01, 0x00, 0x00, 0x00, 0x01, 0x00, 0x00, 0x00,
  0x3b, 0x00, 0x00, 0x00, 0x03, 0x00, 0x00, 0x00, 0x3a, 0x00, 0x00, 0x00, 0x1d, 0x00, 0x00, 0x00, 0x0d, 0x00, 0x00, 0x00,
  0x6a, 0xfb, 0xff, 0xff, 0x14, 0x00, 0x00, 0x00, 0x00, 0x00, 0x00, 0x1b, 0x14, 0x00, 0x00, 0x00, 0x18, 0x00, 0x00, 0x00,
  0x03, 0x00, 0x00, 0x00, 0x8a, 0xfc, 0xff, 0xff, 0x00, 0x00, 0x00, 0x01, 0x01, 0x00, 0x00, 0x00, 0x3a, 0x00, 0x00, 0x00,
  0x02, 0x00, 0x00, 0x00, 0x39, 0x00, 0x00, 0x00, 0x24, 0x00, 0x00, 0x00, 0x9e, 0xfb, 0xff, 0xff, 0x14, 0x00, 0x00, 0x00,
  0x00, 0x00, 0x00, 0x02, 0x24, 0x00, 0x00, 0x00, 0x28, 0x00, 0x00, 0x00, 0x01, 0x00, 0x00, 0x00, 0x54, 0xfe, 0xff, 0xff,
  0x04, 0x00, 0x00, 0x00, 0x00, 0x00, 0x00, 0x03, 0x01, 0x00, 0x00, 0x00, 0x01, 0x00, 0x00, 0x00, 0x01, 0x00, 0x00, 0x00,
  0x01, 0x00, 0x00, 0x00, 0x39, 0x00, 0x00, 0x00, 0x03, 0x00, 0x00, 0x00, 0x38, 0x00, 0x00, 0x00, 0x14, 0x00, 0x00, 0x00,
  0x0c, 0x00, 0x00, 0x00, 0xe6, 0xfb, 0xff, 0xff, 0x14, 0x00, 0x00, 0x00, 0x00, 0x00, 0x00, 0x01, 0x1c, 0x00, 0x00, 0x00,
  0x20, 0x00, 0x00, 0x00, 0x02, 0x00, 0x00, 0x00, 0x88, 0xfc, 0xff, 0xff, 0x00, 0x00, 0x00, 0x03, 0x01, 0x00, 0x00, 0x00,
  0x01, 0x00, 0x00, 0x00, 0x01, 0x00, 0x00, 0x00, 0x38, 0x00, 0x00, 0x00, 0x03, 0x00, 0x00, 0x00, 0x37, 0x00, 0x00, 0x00,
  0x1c, 0x00, 0x00, 0x00, 0x0b, 0x00, 0x00, 0x00, 0x26, 0xfc, 0xff, 0xff, 0x14, 0x00, 0x00, 0x00, 0x00, 0x00, 0x00, 0x15,
  0x10, 0x00, 0x00, 0x00, 0x14, 0x00, 0x00, 0x00, 0x06, 0x00, 0x00, 0x00, 0xa0, 0xdc, 0xff, 0xff, 0x01, 0x00, 0x00, 0x00,
  0x37, 0x00, 0x00, 0x00, 0x02, 0x00, 0x00, 0x00, 0x31, 0x00, 0x00, 0x00, 0x36, 0x00, 0x00, 0x00, 0x22, 0xfe, 0xff, 0xff,
  0x0c, 0x00, 0x00, 0x00, 0x10, 0x00, 0x00, 0x00, 0x05, 0x00, 0x00, 0x00, 0x01, 0x00, 0x00, 0x00, 0x36, 0x00, 0x00, 0x00,
  0x01, 0x00, 0x00, 0x00, 0x35, 0x00, 0x00, 0x00, 0x42, 0xfe, 0xff, 0xff, 0x0c, 0x00, 0x00, 0x00, 0x10, 0x00, 0x00, 0x00,
  0x04, 0x00, 0x00, 0x00, 0x01, 0x00, 0x00, 0x00, 0x35, 0x00, 0x00, 0x00, 0x02, 0x00, 0x00, 0x00, 0x34, 0x00, 0x00, 0x00,
  0x23, 0x00, 0x00, 0x00, 0x9a, 0xfc, 0xff, 0xff, 0x14, 0x00, 0x00, 0x00, 0x00, 0x00, 0x00, 0x01, 0x18, 0x00, 0x00, 0x00,
  0x1c, 0x00, 0x00, 0x00, 0x02, 0x00, 0x00, 0x00, 0x56, 0xfc, 0xff, 0xff, 0x01, 0x00, 0x00, 0x00, 0x01, 0x00, 0x00, 0x00,
  0x01, 0x00, 0x00, 0x00, 0x34, 0x00, 0x00, 0x00, 0x03, 0x00, 0x00, 0x00, 0x33, 0x00, 0x00, 0x00, 0x1b, 0x00, 0x00, 0x00,
  0x0a, 0x00, 0x00, 0x00, 0xd6, 0xfc, 0xff, 0xff, 0x14, 0x00, 0x00, 0x00, 0x00, 0x00, 0x00, 0x01, 0x1c, 0x00, 0x00, 0x00,
  0x20, 0x00, 0x00, 0x00, 0x02, 0x00, 0x00, 0x00, 0x78, 0xfd, 0xff, 0xff, 0x00, 0x00, 0x00, 0x03, 0x01, 0x00, 0x00, 0x00,
  0x01, 0x00, 0x00, 0x00, 0x01, 0x00, 0x00, 0x00, 0x33, 0x00, 0x00, 0x00, 0x03, 0x00, 0x00, 0x00, 0x32, 0x00, 0x00, 0x00,
  0x1a, 0x00, 0x00, 0x00, 0x09, 0x00, 0x00, 0x00, 0x16, 0xfd, 0xff, 0xff, 0x14, 0x00, 0x00, 0x00, 0x00, 0x00, 0x00, 0x1b,
  0x14, 0x00, 0x00, 0x00, 0x18, 0x00, 0x00, 0x00, 0x03, 0x00, 0x00, 0x00, 0x36, 0xfe, 0xff, 0xff, 0x00, 0x00, 0x00, 0x01,
  0x01, 0x00, 0x00, 0x00, 0x32, 0x00, 0x00, 0x00, 0x02, 0x00, 0x00, 0x00, 0x31, 0x00, 0x00, 0x00, 0x24, 0x00, 0x00, 0x00,
  0x4a, 0xfd, 0xff, 0xff, 0x24, 0x00, 0x00, 0x00, 0x00, 0x00, 0x00, 0x02, 0x34, 0x00, 0x00, 0x00, 0x38, 0x00, 0x00, 0x00,
  0x01, 0x00, 0x00, 0x00, 0x10, 0x00, 0x18, 0x00, 0x00, 0x00, 0x14, 0x00, 0x10, 0x00, 0x0c, 0x00, 0x0b, 0x00, 0x04, 0x00,
  0x10, 0x00, 0x00, 0x00, 0x02, 0x00, 0x00, 0x00, 0x00, 0x00, 0x00, 0x03, 0x01, 0x00, 0x00, 0x00, 0x01, 0x00, 0x00, 0x00,
  0x01, 0x00, 0x00, 0x00, 0x01, 0x00, 0x00, 0x00, 0x31, 0x00, 0x00, 0x00, 0x03, 0x00, 0x00, 0x00, 0x30, 0x00, 0x00, 0x00,
  0x13, 0x00, 0x00, 0x00, 0x08, 0x00, 0x00, 0x00, 0xa2, 0xfd, 0xff, 0xff, 0x14, 0x00, 0x00, 0x00, 0x00, 0x00, 0x00, 0x01,
  0x1c, 0x00, 0x00, 0x00, 0x20, 0x00, 0x00, 0x00, 0x02, 0x00, 0x00, 0x00, 0x44, 0xfe, 0xff, 0xff, 0x00, 0x00, 0x00, 0x03,
  0x01, 0x00, 0x00, 0x00, 0x01, 0x00, 0x00, 0x00, 0x01, 0x00, 0x00, 0x00, 0x30, 0x00, 0x00, 0x00, 0x03, 0x00, 0x00, 0x00,
  0x2f, 0x00, 0x00, 0x00, 0x19, 0x00, 0x00, 0x00, 0x07, 0x00, 0x00, 0x00, 0xe2, 0xfd, 0xff, 0xff, 0x14, 0x00, 0x00, 0x00,
  0x00, 0x00, 0x00, 0x15, 0x10, 0x00, 0x00, 0x00, 0x14, 0x00, 0x00, 0x00, 0x06, 0x00, 0x00, 0x00, 0x5c, 0xde, 0xff, 0xff,
  0x01, 0x00, 0x00, 0x00, 0x2f, 0x00, 0x00, 0x00, 0x02, 0x00, 0x00, 0x00, 0x29, 0x00, 0x00, 0x00, 0x2e, 0x00, 0x00, 0x00,
  0xde, 0xff, 0xff, 0xff, 0x0c, 0x00, 0x00, 0x00, 0x10, 0x00, 0x00, 0x00, 0x05, 0x00, 0x00, 0x00, 0x01, 0x00, 0x00, 0x00,
  0x2e, 0x00, 0x00, 0x00, 0x01, 0x00, 0x00, 0x00, 0x2d, 0x00, 0x00, 0x00, 0x00, 0x00, 0x0a, 0x00, 0x10, 0x00, 0x0c, 0x00,
  0x08, 0x00, 0x04, 0x00, 0x0a, 0x00, 0x00, 0x00, 0x0c, 0x00, 0x00, 0x00, 0x10, 0x00, 0x00, 0x00, 0x04, 0x00, 0x00, 0x00,
  0x01, 0x00, 0x00, 0x00, 0x2d, 0x00, 0x00, 0x00, 0x02, 0x00, 0x00, 0x00, 0x2c, 0x00, 0x00, 0x00, 0x23, 0x00, 0x00, 0x00,
  0x62, 0xfe, 0xff, 0xff, 0x14, 0x00, 0x00, 0x00, 0x00, 0x00, 0x00, 0x01, 0x18, 0x00, 0x00, 0x00, 0x1c, 0x00, 0x00, 0x00,
  0x02, 0x00, 0x00, 0x00, 0x1e, 0xfe, 0xff, 0xff, 0x01, 0x00, 0x00, 0x00, 0x01, 0x00, 0x00, 0x00, 0x01, 0x00, 0x00, 0x00,
  0x2c, 0x00, 0x00, 0x00, 0x03, 0x00, 0x00, 0x00, 0x2b, 0x00, 0x00, 0x00, 0x18, 0x00, 0x00, 0x00, 0x06, 0x00, 0x00, 0x00,
  0x9e, 0xfe, 0xff, 0xff, 0x14, 0x00, 0x00, 0x00, 0x00, 0x00, 0x00, 0x01, 0x1c, 0x00, 0x00, 0x00, 0x20, 0x00, 0x00, 0x00,
  0x02, 0x00, 0x00, 0x00, 0x40, 0xff, 0xff, 0xff, 0x00, 0x00, 0x00, 0x03, 0x01, 0x00, 0x00, 0x00, 0x01, 0x00, 0x00, 0x00,
  0x01, 0x00, 0x00, 0x00, 0x2b, 0x00, 0x00, 0x00, 0x03, 0x00, 0x00, 0x00, 0x2a, 0x00, 0x00, 0x00, 0x17, 0x00, 0x00, 0x00,
  0x05, 0x00, 0x00, 0x00, 0xde, 0xfe, 0xff, 0xff, 0x1c, 0x00, 0x00, 0x00, 0x00, 0x00, 0x00, 0x1b, 0x1c, 0x00, 0x00, 0x00,
  0x20, 0x00, 0x00, 0x00, 0x03, 0x00, 0x00, 0x00, 0x00, 0x00, 0x06, 0x00, 0x08, 0x00, 0x07, 0x00, 0x06, 0x00, 0x00, 0x00,
  0x00, 0x00, 0x00, 0x01, 0x01, 0x00, 0x00, 0x00, 0x2a, 0x00, 0x00, 0x00, 0x02, 0x00, 0x00, 0x00, 0x29, 0x00, 0x00, 0x00,
  0x24, 0x00, 0x00, 0x00, 0x1a, 0xff, 0xff, 0xff, 0x14, 0x00, 0x00, 0x00, 0x00, 0x00, 0x00, 0x02, 0x20, 0x00, 0x00, 0x00,
  0x24, 0x00, 0x00, 0x00, 0x01, 0x00, 0x00, 0x00, 0x6e, 0xff, 0xff, 0xff, 0x00, 0x00, 0x00, 0x03, 0x01, 0x00, 0x00, 0x00,
  0x01, 0x00, 0x00, 0x00, 0x01, 0x00, 0x00, 0x00, 0x01, 0x00, 0x00, 0x00, 0x29, 0x00, 0x00, 0x00, 0x03, 0x00, 0x00, 0x00,
  0x28, 0x00, 0x00, 0x00, 0x12, 0x00, 0x00, 0x00, 0x04, 0x00, 0x00, 0x00, 0x5e, 0xff, 0xff, 0xff, 0x20, 0x00, 0x00, 0x00,
  0x00, 0x00, 0x00, 0x01, 0x28, 0x00, 0x00, 0x00, 0x2c, 0x00, 0x00, 0x00, 0x02, 0x00, 0x00, 0x00, 0x0c, 0x00, 0x10, 0x00,
  0x00, 0x00, 0x0c, 0x00, 0x08, 0x00, 0x07, 0x00, 0x0c, 0x00, 0x00, 0x00, 0x00, 0x00, 0x00, 0x03, 0x01, 0x00, 0x00, 0x00,
  0x01, 0x00, 0x00, 0x00, 0x01, 0x00, 0x00, 0x00, 0x28, 0x00, 0x00, 0x00, 0x03, 0x00, 0x00, 0x00, 0x27, 0x00, 0x00, 0x00,
  0x16, 0x00, 0x00, 0x00, 0x03, 0x00, 0x00, 0x00, 0xaa, 0xff, 0xff, 0xff, 0x24, 0x00, 0x00, 0x00, 0x00, 0x00, 0x00, 0x02,
  0x30, 0x00, 0x00, 0x00, 0x34, 0x00, 0x00, 0x00, 0x01, 0x00, 0x00, 0x00, 0x00, 0x00, 0x0e, 0x00, 0x14, 0x00, 0x00, 0x00,
  0x10, 0x00, 0x0c, 0x00, 0x08, 0x00, 0x07, 0x00, 0x0e, 0x00, 0x00, 0x00, 0x00, 0x00, 0x00, 0x03, 0x01, 0x00, 0x00, 0x00,
  0x01, 0x00, 0x00, 0x00, 0x01, 0x00, 0x00, 0x00, 0x01, 0x00, 0x00, 0x00, 0x27, 0x00, 0x00, 0x00, 0x03, 0x00, 0x00, 0x00,
  0x26, 0x00, 0x00, 0x00, 0x11, 0x00, 0x00, 0x00, 0x02, 0x00, 0x00, 0x00, 0x00, 0x00, 0x0e, 0x00, 0x18, 0x00, 0x14, 0x00,
  0x10, 0x00, 0x0c, 0x00, 0x0b, 0x00, 0x04, 0x00, 0x0e, 0x00, 0x00, 0x00, 0x20, 0x00, 0x00, 0x00, 0x00, 0x00, 0x00, 0x02,
  0x28, 0x00, 0x00, 0x00, 0x2c, 0x00, 0x00, 0x00, 0x01, 0x00, 0x00, 0x00, 0x0c, 0x00, 0x10, 0x00, 0x00, 0x00, 0x0c, 0x00,
  0x08, 0x00, 0x04, 0x00, 0x0c, 0x00, 0x00, 0x00, 0x01, 0x00, 0x00, 0x00, 0x01, 0x00, 0x00, 0x00, 0x01, 0x00, 0x00, 0x00,
  0x01, 0x00, 0x00, 0x00, 0x26, 0x00, 0x00, 0x00, 0x03, 0x00, 0x00, 0x00, 0x25, 0x00, 0x00, 0x00, 0x10, 0x00, 0x00, 0x00,
  0x01, 0x00, 0x00, 0x00, 0x00, 0x00, 0x0a, 0x00, 0x0c, 0x00, 0x00, 0x00, 0x08, 0x00, 0x04, 0x00, 0x0a, 0x00, 0x00, 0x00,
  0x08, 0x00, 0x00, 0x00, 0x0c, 0x00, 0x00, 0x00, 0x01, 0x00, 0x00, 0x00, 0x25, 0x00, 0x00, 0x00, 0x02, 0x00, 0x00, 0x00,
  0x00, 0x00, 0x00, 0x00, 0x22, 0x00, 0x00, 0x00, 0x01, 0x00, 0x00, 0x00, 0x42, 0x00, 0x00, 0x00, 0x01, 0x00, 0x00, 0x00,
  0x00, 0x00, 0x00, 0x00, 0x43, 0x00, 0x00, 0x00, 0xec, 0x1e, 0x00, 0x00, 0x8c, 0x1e, 0x00, 0x00, 0x3c, 0x1e, 0x00, 0x00,
  0xec, 0x1d, 0x00, 0x00, 0x9c, 0x1d, 0x00, 0x00, 0x44, 0x1d, 0x00, 0x00, 0x68, 0x1c, 0x00, 0x00, 0x18, 0x1c, 0x00, 0x00,
  0xc8, 0x1b, 0x00, 0x00, 0x70, 0x1b, 0x00, 0x00, 0x94, 0x1a, 0x00, 0x00, 0x44, 0x1a, 0x00, 0x00, 0xf4, 0x19, 0x00, 0x00,
  0x9c, 0x19, 0x00, 0x00, 0xc0, 0x18, 0x00, 0x00, 0x70, 0x18, 0x00, 0x00, 0xf0, 0x17, 0x00, 0x00, 0x60, 0x17, 0x00, 0x00,
  0xc8, 0x16, 0x00, 0x00, 0x30, 0x16, 0x00, 0x00, 0x98, 0x15, 0x00, 0x00, 0x44, 0x15, 0x00, 0x00, 0xf0, 0x14, 0x00, 0x00,
  0x9c, 0x14, 0x00, 0x00, 0x48, 0x14, 0x00, 0x00, 0xf4, 0x13, 0x00, 0x00, 0xa0, 0x13, 0x00, 0x00, 0x4c, 0x13, 0x00, 0x00,
  0xf8, 0x12, 0x00, 0x00, 0xa4, 0x12, 0x00, 0x00, 0x50, 0x12, 0x00, 0x00, 0xfc, 0x11, 0x00, 0x00, 0xac, 0x11, 0x00, 0x00,
  0x60, 0x11, 0x00, 0x00, 0xfc, 0x10, 0x00, 0x00, 0xa8, 0x10, 0x00, 0x00, 0x4c, 0x10, 0x00, 0x00, 0x00, 0x10, 0x00, 0x00,
  0x80, 0x0f, 0x00, 0x00, 0xd8, 0x0e, 0x00, 0x00, 0x2c, 0x0e, 0x00, 0x00, 0x80, 0x0d, 0x00, 0x00, 0x30, 0x0d, 0x00, 0x00,
  0x78, 0x0c, 0x00, 0x00, 0x58, 0x0b, 0x00, 0x00, 0xf4, 0x0a, 0x00, 0x00, 0x98, 0x0a, 0x00, 0x00, 0x4c, 0x0a, 0x00, 0x00,
  0xa0, 0x09, 0x00, 0x00, 0xf4, 0x08, 0x00, 0x00, 0xa4, 0x08, 0x00, 0x00, 0xec, 0x07, 0x00, 0x00, 0xe8, 0x06, 0x00, 0x00,
  0x84, 0x06, 0x00, 0x00, 0x28, 0x06, 0x00, 0x00, 0xdc, 0x05, 0x00, 0x00, 0x30, 0x05, 0x00, 0x00, 0x84, 0x04, 0x00, 0x00,
  0x34, 0x04, 0x00, 0x00, 0x7c, 0x03, 0x00, 0x00, 0x78, 0x02, 0x00, 0x00, 0x14, 0x02, 0x00, 0x00, 0xb8, 0x01, 0x00, 0x00,
  0x6c, 0x01, 0x00, 0x00, 0xdc, 0x00, 0x00, 0x00, 0x54, 0x00, 0x00, 0x00, 0x04, 0x00, 0x00, 0x00, 0x36, 0xe2, 0xff, 0xff,
  0x00, 0x00, 0x00, 0x01, 0x10, 0x00, 0x00, 0x00, 0x10, 0x00, 0x00, 0x00, 0x43, 0x00, 0x00, 0x00, 0x28, 0x00, 0x00, 0x00,
  0x20, 0xe2, 0xff, 0xff, 0x19, 0x00, 0x00, 0x00, 0x53, 0x74, 0x61, 0x74, 0x65, 0x66, 0x75, 0x6c, 0x50, 0x61, 0x72, 0x74,
  0x69, 0x74, 0x69, 0x6f, 0x6e, 0x65, 0x64, 0x43, 0x61, 0x6c, 0x6c, 0x3a, 0x30, 0x00, 0x00, 0x00, 0x03, 0x00, 0x00, 0x00,
  0x01, 0x00, 0x00, 0x00, 0x00, 0x01, 0x00, 0x00, 0x01, 0x00, 0x00, 0x00, 0x82, 0xe2, 0xff, 0xff, 0x00, 0x00, 0x00, 0x01,
  0x10, 0x00, 0x00, 0x00, 0x10, 0x00, 0x00, 0x00, 0x42, 0x00, 0x00, 0x00, 0x5c, 0x00, 0x00, 0x00, 0x6c, 0xe2, 0xff, 0xff,
  0x4f, 0x00, 0x00, 0x00, 0x74, 0x63, 0x6e, 0x2f, 0x4e, 0x45, 0x43, 0x4b, 0x2e, 0x63, 0x6f, 0x6e, 0x76, 0x2f, 0x42, 0x69,
  0x61, 0x73, 0x41, 0x64, 0x64, 0x3b, 0x74, 0x63, 0x6e, 0x2f, 0x4e, 0x45, 0x43, 0x4b, 0x2e, 0x63, 0x6f, 0x6e, 0x76, 0x2f,
  0x43, 0x6f, 0x6e, 0x76, 0x32, 0x44, 0x3b, 0x74, 0x63, 0x6e, 0x2f, 0x4e, 0x45, 0x43, 0x4b, 0x2e, 0x63, 0x6f, 0x6e, 0x76,
  0x2f, 0x42, 0x69, 0x61, 0x73, 0x41, 0x64, 0x64, 0x2f, 0x52, 0x65, 0x61, 0x64, 0x56, 0x61, 0x72, 0x69, 0x61, 0x62, 0x6c,
  0x65, 0x4f, 0x70, 0x00, 0x04, 0x00, 0x00, 0x00, 0x01, 0x00, 0x00, 0x00, 0x01, 0x00, 0x00, 0x00, 0x00, 0x01, 0x00, 0x00,
  0x01, 0x00, 0x00, 0x00, 0x06, 0xe3, 0xff, 0xff, 0x00, 0x00, 0x00, 0x01, 0x10, 0x00, 0x00, 0x00, 0x10, 0x00, 0x00, 0x00,
  0x41, 0x00, 0x00, 0x00, 0x64, 0x00, 0x00, 0x00, 0xf0, 0xe2, 0xff, 0xff, 0x54, 0x00, 0x00, 0x00, 0x74, 0x63, 0x6e, 0x2f,
  0x42, 0x34, 0x2e, 0x44, 0x31, 0x2e, 0x50, 0x57, 0x2e, 0x41, 0x43, 0x54, 0x2f, 0x52, 0x65, 0x6c, 0x75, 0x36, 0x3b, 0x74,
  0x63, 0x6e, 0x2f, 0x42, 0x34, 0x2e, 0x44, 0x31, 0x2e, 0x50, 0x57, 0x2e, 0x42, 0x31, 0x2e, 0x42, 0x4e, 0x2f, 0x46, 0x75,
  0x73, 0x65, 0x64, 0x42, 0x61, 0x74, 0x63, 0x68, 0x4e, 0x6f, 0x72, 0x6d, 0x56, 0x33, 0x3b, 0x74, 0x63, 0x6e, 0x2f, 0x42,
  0x34, 0x2e, 0x44, 0x31, 0x2e, 0x50, 0x57, 0x2e, 0x42, 0x31, 0x2e, 0x43, 0x4e, 0x2f, 0x43, 0x6f, 0x6e, 0x76, 0x32, 0x44,
  0x00, 0x00, 0x00, 0x00, 0x04, 0x00, 0x00, 0x00, 0x01, 0x00, 0x00, 0x00, 0x01, 0x00, 0x00, 0x00, 0x00, 0x01, 0x00, 0x00,
  0x20, 0x00, 0x00, 0x00, 0x92, 0xe3, 0xff, 0xff, 0x00, 0x00, 0x00, 0x01, 0x10, 0x00, 0x00, 0x00, 0x10, 0x00, 0x00, 0x00,
  0x40, 0x00, 0x00, 0x00, 0x20, 0x00, 0x00, 0x00, 0x7c, 0xe3, 0xff, 0xff, 0x12, 0x00, 0x00, 0x00, 0x74, 0x63, 0x6e, 0x2f,
  0x6d, 0x75, 0x6c, 0x74, 0x69, 0x70, 0x6c, 0x79, 0x5f, 0x32, 0x2f, 0x6d, 0x75, 0x6c, 0x00, 0x00, 0x04, 0x00, 0x00, 0x00,
  0x01, 0x00, 0x00, 0x00, 0x01, 0x00, 0x00, 0x00, 0x00, 0x01, 0x00, 0x00, 0x18, 0x00, 0x00, 0x00, 0xda, 0xe3, 0xff, 0xff,
  0x00, 0x00, 0x00, 0x01, 0x10, 0x00, 0x00, 0x00, 0x10, 0x00, 0x00, 0x00, 0x3f, 0x00, 0x00, 0x00, 0x30, 0x00, 0x00, 0x00,
  0xc4, 0xe3, 0xff, 0xff, 0x21, 0x00, 0x00, 0x00, 0x74, 0x63, 0x6e, 0x2f, 0x42, 0x34, 0x2e, 0x44, 0x31, 0x2e, 0x53, 0x45,
  0x2e, 0x65, 0x78, 0x2e, 0x61, 0x63, 0x74, 0x2f, 0x63, 0x6c, 0x69, 0x70, 0x5f, 0x62, 0x79, 0x5f, 0x76, 0x61, 0x6c, 0x75,
  0x65, 0x00, 0x00, 0x00, 0x04, 0x00, 0x00, 0x00, 0x01, 0x00, 0x00, 0x00, 0x01, 0x00, 0x00, 0x00, 0x01, 0x00, 0x00, 0x00,
  0x18, 0x00, 0x00, 0x00, 0x32, 0xe4, 0xff, 0xff, 0x00, 0x00, 0x00, 0x01, 0x10, 0x00, 0x00, 0x00, 0x10, 0x00, 0x00, 0x00,
  0x3e, 0x00, 0x00, 0x00, 0x38, 0x00, 0x00, 0x00, 0x1c, 0xe4, 0xff, 0xff, 0x29, 0x00, 0x00, 0x00, 0x74, 0x63, 0x6e, 0x2f,
  0x42, 0x34, 0x2e, 0x44, 0x31, 0x2e, 0x53, 0x45, 0x2e, 0x65, 0x78, 0x2e, 0x61, 0x63, 0x74, 0x2f, 0x63, 0x6c, 0x69, 0x70,
  0x5f, 0x62, 0x79, 0x5f, 0x76, 0x61, 0x6c, 0x75, 0x65, 0x2f, 0x4d, 0x69, 0x6e, 0x69, 0x6d, 0x75, 0x6d, 0x00, 0x00, 0x00,
  0x04, 0x00, 0x00, 0x00, 0x01, 0x00, 0x00, 0x00, 0x01, 0x00, 0x00, 0x00, 0x01, 0x00, 0x00, 0x00, 0x18, 0x00, 0x00, 0x00,
  0x92, 0xe4, 0xff, 0xff, 0x00, 0x00, 0x00, 0x01, 0x10, 0x00, 0x00, 0x00, 0x10, 0x00, 0x00, 0x00, 0x3d, 0x00, 0x00, 0x00,
  0xd8, 0x00, 0x00, 0x00, 0x7c, 0xe4, 0xff, 0xff, 0xca, 0x00, 0x00, 0x00, 0x74, 0x63, 0x6e, 0x2f, 0x42, 0x34, 0x2e, 0x44,
  0x31, 0x2e, 0x53, 0x45, 0x2e, 0x65, 0x78, 0x2e, 0x61, 0x63, 0x74, 0x2f, 0x41, 0x64, 0x64, 0x3b, 0x74, 0x63, 0x6e, 0x2f,
  0x42, 0x34, 0x2e, 0x44, 0x31, 0x2e, 0x53, 0x45, 0x2e, 0x65, 0x78, 0x2e, 0x61, 0x63, 0x74, 0x2f, 0x4d, 0x75, 0x6c, 0x3b,
  0x74, 0x63, 0x6e, 0x2f, 0x42, 0x34, 0x2e, 0x44, 0x31, 0x2e, 0x53, 0x45, 0x2e, 0x65, 0x78, 0x2e, 0x63, 0x6f, 0x6e, 0x76,
  0x2f, 0x42, 0x69, 0x61, 0x73, 0x41, 0x64, 0x64, 0x2f, 0x52, 0x65, 0x61, 0x64, 0x56, 0x61, 0x72, 0x69, 0x61, 0x62, 0x6c,
  0x65, 0x4f, 0x70, 0x3b, 0x74, 0x63, 0x6e, 0x2f, 0x42, 0x34, 0x2e, 0x44, 0x31, 0x2e, 0x53, 0x45, 0x2e, 0x65, 0x78, 0x2e,
  0x63, 0x6f, 0x6e, 0x76, 0x2f, 0x42, 0x69, 0x61, 0x73, 0x41, 0x64, 0x64, 0x3b, 0x74, 0x63, 0x6e, 0x2f, 0x42, 0x32, 0x2e,
  0x44, 0x31, 0x2e, 0x53, 0x45, 0x2e, 0x65, 0x78, 0x2e, 0x61, 0x63, 0x74, 0x2f, 0x43, 0x6f, 0x6e, 0x73, 0x74, 0x3b, 0x74,
  0x63, 0x6e, 0x2f, 0x42, 0x32, 0x2e, 0x44, 0x31, 0x2e, 0x53, 0x45, 0x2e, 0x65, 0x78, 0x2e, 0x61, 0x63, 0x74, 0x2f, 0x43,
  0x6f, 0x6e, 0x73, 0x74, 0x5f, 0x31, 0x3b, 0x74, 0x63, 0x6e, 0x2f, 0x42, 0x34, 0x2e, 0x44, 0x31, 0x2e, 0x53, 0x45, 0x2e,
  0x65, 0x78, 0x2e, 0x63, 0x6f, 0x6e, 0x76, 0x2f, 0x43, 0x6f, 0x6e, 0x76, 0x32, 0x44, 0x00, 0x00, 0x04, 0x00, 0x00, 0x00,
  0x01, 0x00, 0x00, 0x00, 0x01, 0x00, 0x00, 0x00, 0x01, 0x00, 0x00, 0x00, 0x18, 0x00, 0x00, 0x00, 0x92, 0xe5, 0xff, 0xff,
  0x00, 0x00, 0x00, 0x01, 0x10, 0x00, 0x00, 0x00, 0x10, 0x00, 0x00, 0x00, 0x3c, 0x00, 0x00, 0x00, 0x8c, 0x00, 0x00, 0x00,
  0x7c, 0xe5, 0xff, 0xff, 0x7e, 0x00, 0x00, 0x00, 0x74, 0x63, 0x6e, 0x2f, 0x42, 0x34, 0x2e, 0x44, 0x31, 0x2e, 0x53, 0x45,
  0x2e, 0x73, 0x71, 0x2e, 0x61, 0x63, 0x74, 0x2f, 0x52, 0x65, 0x6c, 0x75, 0x36, 0x3b, 0x74, 0x63, 0x6e, 0x2f, 0x42, 0x34,
  0x2e, 0x44, 0x31, 0x2e, 0x53, 0x45, 0x2e, 0x73, 0x71, 0x2e, 0x63, 0x6f, 0x6e, 0x76, 0x2f, 0x42, 0x69, 0x61, 0x73, 0x41,
  0x64, 0x64, 0x3b, 0x74, 0x63, 0x6e, 0x2f, 0x42, 0x34, 0x2e, 0x44, 0x31, 0x2e, 0x53, 0x45, 0x2e, 0x73, 0x71, 0x2e, 0x63,
  0x6f, 0x6e, 0x76, 0x2f, 0x43, 0x6f, 0x6e, 0x76, 0x32, 0x44, 0x3b, 0x74, 0x63, 0x6e, 0x2f, 0x42, 0x34, 0x2e, 0x44, 0x31,
  0x2e, 0x53, 0x45, 0x2e, 0x73, 0x71, 0x2e, 0x63, 0x6f, 0x6e, 0x76, 0x2f, 0x42, 0x69, 0x61, 0x73, 0x41, 0x64, 0x64, 0x2f,
  0x52, 0x65, 0x61, 0x64, 0x56, 0x61, 0x72, 0x69, 0x61, 0x62, 0x6c, 0x65, 0x4f, 0x70, 0x00, 0x00, 0x04, 0x00, 0x00, 0x00,
  0x01, 0x00, 0x00, 0x00, 0x01, 0x00, 0x00, 0x00, 0x01, 0x00, 0x00, 0x00, 0x0c, 0x00, 0x00, 0x00, 0x46, 0xe6, 0xff, 0xff,
